
#include <cstdint>

// TFLite Model Data
// Length: 13400 bytes
alignas(16) const unsigned char g_model[] = {
    0x20, 0x00, 0x00, 0x00, 0x54, 0x46, 0x4c, 0x33, 0x00, 0x00, 0x00, 0x00, 0x14, 0x00, 0x20, 0x00, 0x1c, 0x00, 0x18, 0x00, 0x14, 0x00, 0x10, 0x00, 0x0c, 0x00, 0x00, 0x00, 0x08, 0x00, 0x04, 0x00, 0x14, 0x00, 0x00, 0x00, 0x1c, 0x00, 0x00, 0x00, 0x94, 0x00, 0x00, 0x00, 0xec, 0x00, 0x00, 0x00, 0x40, 0x12, 0x00, 0x00, 0x50, 0x12, 0x00, 0x00, 0x98, 0x33, 0x00, 0x00, 0x03, 0x00, 0x00, 0x00, 0x01, 0x00, 0x00, 0x00, 0x10, 0x00, 0x00, 0x00, 0x00, 0x00, 0x0a, 0x00, 0x10, 0x00, 0x0c, 0x00, 0x08, 0x00, 0x04, 0x00, 0x0a, 0x00, 0x00, 0x00, 0x0c, 0x00, 0x00, 0x00, 0x1c, 0x00, 0x00, 0x00, 0x3c, 0x00, 0x00, 0x00, 0x0f, 0x00, 0x00, 0x00, 0x73, 0x65, 0x72, 0x76, 0x69, 0x6e, 0x67, 0x5f, 0x64, 0x65, 0x66, 0x61, 0x75, 0x6c, 0x74, 0x00, 0x01, 0x00, 0x00, 0x00, 0x04, 0x00, 0x00, 0x00, 0x94, 0xff, 0xff, 0xff, 0x17, 0x00, 0x00, 0x00, 0x04, 0x00, 0x00, 0x00, 0x08, 0x00, 0x00, 0x00, 0x6f, 0x75, 0x74, 0x70, 0x75, 0x74, 0x5f, 0x30, 0x00, 0x00, 0x00, 0x00, 0x01, 0x00, 0x00, 0x00, 0x04, 0x00, 0x00, 0x00, 0x9e, 0xed, 0xff, 0xff, 0x04, 0x00, 0x00, 0x00, 0x0b, 0x00, 0x00, 0x00, 0x69, 0x6e, 0x70, 0x75, 0x74, 0x5f, 0x6c, 0x61, 0x79, 0x65, 0x72, 0x00, 0x02, 0x00, 0x00, 0x00, 0x34, 0x00, 0x00, 0x00, 0x04, 0x00, 0x00, 0x00, 0xdc, 0xff, 0xff, 0xff, 0x1a, 0x00, 0x00, 0x00, 0x04, 0x00, 0x00, 0x00, 0x13, 0x00, 0x00, 0x00, 0x43, 0x4f, 0x4e, 0x56, 0x45, 0x52, 0x53, 0x49, 0x4f, 0x4e, 0x5f, 0x4d, 0x45, 0x54, 0x41, 0x44, 0x41, 0x54, 0x41, 0x00, 0x08, 0x00, 0x0c, 0x00, 0x08, 0x00, 0x04, 0x00, 0x08, 0x00, 0x00, 0x00, 0x19, 0x00, 0x00, 0x00, 0x04, 0x00, 0x00, 0x00, 0x13, 0x00, 0x00, 0x00, 0x6d, 0x69, 0x6e, 0x5f, 0x72, 0x75, 0x6e, 0x74, 0x69, 0x6d, 0x65, 0x5f, 0x76, 0x65, 0x72, 0x73, 0x69, 0x6f, 0x6e, 0x00, 0x1b, 0x00, 0x00, 0x00, 0x50, 0x11, 0x00, 0x00, 0x48, 0x11, 0x00, 0x00, 0x30, 0x11, 0x00, 0x00, 0x14, 0x11, 0x00, 0x00, 0x44, 0x10, 0x00, 0x00, 0x34, 0x0f, 0x00, 0x00, 0x24, 0x07, 0x00, 0x00, 0x94, 0x06, 0x00, 0x00, 0x64, 0x05, 0x00, 0x00, 0xd4, 0x04, 0x00, 0x00, 0xc4, 0x02, 0x00, 0x00, 0x74, 0x02, 0x00, 0x00, 0xd4, 0x01, 0x00, 0x00, 0x84, 0x01, 0x00, 0x00, 0xe4, 0x00, 0x00, 0x00, 0xdc, 0x00, 0x00, 0x00, 0xd4, 0x00, 0x00, 0x00, 0xcc, 0x00, 0x00, 0x00, 0xc4, 0x00, 0x00, 0x00, 0xbc, 0x00, 0x00, 0x00, 0xb4, 0x00, 0x00, 0x00, 0xac, 0x00, 0x00, 0x00, 0xa4, 0x00, 0x00, 0x00, 0x9c, 0x00, 0x00, 0x00, 0x94, 0x00, 0x00, 0x00, 0x74, 0x00, 0x00, 0x00, 0x04, 0x00, 0x00, 0x00, 0x82, 0xee, 0xff, 0xff, 0x04, 0x00, 0x00, 0x00, 0x60, 0x00, 0x00, 0x00, 0x0c, 0x00, 0x00, 0x00, 0x08, 0x00, 0x0e, 0x00, 0x08, 0x00, 0x04, 0x00, 0x08, 0x00, 0x00, 0x00, 0x10, 0x00, 0x00, 0x00, 0x28, 0x00, 0x00, 0x00, 0x00, 0x00, 0x06, 0x00, 0x08, 0x00, 0x04, 0x00, 0x06, 0x00, 0x00, 0x00, 0x04, 0x00, 0x00, 0x00, 0x01, 0x00, 0x00, 0x00, 0xeb, 0x03, 0x00, 0x00, 0x0c, 0x00, 0x18, 0x00, 0x14, 0x00, 0x10, 0x00, 0x0c, 0x00, 0x04, 0x00, 0x0c, 0x00, 0x00, 0x00, 0xfb, 0xa5, 0x61, 0xb7, 0x49, 0x12, 0x68, 0xfe, 0x02, 0x00, 0x00, 0x00, 0x02, 0x00, 0x00, 0x00, 0x04, 0x00, 0x00, 0x00, 0x06, 0x00, 0x00, 0x00, 0x32, 0x2e, 0x32, 0x30, 0x2e, 0x30, 0x00, 0x00, 0xee, 0xee, 0xff, 0xff, 0x04, 0x00, 0x00, 0x00, 0x10, 0x00, 0x00, 0x00, 0x31, 0x2e, 0x31, 0x34, 0x2e, 0x30, 0x00, 0x00, 0x00, 0x00, 0x00, 0x00, 0x00, 0x00, 0x00, 0x00, 0x14, 0xcf, 0xff, 0xff, 0x18, 0xcf, 0xff, 0xff, 0x1c, 0xcf, 0xff, 0xff, 0x20, 0xcf, 0xff, 0xff, 0x24, 0xcf, 0xff, 0xff, 0x28, 0xcf, 0xff, 0xff, 0x2c, 0xcf, 0xff, 0xff, 0x30, 0xcf, 0xff, 0xff, 0x34, 0xcf, 0xff, 0xff, 0x38, 0xcf, 0xff, 0xff, 0x32, 0xef, 0xff, 0xff, 0x04, 0x00, 0x00, 0x00, 0x90, 0x00, 0x00, 0x00, 0x1b, 0x71, 0x43, 0x81, 0xa2, 0x1e, 0xd6, 0xb3, 0x48, 0x99, 0x8d, 0x19, 0x36, 0x7f, 0x2e, 0x2d, 0xbb, 0x49, 0x90, 0x81, 0x9c, 0x3f, 0xd2, 0xcb, 0x1f, 0x96, 0x2e, 0xd2, 0xdf, 0x50, 0x7f, 0x0c, 0xff, 0x3d, 0x36, 0x23, 0xec, 0x7f, 0x25, 0xbc, 0x95, 0xe6, 0xcc, 0xf8, 0xe2, 0xfd, 0x35, 0xf1, 0x4b, 0x1c, 0x47, 0x5d, 0x7f, 0x45, 0x7f, 0x56, 0x4f, 0xc8, 0x51, 0xd2, 0xd0, 0xf0, 0x1e, 0xaa, 0x85, 0xc4, 0xae, 0x5d, 0xb5, 0x7f, 0x4c, 0x18, 0x83, 0x13, 0x2e, 0xf2, 0xdd, 0x2f, 0xaf, 0x0a, 0x7f, 0xe5, 0x3f, 0x7f, 0x2d, 0xe0, 0x9a, 0xff, 0xee, 0x1a, 0x44, 0x81, 0x38, 0x49, 0xd9, 0x00, 0x3f, 0x63, 0xb6, 0x2e, 0x28, 0x3c, 0x10, 0x7c, 0xdf, 0x7f, 0x0e, 0x08, 0x81, 0x3c, 0x5d, 0xf5, 0x50, 0x87, 0x18, 0xbc, 0xd2, 0x09, 0x7f, 0x70, 0xa0, 0x90, 0xbd, 0x1d, 0x4f, 0xbe, 0xd9, 0x26, 0xa5, 0x5c, 0xca, 0xc8, 0x5b, 0x81, 0xe6, 0x05, 0xcb, 0x99, 0xd7, 0x7f, 0xf1, 0xa7, 0x2a, 0x45, 0xce, 0xef, 0xff, 0xff, 0x04, 0x00, 0x00, 0x00, 0x40, 0x00, 0x00, 0x00, 0x41, 0xf0, 0xff, 0xff, 0x6e, 0x20, 0x00, 0x00, 0xef, 0x7f, 0xff, 0xff, 0x03, 0x58, 0x00, 0x00, 0xd8, 0xbe, 0xff, 0xff, 0x1f, 0xb6, 0x00, 0x00, 0x09, 0x47, 0x00, 0x00, 0xc9, 0xdb, 0xff, 0xff, 0x09, 0xf8, 0xff, 0xff, 0x46, 0x13, 0x00, 0x00, 0x18, 0x28, 0x00, 0x00, 0xf9, 0x82, 0x00, 0x00, 0xbc, 0xce, 0xff, 0xff, 0x27, 0x01, 0x00, 0x00, 0x1a, 0xbb, 0xff, 0xff, 0x95, 0xe9, 0xff, 0xff, 0x1a, 0xf0, 0xff, 0xff, 0x04, 0x00, 0x00, 0x00, 0x90, 0x00, 0x00, 0x00, 0xc9, 0x58, 0x7f, 0xdc, 0xf2, 0x5f, 0xe7, 0x43, 0x55, 0xc7, 0x70, 0x2a, 0x63, 0x2a, 0xc9, 0xfe, 0xec, 0x56, 0x4e, 0x67, 0x04, 0xdf, 0x69, 0x5d, 0x7f, 0x52, 0x7f, 0x6c, 0x7f, 0xd0, 0xe7, 0xe0, 0x4d, 0xf4, 0xf8, 0xfa, 0xc1, 0xe4, 0x51, 0x09, 0x33, 0x2a, 0x27, 0xdc, 0xf6, 0x1b, 0x9f, 0xf3, 0x48, 0xc8, 0xa6, 0x5c, 0x96, 0xb5, 0x40, 0x24, 0x1c, 0x13, 0x29, 0x45, 0x42, 0xe7, 0x25, 0xcc, 0x16, 0x57, 0xa2, 0x9c, 0x78, 0xed, 0xb9, 0x81, 0x4e, 0x54, 0xf9, 0xd2, 0x3a, 0x52, 0xfb, 0x9f, 0x6e, 0x9f, 0xfc, 0x87, 0xd2, 0x31, 0x66, 0xfa, 0xdc, 0x7f, 0x1b, 0x15, 0x08, 0x33, 0x68, 0x81, 0x43, 0x56, 0x82, 0xb5, 0x41, 0x99, 0x81, 0x25, 0x20, 0x09, 0x0c, 0x7f, 0xfd, 0x0d, 0x81, 0x2d, 0x7f, 0x7f, 0x22, 0x81, 0x10, 0xbf, 0xfb, 0x2e, 0x30, 0xbb, 0x0f, 0xee, 0x22, 0x70, 0xd7, 0x28, 0x72, 0x5d, 0xcb, 0xe3, 0x81, 0x7f, 0x7a, 0xa4, 0xec, 0xdb, 0xdb, 0x8e, 0x6e, 0x7f, 0x15, 0xc8, 0xb6, 0xf0, 0xff, 0xff, 0x04, 0x00, 0x00, 0x00, 0x40, 0x00, 0x00, 0x00, 0xd9, 0xf0, 0xff, 0xff, 0xf0, 0xef, 0xff, 0xff, 0xb2, 0x06, 0x00, 0x00, 0xc0, 0x08, 0x00, 0x00, 0xe0, 0x04, 0x00, 0x00, 0x44, 0x03, 0x00, 0x00, 0xe2, 0xf5, 0xff, 0xff, 0x0d, 0x00, 0x00, 0x00, 0x9d, 0xf9, 0xff, 0xff, 0x1c, 0xf5, 0xff, 0xff, 0x3b, 0xf1, 0xff, 0xff, 0x69, 0xfb, 0xff, 0xff, 0xb5, 0xeb, 0xff, 0xff, 0x80, 0xf0, 0xff, 0xff, 0x33, 0x07, 0x00, 0x00, 0x69, 0x0c, 0x00, 0x00, 0x02, 0xf1, 0xff, 0xff, 0x04, 0x00, 0x00, 0x00, 0x00, 0x02, 0x00, 0x00, 0x09, 0x16, 0x5c, 0xc6, 0x4f, 0xb8, 0x7f, 0x6b, 0xdb, 0xef, 0x42, 0xf2, 0xe8, 0x1d, 0x42, 0xee, 0xef, 0x29, 0x06, 0xb8, 0x09, 0xe0, 0x81, 0xc2, 0x05, 0x8d, 0x0c, 0x65, 0x28, 0x92, 0xb8, 0xb4, 0x00, 0x42, 0xe1, 0x04, 0x1f, 0x81, 0x2c, 0xa8, 0x07, 0xb9, 0x2b, 0x3d, 0xd9, 0xcc, 0x16, 0x2f, 0xb9, 0x04, 0xf5, 0x53, 0x2f, 0xb6, 0x43, 0x0f, 0x7f, 0x5e, 0x0a, 0xe1, 0x22, 0x35, 0xc5, 0xca, 0x4b, 0x35, 0xc9, 0xfd, 0x58, 0x9c, 0x46, 0xe7, 0x81, 0x9a, 0x16, 0xf9, 0x4b, 0x6b, 0x4d, 0x23, 0xeb, 0xe5, 0xca, 0xc7, 0x0b, 0xb4, 0x7f, 0x17, 0x55, 0x0b, 0xd9, 0xef, 0x4d, 0xe5, 0x1f, 0x32, 0x94, 0xdd, 0xda, 0xa6, 0xd5, 0x65, 0xe3, 0x47, 0x56, 0xd1, 0xff, 0xa8, 0x5b, 0xfb, 0x79, 0x7f, 0x97, 0x69, 0xd2, 0x98, 0xd6, 0xb6, 0xc3, 0x0a, 0x49, 0x0d, 0x67, 0x35, 0xce, 0x81, 0xfa, 0x2b, 0xfb, 0xb9, 0x0c, 0xd9, 0x3b, 0x70, 0xfc, 0x18, 0xc2, 0xea, 0x35, 0x7f, 0x48, 0x8d, 0x0f, 0x51, 0x2b, 0x20, 0x59, 0xcf, 0x3d, 0x81, 0x47, 0xfa, 0xb5, 0x4a, 0x7f, 0x73, 0x4d, 0x45, 0x84, 0xbb, 0xdd, 0x43, 0x25, 0x23, 0x75, 0x5d, 0x11, 0x24, 0x7f, 0xe9, 0xdf, 0xc8, 0x2e, 0xe0, 0x02, 0xcb, 0x08, 0x83, 0xf2, 0x1a, 0xc7, 0xe8, 0x7f, 0xb0, 0x96, 0x24, 0x64, 0x69, 0x0a, 0xe6, 0x0a, 0xac, 0x10, 0xdb, 0x4d, 0x27, 0x64, 0x47, 0x16, 0x27, 0x7f, 0xb6, 0xbf, 0x20, 0x1f, 0x1b, 0x48, 0x3a, 0x15, 0x7f, 0x4f, 0x66, 0xb9, 0x3d, 0xe5, 0xec, 0xef, 0x43, 0x00, 0x49, 0xe7, 0xda, 0x0d, 0xb0, 0x9e, 0x2f, 0xd1, 0x7c, 0x53, 0x38, 0x7f, 0xcc, 0x29, 0x0a, 0x18, 0x95, 0x5f, 0xdf, 0xb8, 0x0b, 0xa2, 0xfa, 0xb2, 0xb6, 0x81, 0xa0, 0x7d, 0x94, 0x25, 0x0c, 0xaf, 0xc8, 0x3d, 0x06, 0xab, 0x1e, 0xb2, 0x6c, 0x7f, 0x2a, 0x03, 0x93, 0xe8, 0x47, 0xa8, 0x13, 0xf2, 0xe1, 0xa8, 0x36, 0x04, 0x02, 0xbb, 0x4a, 0x5d, 0x23, 0xd4, 0x2a, 0x08, 0x12, 0xb2, 0x73, 0xc1, 0x17, 0x81, 0xce, 0xd6, 0x1f, 0x9e, 0x33, 0xbc, 0x1b, 0xbf, 0x1d, 0xea, 0xc8, 0x0e, 0x12, 0xe5, 0x74, 0x08, 0x4f, 0x06, 0x7f, 0x42, 0x01, 0xe1, 0x17, 0x3e, 0xf0, 0xc1, 0x7f, 0x12, 0xc8, 0x47, 0x42, 0xb6, 0x3a, 0xb2, 0x48, 0x08, 0xe2, 0x3f, 0x4e, 0xfa, 0xd0, 0x81, 0x9a, 0xe3, 0x5f, 0x9f, 0x7e, 0xf3, 0xc0, 0x31, 0xee, 0x29, 0xe7, 0xda, 0x9c, 0xd0, 0xa0, 0xe8, 0xf5, 0x51, 0x34, 0xec, 0xce, 0x7f, 0x12, 0x14, 0xa9, 0x07, 0x45, 0xe0, 0x1e, 0xba, 0x34, 0x7f, 0xf9, 0xd9, 0x06, 0x03, 0xda, 0xc1, 0x58, 0x21, 0x51, 0xb4, 0x1c, 0xcf, 0xc8, 0xba, 0x96, 0x15, 0xea, 0x7f, 0x4b, 0xe1, 0xe8, 0x22, 0x37, 0x04, 0x0e, 0x9a, 0x4f, 0xd6, 0x10, 0x7d, 0xe9, 0xa9, 0x10, 0xf7, 0x7f, 0x25, 0xfb, 0xdb, 0x41, 0x67, 0x03, 0xba, 0x17, 0x28, 0xec, 0xf1, 0x46, 0x32, 0xb4, 0x7f, 0x1a, 0xda, 0xe2, 0xc5, 0xd5, 0x10, 0x2a, 0xc3, 0x2f, 0xa1, 0xb5, 0x33, 0x7f, 0xd9, 0xca, 0xfa, 0x04, 0x90, 0x47, 0xdd, 0x4f, 0x34, 0x23, 0x2b, 0xd2, 0x81, 0x1d, 0x0b, 0x60, 0x3b, 0x12, 0x37, 0x56, 0xf6, 0xa7, 0xb1, 0x1c, 0x5d, 0xd2, 0x81, 0xe3, 0x8f, 0x93, 0x34, 0xd7, 0x4d, 0x35, 0xe8, 0x02, 0xae, 0x1f, 0xe8, 0x69, 0x08, 0xb1, 0x22, 0x5a, 0x65, 0xcc, 0x18, 0x9f, 0xf3, 0x0e, 0xb6, 0x15, 0x7f, 0x7c, 0x1f, 0x2c, 0x4c, 0x44, 0x5c, 0x81, 0xf6, 0x22, 0xf1, 0x8c, 0xe3, 0x44, 0x59, 0x89, 0x55, 0x85, 0xad, 0xdc, 0x3e, 0x40, 0x08, 0x7f, 0x70, 0x92, 0x03, 0x32, 0x46, 0xe2, 0x8e, 0x2e, 0xf5, 0xf9, 0x0f, 0x13, 0x35, 0x6d, 0x0e, 0xf3, 0xff, 0xff, 0x04, 0x00, 0x00, 0x00, 0x80, 0x00, 0x00, 0x00, 0xce, 0xf5, 0xff, 0xff, 0xd6, 0x09, 0x00, 0x00, 0x2a, 0x00, 0x00, 0x00, 0x62, 0xfb, 0xff, 0xff, 0x78, 0xf7, 0xff, 0xff, 0x64, 0xfd, 0xff, 0xff, 0xb3, 0xfc, 0xff, 0xff, 0x4f, 0x03, 0x00, 0x00, 0x13, 0xf9, 0xff, 0xff, 0x28, 0xf7, 0xff, 0xff, 0x20, 0xf8, 0xff, 0xff, 0x3d, 0xff, 0xff, 0xff, 0xcc, 0xf3, 0xff, 0xff, 0xee, 0xf7, 0xff, 0xff, 0x99, 0xf8, 0xff, 0xff, 0x28, 0x0a, 0x00, 0x00, 0x06, 0xff, 0xff, 0xff, 0xd6, 0xfe, 0xff, 0xff, 0x67, 0xfb, 0xff, 0xff, 0x07, 0xfe, 0xff, 0xff, 0x14, 0xfd, 0xff, 0xff, 0x4b, 0x04, 0x00, 0x00, 0xc3, 0xf8, 0xff, 0xff, 0xd5, 0x01, 0x00, 0x00, 0x09, 0xf7, 0xff, 0xff, 0x56, 0xfe, 0xff, 0xff, 0x07, 0xff, 0xff, 0xff, 0x16, 0xff, 0xff, 0xff, 0x05, 0x07, 0x00, 0x00, 0x44, 0xf3, 0xff, 0xff, 0x90, 0x07, 0x00, 0x00, 0x4d, 0xf5, 0xff, 0xff, 0x9a, 0xf3, 0xff, 0xff, 0x04, 0x00, 0x00, 0x00, 0x20, 0x01, 0x00, 0x00, 0x04, 0xa9, 0x81, 0xd8, 0x69, 0xdc, 0x81, 0x59, 0xad, 0x81, 0x41, 0xd6, 0x39, 0xfb, 0x67, 0xcd, 0x46, 0x0d, 0xfc, 0x0d, 0x63, 0x4c, 0x7f, 0x81, 0x03, 0xef, 0xf5, 0x3f, 0x48, 0x0c, 0xbb, 0x09, 0x10, 0x81, 0xc1, 0xbf, 0x73, 0x58, 0xbd, 0x6b, 0x08, 0x38, 0xa8, 0x81, 0xfd, 0xeb, 0xa8, 0x18, 0x5f, 0x7f, 0x1c, 0x09, 0x1f, 0x2a, 0xe6, 0x4d, 0x48, 0xf2, 0x1b, 0x29, 0x79, 0x1e, 0xe3, 0x71, 0x05, 0x0c, 0x4a, 0x0f, 0x7f, 0x16, 0xa5, 0x7f, 0x30, 0xcf, 0xfa, 0xc0, 0xfb, 0xf5, 0x29, 0x9f, 0xf9, 0xed, 0x22, 0xe1, 0x7f, 0x81, 0x00, 0xf6, 0x7f, 0xed, 0x7f, 0xec, 0x04, 0xec, 0xe0, 0xc6, 0x69, 0x06, 0xaa, 0xd3, 0x90, 0xa8, 0xd1, 0x67, 0x7b, 0xb8, 0x51, 0x36, 0xff, 0x81, 0x2e, 0x69, 0xfc, 0xef, 0x34, 0xb3, 0x57, 0x9d, 0x9c, 0xe1, 0x28, 0x51, 0x44, 0xe2, 0x49, 0xeb, 0xa1, 0xbc, 0x05, 0xe4, 0xe8, 0xd9, 0xd5, 0xf0, 0xf5, 0x5e, 0xf8, 0xe2, 0xa8, 0x4e, 0x1d, 0xa4, 0xf9, 0x7f, 0x7f, 0x78, 0x1b, 0x81, 0x1c, 0x9a, 0x91, 0x0f, 0x65, 0x0a, 0x7b, 0x14, 0x62, 0x2c, 0x9b, 0x35, 0x5d, 0xa4, 0xf4, 0x4d, 0x05, 0x81, 0xf1, 0xd9, 0x62, 0x24, 0x81, 0xe9, 0x81, 0x69, 0x7f, 0x57, 0x22, 0x4b, 0x4d, 0x8f, 0x78, 0xc8, 0xa3, 0x1f, 0x49, 0x8c, 0x65, 0x27, 0x7f, 0xfe, 0x81, 0x75, 0x95, 0xa6, 0xff, 0xf4, 0x0c, 0xf4, 0x0b, 0xd2, 0x45, 0xe2, 0x02, 0xf5, 0xf8, 0xfe, 0x2c, 0x21, 0xd8, 0x1f, 0x81, 0xa2, 0x0d, 0x55, 0xfb, 0xda, 0xec, 0x29, 0xf1, 0x81, 0xce, 0x4d, 0xe5, 0xed, 0xd4, 0xb5, 0x95, 0x81, 0xea, 0xe3, 0xdf, 0x03, 0x79, 0xb6, 0xfb, 0x50, 0xe3, 0x04, 0x82, 0x34, 0x00, 0x2f, 0x8e, 0x8f, 0x36, 0x93, 0x00, 0xd9, 0x08, 0x0e, 0x1e, 0x8b, 0x56, 0x53, 0x17, 0x47, 0x81, 0xdf, 0x4b, 0x47, 0xbd, 0xe6, 0xfe, 0xfc, 0x7f, 0x2c, 0x14, 0x42, 0xae, 0xc9, 0x27, 0xaf, 0x5b, 0x60, 0xdb, 0x9a, 0xfd, 0x4b, 0xeb, 0x19, 0x23, 0x81, 0x10, 0x8c, 0x1c, 0x7f, 0x44, 0x7f, 0xc6, 0xf4, 0xff, 0xff, 0x04, 0x00, 0x00, 0x00, 0x80, 0x00, 0x00, 0x00, 0x3e, 0xfe, 0xff, 0xff, 0xc1, 0x0d, 0x00, 0x00, 0x02, 0x09, 0x00, 0x00, 0xfa, 0x04, 0x00, 0x00, 0x05, 0xfd, 0xff, 0xff, 0x0f, 0x07, 0x00, 0x00, 0x54, 0x0a, 0x00, 0x00, 0xde, 0xf1, 0xff, 0xff, 0x98, 0xf1, 0xff, 0xff, 0xf0, 0x08, 0x00, 0x00, 0x65, 0x02, 0x00, 0x00, 0xae, 0x01, 0x00, 0x00, 0x85, 0x04, 0x00, 0x00, 0xdc, 0x05, 0x00, 0x00, 0xcf, 0xf8, 0xff, 0xff, 0x82, 0xf8, 0xff, 0xff, 0xda, 0xf2, 0xff, 0xff, 0x86, 0xf0, 0xff, 0xff, 0x4a, 0xfd, 0xff, 0xff, 0xd8, 0x16, 0x00, 0x00, 0x0c, 0xf9, 0xff, 0xff, 0xe1, 0x03, 0x00, 0x00, 0x0a, 0x09, 0x00, 0x00, 0x7b, 0x00, 0x00, 0x00, 0xcc, 0xf0, 0xff, 0xff, 0x12, 0x03, 0x00, 0x00, 0xa4, 0xf0, 0xff, 0xff, 0x94, 0x05, 0x00, 0x00, 0x4e, 0xee, 0xff, 0xff, 0xf8, 0xf3, 0xff, 0xff, 0x45, 0x11, 0x00, 0x00, 0x72, 0xf2, 0xff, 0xff, 0x52, 0xf5, 0xff, 0xff, 0x04, 0x00, 0x00, 0x00, 0x00, 0x08, 0x00, 0x00, 0xd0, 0x56, 0x54, 0xda, 0xe7, 0x05, 0xf3, 0x9b, 0xd3, 0x41, 0x23, 0xd6, 0x32, 0xd4, 0x24, 0x05, 0xe9, 0x69, 0xeb, 0x9e, 0xed, 0x11, 0xac, 0x34, 0x63, 0xe7, 0x37, 0x81, 0x27, 0x11, 0xa9, 0xf4, 0x21, 0x45, 0x24, 0x02, 0x4b, 0x16, 0xc9, 0xd0, 0xb1, 0x1f, 0x37, 0x1d, 0xf9, 0x40, 0xff, 0xb8, 0x5d, 0xfd, 0x30, 0xb4, 0xdd, 0x26, 0xc6, 0xf3, 0xf1, 0xf7, 0x4a, 0xc8, 0x7f, 0x4c, 0x25, 0xd6, 0x7b, 0xf2, 0x29, 0x84, 0x29, 0xff, 0x7f, 0xf1, 0xf2, 0xe4, 0xf0, 0x5c, 0xd6, 0x03, 0x53, 0x04, 0xdb, 0x4e, 0x5c, 0xd9, 0xbe, 0x46, 0x78, 0xe1, 0xdb, 0xbc, 0xe5, 0x1c, 0xbe, 0xce, 0x69, 0xb4, 0x28, 0xe2, 0x3e, 0x58, 0xf0, 0x55, 0x3a, 0xf3, 0x2e, 0xb6, 0x43, 0xba, 0x2c, 0x2e, 0xde, 0x43, 0xec, 0xc8, 0xc3, 0x23, 0x7f, 0x0f, 0x0e, 0x3a, 0xef, 0x41, 0x05, 0xd3, 0x12, 0x0a, 0x29, 0x06, 0x93, 0x33, 0xc0, 0xae, 0x7f, 0xb2, 0xe3, 0xd6, 0x95, 0x4c, 0xd7, 0x2b, 0xb3, 0x29, 0x00, 0xfd, 0x25, 0x5f, 0xbc, 0x48, 0xc5, 0x7d, 0xd4, 0xd0, 0x5f, 0xf8, 0x78, 0xde, 0x47, 0x96, 0x2d, 0x54, 0xfa, 0x50, 0xc1, 0xf3, 0x4b, 0xcc, 0xd6, 0xea, 0xba, 0x22, 0x08, 0x0c, 0x2d, 0x38, 0xc0, 0xd1, 0xe9, 0x2e, 0xd8, 0xc7, 0xee, 0xc1, 0xda, 0x22, 0x0c, 0x09, 0xef, 0xd9, 0x7f, 0xe5, 0x24, 0x29, 0xae, 0x1c, 0x4a, 0x36, 0x38, 0x14, 0xac, 0xc2, 0x27, 0x48, 0xf8, 0xe7, 0xf2, 0x2d, 0xd1, 0x26, 0xe8, 0x25, 0xec, 0x94, 0xda, 0xee, 0x8c, 0x1e, 0x7f, 0x6b, 0x4a, 0x04, 0x32, 0xa7, 0xcb, 0x00, 0xc4, 0x04, 0x2b, 0x51, 0x18, 0x5a, 0xb0, 0xe2, 0x21, 0xea, 0x58, 0xe8, 0x69, 0xd8, 0xf7, 0xd9, 0xbe, 0x3c, 0x0e, 0x00, 0x31, 0x41, 0xb4, 0x27, 0x37, 0x65, 0x62, 0x81, 0x1e, 0xfb, 0xee, 0xe5, 0x7f, 0x32, 0x12, 0xbd, 0x11, 0xd8, 0x01, 0x13, 0x1d, 0x21, 0xec, 0x39, 0x06, 0x3c, 0x10, 0xad, 0xe3, 0x18, 0xeb, 0xda, 0xca, 0x42, 0xbd, 0xf6, 0xb4, 0xf3, 0x30, 0xf5, 0xf0, 0xea, 0x64, 0xfd, 0xc6, 0xff, 0xd3, 0x5d, 0x15, 0x1a, 0xff, 0x15, 0xee, 0xea, 0x44, 0xe6, 0xe9, 0x01, 0x1b, 0xf8, 0xb1, 0xf3, 0x1c, 0x07, 0x7f, 0xf6, 0x23, 0x32, 0x0d, 0x65, 0x29, 0xda, 0xe1, 0xf9, 0xff, 0x40, 0x71, 0x8d, 0x69, 0xfb, 0xd9, 0xbf, 0x44, 0x50, 0x0d, 0x2c, 0x13, 0x7f, 0x54, 0x0e, 0xc5, 0xe1, 0x36, 0x3d, 0xa2, 0x7e, 0xdb, 0x97, 0xe8, 0x2f, 0xb5, 0x28, 0xc4, 0x4c, 0x9f, 0x54, 0x43, 0xd5, 0xe7, 0xed, 0x34, 0x68, 0x58, 0xf2, 0xed, 0xc1, 0xc7, 0xf8, 0x46, 0xef, 0xf6, 0x03, 0xa5, 0x33, 0x46, 0xfd, 0x18, 0xec, 0x44, 0x10, 0x22, 0xd1, 0x17, 0x59, 0x01, 0xbb, 0x19, 0xcf, 0xf5, 0x7f, 0x01, 0x06, 0xe8, 0xf3, 0x22, 0x51, 0x24, 0x5b, 0xc5, 0xd8, 0x02, 0x02, 0x0e, 0x4a, 0x19, 0x48, 0xd4, 0x8c, 0xba, 0xfd, 0x6e, 0x2e, 0x51, 0x7f, 0x65, 0x1d, 0x12, 0xc0, 0xd4, 0x14, 0x11, 0x05, 0x2e, 0x0b, 0x0f, 0xdd, 0xc1, 0x3c, 0x1e, 0x28, 0x0b, 0xdc, 0x74, 0x9c, 0x10, 0xe2, 0x06, 0x7c, 0xa1, 0xa0, 0x1b, 0xef, 0x43, 0x12, 0x55, 0x54, 0x1b, 0x7f, 0xd2, 0x13, 0x1e, 0x35, 0x24, 0x46, 0x40, 0xeb, 0xf0, 0xcb, 0xe6, 0xf1, 0xff, 0xe3, 0x46, 0x1c, 0xef, 0x57, 0xdd, 0xe0, 0x1c, 0x04, 0x33, 0xa3, 0x1d, 0x7f, 0xc3, 0x27, 0x18, 0xf9, 0x45, 0xf8, 0xcd, 0x49, 0xfb, 0xff, 0x0d, 0xbd, 0x9e, 0x5e, 0x56, 0xf8, 0x02, 0xb5, 0x14, 0xa6, 0xf7, 0x19, 0x58, 0x0b, 0xe6, 0x7f, 0xff, 0xce, 0xed, 0x29, 0x2f, 0xa8, 0xce, 0x23, 0x15, 0x2a, 0x6a, 0x11, 0x37, 0xe9, 0x12, 0xdb, 0xf9, 0x33, 0xe7, 0x00, 0x22, 0x6d, 0x1b, 0x27, 0x04, 0x49, 0x0e, 0xbb, 0x21, 0xfe, 0x23, 0x39, 0x0c, 0x30, 0xc7, 0xdd, 0xee, 0xe2, 0x7f, 0xca, 0x51, 0x28, 0x4b, 0x05, 0xf4, 0xac, 0x04, 0xfe, 0xe2, 0xc7, 0xf1, 0xe7, 0x1a, 0x02, 0xff, 0x17, 0x0c, 0xf6, 0x5b, 0x8d, 0x3d, 0xba, 0xf3, 0x3f, 0xf1, 0x77, 0xb2, 0xf9, 0x03, 0x12, 0x4d, 0x0c, 0xdc, 0x44, 0x7f, 0x35, 0x1c, 0xa3, 0x00, 0x06, 0x95, 0xb8, 0xbb, 0x08, 0xda, 0x00, 0x15, 0xae, 0x9f, 0xcd, 0x14, 0x79, 0x27, 0xbe, 0xd2, 0x4e, 0xb9, 0x04, 0x19, 0x47, 0x07, 0xe8, 0xe6, 0x37, 0x4b, 0x3d, 0x24, 0x27, 0x5e, 0x9d, 0x7f, 0xa6, 0x17, 0x4a, 0xe8, 0x33, 0xb3, 0xaf, 0x7d, 0x3c, 0x5a, 0xc9, 0x25, 0xd2, 0x57, 0x7e, 0x12, 0xb5, 0xd9, 0xc5, 0x39, 0x3a, 0x2c, 0x14, 0x81, 0xae, 0xdb, 0xce, 0xaf, 0xc5, 0xcb, 0x3a, 0x7b, 0xe0, 0x67, 0x01, 0xfb, 0x34, 0xfa, 0xc1, 0x7e, 0x35, 0x69, 0x94, 0xcd, 0xb2, 0x09, 0x0b, 0x16, 0x7f, 0xdc, 0x0d, 0x4a, 0x65, 0x37, 0xe8, 0x9a, 0xed, 0xc3, 0x12, 0xb6, 0x15, 0x5f, 0x00, 0xf7, 0x1b, 0x49, 0x68, 0x9c, 0x09, 0x57, 0xd7, 0x26, 0xf8, 0x2f, 0x1e, 0xaf, 0xca, 0xef, 0xfb, 0xd7, 0x4c, 0x0b, 0xeb, 0xe4, 0x2f, 0xfa, 0x1d, 0xac, 0xb7, 0xeb, 0xf4, 0x4b, 0xfd, 0x4d, 0xfa, 0x7f, 0x06, 0xe9, 0xfa, 0x13, 0x22, 0x4b, 0xc0, 0x3b, 0x2d, 0x63, 0xb9, 0x3f, 0xba, 0xdb, 0x61, 0x5a, 0xf4, 0x09, 0x12, 0x05, 0xa5, 0x42, 0x7f, 0xf2, 0x25, 0x64, 0xe6, 0x4e, 0xbe, 0xc9, 0x4f, 0xcf, 0xef, 0x08, 0xcf, 0xb3, 0x2b, 0x08, 0x42, 0xf1, 0x8a, 0x14, 0xb8, 0xe2, 0x4d, 0x04, 0xa2, 0x33, 0x16, 0xd8, 0x25, 0x0c, 0x14, 0x02, 0x0a, 0xba, 0xf8, 0x55, 0xe0, 0x7f, 0x3a, 0x6c, 0x9a, 0x79, 0x37, 0xe0, 0xec, 0x1a, 0x18, 0x10, 0x5b, 0xfc, 0xe2, 0x0a, 0x08, 0xe2, 0x06, 0x08, 0xf4, 0x0b, 0xff, 0x11, 0x1f, 0xc0, 0x0b, 0xf2, 0x23, 0x29, 0xf8, 0xe4, 0x03, 0x52, 0x7f, 0xd5, 0xe0, 0xcd, 0x06, 0xe2, 0x22, 0xe6, 0x2d, 0x3f, 0x57, 0x1e, 0xff, 0xb6, 0x07, 0xdd, 0xe0, 0xfc, 0xf4, 0x28, 0xfc, 0xb9, 0x2f, 0xd8, 0x2a, 0x19, 0xa1, 0x40, 0x3a, 0xfa, 0x20, 0xf4, 0xd3, 0x7f, 0xd0, 0x05, 0x16, 0xb2, 0xd6, 0x92, 0x79, 0xe4, 0x09, 0x12, 0x1c, 0xa6, 0xc7, 0xb1, 0x1d, 0x0d, 0xf7, 0x2c, 0x73, 0x1b, 0xde, 0x53, 0x34, 0xe6, 0x23, 0xe6, 0x0f, 0xbf, 0x04, 0x46, 0x03, 0x4a, 0x9d, 0x7f, 0xdb, 0x49, 0x0f, 0x71, 0x06, 0x38, 0x9f, 0x9f, 0x96, 0x4c, 0xfe, 0x66, 0x2f, 0xa0, 0x60, 0x23, 0x24, 0x59, 0xd6, 0x6e, 0xb5, 0x7f, 0x00, 0xbd, 0xe4, 0x1e, 0xd2, 0x09, 0xd6, 0xdf, 0x43, 0xbd, 0xe1, 0x09, 0xec, 0x64, 0x07, 0x31, 0x3f, 0xd5, 0xd7, 0x0b, 0x2f, 0x7f, 0xff, 0x58, 0x27, 0x08, 0xe4, 0x52, 0xe5, 0x0a, 0xd7, 0x9e, 0xbc, 0x69, 0x20, 0xbc, 0x6f, 0x09, 0x59, 0xce, 0x48, 0xc3, 0xae, 0x52, 0x01, 0x5c, 0x81, 0x5a, 0x08, 0xad, 0x52, 0x94, 0x52, 0x5a, 0xc9, 0x55, 0x12, 0x4e, 0xf0, 0x52, 0x35, 0x24, 0xe4, 0x22, 0x3b, 0xfd, 0xbf, 0x15, 0x38, 0xbe, 0x1c, 0xdb, 0xeb, 0x1e, 0x3f, 0x3b, 0xf4, 0x70, 0x08, 0x69, 0xcd, 0x81, 0xec, 0xfd, 0x1b, 0x10, 0x70, 0xc1, 0x13, 0x16, 0xb8, 0x4a, 0xef, 0x5b, 0xb3, 0x4b, 0x12, 0xe2, 0xa1, 0x3e, 0xa0, 0x29, 0xb0, 0xf7, 0x44, 0x9a, 0x22, 0x28, 0x4a, 0x30, 0xf8, 0x46, 0xf5, 0x03, 0x5c, 0xd0, 0x4e, 0x6d, 0xcf, 0x3f, 0xe1, 0xf3, 0x1b, 0x1f, 0x21, 0xb2, 0xb8, 0x37, 0x0b, 0x5a, 0x97, 0x18, 0x7f, 0xc7, 0x39, 0xa7, 0xc5, 0x38, 0x25, 0x73, 0xf5, 0x9a, 0x0a, 0x7f, 0x0e, 0x1f, 0xa8, 0x1d, 0xca, 0x04, 0x35, 0x0a, 0x00, 0xf5, 0x3b, 0xe0, 0x00, 0xfa, 0x4d, 0x20, 0x8c, 0xd2, 0x44, 0x1f, 0xdb, 0x52, 0x0b, 0x1f, 0xae, 0x71, 0xdf, 0xc1, 0xdc, 0xfa, 0xf7, 0xac, 0xf1, 0x07, 0x21, 0x0d, 0x01, 0x2d, 0x43, 0x4d, 0xea, 0x0e, 0xfd, 0x33, 0x45, 0xca, 0xab, 0x1e, 0xf7, 0x7f, 0xda, 0x61, 0xca, 0x4a, 0x5d, 0x00, 0xa4, 0xca, 0xdc, 0x35, 0x41, 0xad, 0x06, 0x13, 0xbc, 0x55, 0xdc, 0xd4, 0x95, 0x0e, 0x1b, 0xdd, 0xd1, 0xe5, 0x06, 0x08, 0xd2, 0x64, 0xf3, 0xef, 0x3a, 0xa4, 0x3e, 0x14, 0x23, 0x4c, 0x14, 0x66, 0xb7, 0x7f, 0x30, 0xf7, 0x02, 0xaa, 0x7c, 0x45, 0x09, 0x51, 0x26, 0x92, 0x10, 0x96, 0x12, 0x63, 0xea, 0x00, 0xfe, 0xa6, 0x23, 0x2f, 0xf3, 0x2a, 0xca, 0xc2, 0x81, 0xd1, 0x17, 0x4b, 0x48, 0x5d, 0xab, 0x3f, 0xd2, 0xca, 0x62, 0xa5, 0x5a, 0x3a, 0x58, 0x68, 0xa6, 0xd0, 0xdc, 0xab, 0x74, 0xfb, 0x28, 0x34, 0xfc, 0xf8, 0xee, 0xef, 0x7f, 0x22, 0xf5, 0xf7, 0xc6, 0xe8, 0x3b, 0x1d, 0x3f, 0x48, 0xe0, 0x00, 0x26, 0xb9, 0xd4, 0xef, 0x9f, 0xb4, 0xb7, 0xa4, 0x4b, 0xc4, 0xfe, 0x7f, 0xde, 0xb5, 0xee, 0x12, 0xd8, 0x6a, 0x48, 0x87, 0x32, 0x0c, 0x48, 0x6a, 0x68, 0xc3, 0xc7, 0x1f, 0x53, 0xd5, 0x73, 0xf7, 0xcd, 0x42, 0xf4, 0x71, 0x7f, 0xcb, 0xa3, 0x54, 0x81, 0x3e, 0xfb, 0xd3, 0xd3, 0xe5, 0x35, 0x3c, 0x38, 0x29, 0xb5, 0x4b, 0x0e, 0xfc, 0x02, 0xb1, 0x2b, 0x97, 0xf2, 0xc3, 0xcc, 0xf2, 0x4f, 0x58, 0xe4, 0x02, 0x2b, 0xa4, 0x2c, 0x77, 0xf2, 0xfd, 0x10, 0x1a, 0xee, 0xc2, 0xf5, 0x07, 0xd6, 0x29, 0x2e, 0xed, 0x34, 0xfa, 0x3c, 0xe1, 0xfc, 0xee, 0x2f, 0xd4, 0x26, 0x7f, 0x28, 0x76, 0x88, 0x19, 0xd1, 0xf2, 0x1b, 0x62, 0x00, 0x19, 0xc4, 0xff, 0xc5, 0xda, 0x02, 0x3a, 0xda, 0xbf, 0x7f, 0x45, 0xf9, 0x9d, 0xea, 0x3f, 0x20, 0xdd, 0xe5, 0xa5, 0xfe, 0xe4, 0x24, 0xec, 0xa2, 0x31, 0xd9, 0x09, 0x04, 0x26, 0xed, 0x1e, 0xee, 0xc1, 0x43, 0x2f, 0x1b, 0xb7, 0xf9, 0x3a, 0xe3, 0x16, 0xf2, 0xf1, 0x2f, 0x0b, 0x7f, 0x09, 0xd0, 0xd7, 0xed, 0x55, 0x2b, 0xc4, 0x19, 0xd9, 0xf9, 0x07, 0xf0, 0xd5, 0x44, 0xcf, 0xf2, 0xc7, 0x3e, 0xd8, 0xfb, 0x35, 0x55, 0x07, 0x12, 0xc9, 0x66, 0xc3, 0x44, 0xfd, 0xf0, 0xfd, 0x26, 0x3b, 0x32, 0x7f, 0x20, 0xa7, 0x5b, 0xbf, 0x94, 0x47, 0xd9, 0xd7, 0x17, 0x3d, 0x37, 0xed, 0x02, 0x4c, 0x47, 0x0d, 0x72, 0xe1, 0x61, 0xca, 0x7f, 0x64, 0x4d, 0x1b, 0xf3, 0x07, 0x4e, 0x49, 0x5f, 0xea, 0x8d, 0xf6, 0x3f, 0x61, 0xeb, 0x70, 0x00, 0x2f, 0x09, 0xd3, 0x28, 0xe8, 0xdf, 0x75, 0x07, 0x23, 0x36, 0xee, 0xd5, 0x17, 0xbc, 0x54, 0x2b, 0xff, 0xfe, 0xc1, 0xfe, 0x4d, 0xda, 0x52, 0x1d, 0x81, 0x3e, 0xfb, 0x68, 0x58, 0x36, 0x4a, 0xd0, 0xce, 0x42, 0xdc, 0x3e, 0xf8, 0xcf, 0x44, 0xa4, 0xea, 0x88, 0xc0, 0xe7, 0xcb, 0x23, 0xc2, 0xc2, 0x41, 0x37, 0x1e, 0x09, 0xf0, 0xed, 0x08, 0xc5, 0xe9, 0x36, 0xf8, 0x36, 0xcd, 0xf9, 0xf2, 0x01, 0xb4, 0xe3, 0xf9, 0x7f, 0xd1, 0x48, 0x7d, 0x3c, 0xaf, 0x52, 0x04, 0xdd, 0x18, 0x98, 0xb5, 0xcc, 0xd1, 0x6f, 0x11, 0xc2, 0x04, 0x3f, 0xbd, 0x13, 0x05, 0x7f, 0xf8, 0x9d, 0xae, 0x13, 0x27, 0x02, 0x1a, 0x0d, 0x6a, 0x0c, 0x6a, 0x0d, 0x1b, 0xbd, 0x16, 0x2b, 0x35, 0x7f, 0x0a, 0x5e, 0xd2, 0x09, 0x1d, 0x06, 0xf0, 0xa7, 0xe3, 0x24, 0xf3, 0x45, 0x04, 0xc7, 0xc1, 0xf9, 0x72, 0xc7, 0xe3, 0x36, 0xd8, 0x57, 0x1c, 0xf8, 0x15, 0x3e, 0x2c, 0xee, 0x1a, 0xd1, 0xee, 0x1a, 0x48, 0x4c, 0x67, 0xfc, 0x3c, 0x53, 0xdc, 0x20, 0x36, 0x36, 0x7f, 0x50, 0xc8, 0xff, 0x28, 0x65, 0x0c, 0xb7, 0xd4, 0x38, 0xe3, 0x36, 0xc4, 0x0e, 0xce, 0x08, 0x64, 0xd5, 0x12, 0x2e, 0x11, 0x6c, 0xe2, 0x14, 0xc5, 0x3b, 0x30, 0x1c, 0xfa, 0xaf, 0x5b, 0xb5, 0x2f, 0x45, 0x9f, 0xb8, 0x9c, 0x05, 0x7f, 0x3f, 0x27, 0x36, 0x2a, 0x04, 0x15, 0xd8, 0x22, 0xe6, 0x04, 0x39, 0x69, 0x8d, 0xa9, 0xa5, 0xb2, 0xf8, 0x1a, 0xda, 0xc0, 0xf9, 0xd7, 0x35, 0x84, 0xb0, 0xfa, 0x43, 0x48, 0x27, 0x5d, 0x5c, 0xae, 0xd9, 0xfd, 0x1d, 0x9e, 0x26, 0xbb, 0x6d, 0x99, 0x32, 0x7f, 0x42, 0x8d, 0x24, 0x0d, 0xe1, 0x1b, 0xc1, 0xfe, 0xf4, 0xe0, 0x59, 0xd0, 0xec, 0xc8, 0x39, 0x08, 0x1d, 0x3a, 0x06, 0x1b, 0xdd, 0xda, 0xeb, 0x0c, 0xdf, 0xe7, 0x23, 0x68, 0xff, 0x7f, 0x2a, 0xd9, 0xf1, 0x28, 0x0a, 0xe1, 0xaf, 0xd5, 0x28, 0xef, 0x0b, 0x70, 0x11, 0xd1, 0xd7, 0xf0, 0xdb, 0x30, 0x3e, 0xa7, 0xc7, 0x07, 0x19, 0x64, 0xeb, 0x30, 0x22, 0x10, 0xe4, 0xac, 0xe5, 0x42, 0xcf, 0x7f, 0xf3, 0x46, 0xdb, 0x9a, 0x5f, 0xd4, 0x4b, 0xc2, 0x5b, 0x2d, 0xa1, 0x3e, 0x0e, 0x12, 0xd8, 0x47, 0x3d, 0xbe, 0x1f, 0x60, 0xc8, 0x10, 0xb4, 0x38, 0x7f, 0xbe, 0x4b, 0xc6, 0xc0, 0xc4, 0x07, 0x3d, 0x37, 0x02, 0x0c, 0xdc, 0x07, 0x20, 0x47, 0xaf, 0x0c, 0xeb, 0xf0, 0x3f, 0xf8, 0xe9, 0x03, 0xf7, 0x3d, 0xf2, 0xf9, 0xda, 0x05, 0x7f, 0xf8, 0xde, 0x5a, 0x1f, 0x44, 0xf0, 0xd1, 0xcf, 0xdb, 0x03, 0x13, 0xd3, 0x17, 0xe9, 0x98, 0x05, 0xc7, 0x5f, 0xde, 0x31, 0x25, 0x45, 0x49, 0xd8, 0x37, 0x10, 0x4d, 0xe6, 0xe2, 0x46, 0x60, 0xdf, 0x9e, 0x7f, 0x33, 0x4b, 0xd3, 0xe6, 0x63, 0xab, 0xb8, 0x4a, 0xcd, 0xe4, 0x1b, 0x06, 0xd7, 0x12, 0xd2, 0x37, 0xe3, 0x40, 0xde, 0xe3, 0x1d, 0x68, 0x11, 0x7f, 0x55, 0x04, 0x04, 0x19, 0x6a, 0x4c, 0x20, 0x66, 0xd2, 0x26, 0xec, 0xe6, 0x45, 0xa4, 0xe2, 0x22, 0xa7, 0xe5, 0x60, 0x6c, 0x2b, 0x6b, 0x49, 0x4d, 0x11, 0xd0, 0x68, 0x70, 0x50, 0x48, 0x6a, 0xa8, 0xcb, 0x14, 0x7f, 0x5c, 0xde, 0xc7, 0x39, 0xa5, 0x09, 0xef, 0x00, 0x44, 0xe1, 0x45, 0xac, 0xc6, 0x72, 0x24, 0x45, 0xf8, 0xd8, 0x61, 0x18, 0x3f, 0xce, 0xf9, 0xd4, 0x65, 0x23, 0x15, 0x1e, 0xb8, 0xec, 0x7f, 0xd9, 0x0d, 0x5f, 0xbc, 0xe2, 0x0c, 0x29, 0xea, 0xee, 0x36, 0xae, 0x3c, 0xed, 0x38, 0x67, 0xee, 0x1e, 0xca, 0x7f, 0xce, 0x17, 0xed, 0xbe, 0x01, 0x1a, 0x27, 0xf4, 0xf5, 0x04, 0xf9, 0x1b, 0xe5, 0xda, 0x25, 0xcc, 0x2a, 0x35, 0x1b, 0xde, 0x2d, 0x3e, 0xea, 0x17, 0x3b, 0x0b, 0xbc, 0x08, 0x7f, 0xfc, 0x50, 0xf2, 0x16, 0xd2, 0x17, 0x10, 0x08, 0x0a, 0x51, 0x1c, 0xe6, 0x3f, 0xbe, 0x15, 0xd5, 0xcd, 0x30, 0x5b, 0xb3, 0x1a, 0x0d, 0xf0, 0x82, 0xb4, 0xf6, 0xfb, 0x44, 0x4c, 0x61, 0x43, 0x14, 0x2d, 0xfe, 0x44, 0xb8, 0x55, 0xb8, 0xea, 0xe1, 0xd8, 0xc1, 0x81, 0x65, 0x8f, 0x3f, 0x55, 0xc3, 0xd9, 0xce, 0x35, 0x65, 0x0d, 0xac, 0x52, 0xfc, 0x4c, 0x35, 0xf3, 0x2f, 0x42, 0xd2, 0x48, 0xac, 0x7f, 0xce, 0xd9, 0xdb, 0xc1, 0xf3, 0xcf, 0x1e, 0x05, 0x34, 0xd3, 0x0f, 0xb5, 0x30, 0x23, 0x19, 0xce, 0xba, 0xe4, 0xd0, 0x04, 0xea, 0xc0, 0xdf, 0x8a, 0xb4, 0x57, 0x51, 0x23, 0x3a, 0x5b, 0xea, 0xa4, 0xd8, 0xa9, 0x9f, 0xd4, 0xe4, 0x2f, 0x5f, 0xe4, 0x4d, 0xab, 0x6d, 0xe7, 0xbc, 0xd0, 0x81, 0x41, 0x13, 0x7f, 0x42, 0x31, 0x47, 0x41, 0x0a, 0xe0, 0x24, 0xbe, 0x47, 0xab, 0xf7, 0x05, 0x5e, 0xfd, 0xff, 0xff, 0x04, 0x00, 0x00, 0x00, 0x00, 0x01, 0x00, 0x00, 0xf9, 0x03, 0x00, 0x00, 0x99, 0xed, 0xff, 0xff, 0xdc, 0xf8, 0xff, 0xff, 0x85, 0xe9, 0xff, 0xff, 0xca, 0xf2, 0xff, 0xff, 0x75, 0x00, 0x00, 0x00, 0x8c, 0xfe, 0xff, 0xff, 0xfd, 0xf8, 0xff, 0xff, 0x40, 0xfc, 0xff, 0xff, 0x95, 0xf8, 0xff, 0xff, 0x28, 0xf1, 0xff, 0xff, 0x49, 0xf3, 0xff, 0xff, 0x97, 0xee, 0xff, 0xff, 0xad, 0xec, 0xff, 0xff, 0x18, 0xf8, 0xff, 0xff, 0x1c, 0xf0, 0xff, 0xff, 0xbf, 0xf3, 0xff, 0xff, 0x74, 0x05, 0x00, 0x00, 0x0a, 0xf1, 0xff, 0xff, 0xcf, 0xf9, 0xff, 0xff, 0x21, 0xec, 0xff, 0xff, 0x85, 0xf6, 0xff, 0xff, 0xfd, 0xee, 0xff, 0xff, 0x2e, 0xf1, 0xff, 0xff, 0x1c, 0xfb, 0xff, 0xff, 0xa4, 0xff, 0xff, 0xff, 0x20, 0xe9, 0xff, 0xff, 0x26, 0xf7, 0xff, 0xff, 0x2f, 0xec, 0xff, 0xff, 0xab, 0xea, 0xff, 0xff, 0xbd, 0xf0, 0xff, 0xff, 0x51, 0xed, 0xff, 0xff, 0x4c, 0xfa, 0xff, 0xff, 0xc3, 0xf1, 0xff, 0xff, 0xc3, 0xf4, 0xff, 0xff, 0x25, 0xfb, 0xff, 0xff, 0x82, 0xf0, 0xff, 0xff, 0xd9, 0xff, 0xff, 0xff, 0x74, 0xfa, 0xff, 0xff, 0x74, 0xf1, 0xff, 0xff, 0x03, 0xff, 0xff, 0xff, 0x3b, 0x00, 0x00, 0x00, 0x35, 0xea, 0xff, 0xff, 0xc9, 0xcb, 0xff, 0xff, 0x25, 0xf2, 0xff, 0xff, 0x05, 0x05, 0x00, 0x00, 0xff, 0xf7, 0xff, 0xff, 0x69, 0xe9, 0xff, 0xff, 0xbd, 0xe3, 0xff, 0xff, 0x65, 0xed, 0xff, 0xff, 0x6d, 0x0c, 0x00, 0x00, 0xa4, 0xf5, 0xff, 0xff, 0xc9, 0xfa, 0xff, 0xff, 0xce, 0xfc, 0xff, 0xff, 0xca, 0xff, 0xff, 0xff, 0x45, 0xf5, 0xff, 0xff, 0x77, 0xeb, 0xff, 0xff, 0x23, 0xd4, 0xff, 0xff, 0xe2, 0xe6, 0xff, 0xff, 0xc8, 0x01, 0x00, 0x00, 0xc8, 0xed, 0xff, 0xff, 0xdb, 0xf9, 0xff, 0xff, 0x72, 0x03, 0x00, 0x00, 0xa8, 0x0c, 0x00, 0x00, 0x6a, 0xfe, 0xff, 0xff, 0x04, 0x00, 0x00, 0x00, 0xc0, 0x00, 0x00, 0x00, 0xa3, 0x37, 0x6a, 0xa4, 0xc8, 0x21, 0xd2, 0x81, 0x22, 0xe5, 0x38, 0xaf, 0xd2, 0xeb, 0x47, 0xb2, 0x94, 0xfd, 0x8d, 0x13, 0x17, 0x12, 0xfd, 0xa0, 0xde, 0x8e, 0xd0, 0x66, 0x40, 0x09, 0x64, 0xd9, 0x14, 0xaf, 0xf4, 0xea, 0x8f, 0x0d, 0x37, 0xb6, 0x42, 0xdc, 0x50, 0x13, 0x14, 0x3d, 0xd7, 0xab, 0x48, 0x9e, 0x36, 0xaa, 0x4a, 0x04, 0x83, 0x0a, 0x54, 0x20, 0xe6, 0xee, 0x41, 0x99, 0x18, 0x28, 0x1f, 0x78, 0xe5, 0xb7, 0x25, 0x55, 0x6b, 0x02, 0xee, 0x28, 0xbd, 0x32, 0x08, 0xf6, 0xb3, 0x45, 0x00, 0x26, 0x5f, 0x08, 0x30, 0x6b, 0xb9, 0x63, 0xef, 0x29, 0x44, 0x08, 0xdc, 0xa2, 0xfc, 0xa7, 0x7f, 0xb9, 0x34, 0x71, 0x71, 0xbf, 0x2b, 0x29, 0xcf, 0xc3, 0x5f, 0xb8, 0xc7, 0xfd, 0x46, 0xf7, 0x9a, 0xc9, 0xbc, 0x71, 0xde, 0xbc, 0xc7, 0xc2, 0xd8, 0x70, 0x23, 0x4a, 0xd9, 0x08, 0x12, 0x18, 0xbe, 0xbe, 0xfe, 0x64, 0x8c, 0xb3, 0x27, 0x00, 0xc0, 0x7f, 0xfb, 0xe7, 0x75, 0x50, 0x05, 0xe1, 0x74, 0x61, 0xa1, 0xa6, 0xce, 0x9f, 0xec, 0xdb, 0x3e, 0xdc, 0x9e, 0x18, 0x6f, 0x29, 0xf2, 0x13, 0x15, 0x67, 0x99, 0xfb, 0x01, 0x45, 0xc6, 0xea, 0xab, 0x3e, 0xc4, 0x43, 0x23, 0x0c, 0xb1, 0x71, 0x4f, 0x4a, 0xf4, 0xb4, 0x70, 0x25, 0x00, 0xfd, 0x6c, 0xc1, 0x8b, 0x57, 0xb5, 0x21, 0xf6, 0x5b, 0x36, 0xff, 0xff, 0xff, 0x04, 0x00, 0x00, 0x00, 0x0c, 0x00, 0x00, 0x00, 0x63, 0xfc, 0xff, 0xff, 0x93, 0x04, 0x00, 0x00, 0x46, 0x02, 0x00, 0x00, 0x4e, 0xff, 0xff, 0xff, 0x04, 0x00, 0x00, 0x00, 0x08, 0x00, 0x00, 0x00, 0x01, 0x00, 0x00, 0x00, 0x02, 0x00, 0x00, 0x00, 0x6c, 0xdf, 0xff, 0xff, 0x70, 0xdf, 0xff, 0xff, 0x0f, 0x00, 0x00, 0x00, 0x4d, 0x4c, 0x49, 0x52, 0x20, 0x43, 0x6f, 0x6e, 0x76, 0x65, 0x72, 0x74, 0x65, 0x64, 0x2e, 0x00, 0x01, 0x00, 0x00, 0x00, 0x14, 0x00, 0x00, 0x00, 0x00, 0x00, 0x0e, 0x00, 0x18, 0x00, 0x14, 0x00, 0x10, 0x00, 0x0c, 0x00, 0x08, 0x00, 0x04, 0x00, 0x0e, 0x00, 0x00, 0x00, 0x14, 0x00, 0x00, 0x00, 0x1c, 0x00, 0x00, 0x00, 0xf8, 0x02, 0x00, 0x00, 0xfc, 0x02, 0x00, 0x00, 0x00, 0x03, 0x00, 0x00, 0x04, 0x00, 0x00, 0x00, 0x6d, 0x61, 0x69, 0x6e, 0x00, 0x00, 0x00, 0x00, 0x0a, 0x00, 0x00, 0x00, 0x94, 0x02, 0x00, 0x00, 0x30, 0x02, 0x00, 0x00, 0xc8, 0x01, 0x00, 0x00, 0x88, 0x01, 0x00, 0x00, 0x44, 0x01, 0x00, 0x00, 0xec, 0x00, 0x00, 0x00, 0xac, 0x00, 0x00, 0x00, 0x78, 0x00, 0x00, 0x00, 0x40, 0x00, 0x00, 0x00, 0x04, 0x00, 0x00, 0x00, 0x02, 0xfe, 0xff, 0xff, 0x1c, 0x00, 0x00, 0x00, 0x00, 0x00, 0x00, 0x09, 0x1c, 0x00, 0x00, 0x00, 0x20, 0x00, 0x00, 0x00, 0x05, 0x00, 0x00, 0x00, 0x00, 0x00, 0x06, 0x00, 0x08, 0x00, 0x04, 0x00, 0x06, 0x00, 0x00, 0x00, 0x00, 0x00, 0x80, 0x3f, 0x01, 0x00, 0x00, 0x00, 0x17, 0x00, 0x00, 0x00, 0x01, 0x00, 0x00, 0x00, 0x16, 0x00, 0x00, 0x00, 0x1a, 0xff, 0xff, 0xff, 0x14, 0x00, 0x00, 0x00, 0x00, 0x00, 0x00, 0x08, 0x10, 0x00, 0x00, 0x00, 0x14, 0x00, 0x00, 0x00, 0x04, 0x00, 0x00, 0x00, 0x40, 0xe0, 0xff, 0xff, 0x01, 0x00, 0x00, 0x00, 0x16, 0x00, 0x00, 0x00, 0x03, 0x00, 0x00, 0x00, 0x15, 0x00, 0x00, 0x00, 0x03, 0x00, 0x00, 0x00, 0x02, 0x00, 0x00, 0x00, 0x4e, 0xff, 0xff, 0xff, 0x14, 0x00, 0x00, 0x00, 0x00, 0x00, 0x00, 0x1b, 0x10, 0x00, 0x00, 0x00, 0x14, 0x00, 0x00, 0x00, 0x03, 0x00, 0x00, 0x00, 0x74, 0xe0, 0xff, 0xff, 0x01, 0x00, 0x00, 0x00, 0x15, 0x00, 0x00, 0x00, 0x02, 0x00, 0x00, 0x00, 0x14, 0x00, 0x00, 0x00, 0x01, 0x00, 0x00, 0x00, 0x3e, 0xfe, 0xff, 0xff, 0x10, 0x00, 0x00, 0x00, 0x00, 0x00, 0x00, 0x01, 0x18, 0x00, 0x00, 0x00, 0x1c, 0x00, 0x00, 0x00, 0x30, 0xfe, 0xff, 0xff, 0x00, 0x00, 0x00, 0x01, 0x01, 0x00, 0x00, 0x00, 0x01, 0x00, 0x00, 0x00, 0x01, 0x00, 0x00, 0x00, 0x14, 0x00, 0x00, 0x00, 0x03, 0x00, 0x00, 0x00, 0x13, 0x00, 0x00, 0x00, 0x05, 0x00, 0x00, 0x00, 0x04, 0x00, 0x00, 0x00, 0xba, 0xff, 0xff, 0xff, 0x14, 0x00, 0x00, 0x00, 0x00, 0x00, 0x00, 0x02, 0x20, 0x00, 0x00, 0x00, 0x24, 0x00, 0x00, 0x00, 0x02, 0x00, 0x00, 0x00, 0x2e, 0xff, 0xff, 0xff, 0x00, 0x00, 0x00, 0x01, 0x01, 0x00, 0x00, 0x00, 0x01, 0x00, 0x00, 0x00, 0x01, 0x00, 0x00, 0x00, 0x01, 0x00, 0x00, 0x00, 0x13, 0x00, 0x00, 0x00, 0x03, 0x00, 0x00, 0x00, 0x12, 0x00, 0x00, 0x00, 0x07, 0x00, 0x00, 0x00, 0x06, 0x00, 0x00, 0x00, 0x00, 0x00, 0x0e, 0x00, 0x18, 0x00, 0x14, 0x00, 0x10, 0x00, 0x0c, 0x00, 0x0b, 0x00, 0x04, 0x00, 0x0e, 0x00, 0x00, 0x00, 0x14, 0x00, 0x00, 0x00, 0x00, 0x00, 0x00, 0x05, 0x24, 0x00, 0x00, 0x00, 0x28, 0x00, 0x00, 0x00, 0x01, 0x00, 0x00, 0x00, 0x1e, 0xff, 0xff, 0xff, 0x02, 0x00, 0x00, 0x00, 0x02, 0x00, 0x00, 0x00, 0x02, 0x00, 0x00, 0x00, 0x02, 0x00, 0x00, 0x00, 0x00, 0x00, 0x00, 0x01, 0x01, 0x00, 0x00, 0x00, 0x12, 0x00, 0x00, 0x00, 0x01, 0x00, 0x00, 0x00, 0x11, 0x00, 0x00, 0x00, 0x0e, 0xff, 0xff, 0xff, 0x10, 0x00, 0x00, 0x00, 0x00, 0x00, 0x00, 0x01, 0x18, 0x00, 0x00, 0x00, 0x1c, 0x00, 0x00, 0x00, 0x00, 0xff, 0xff, 0xff, 0x00, 0x00, 0x00, 0x01, 0x01, 0x00, 0x00, 0x00, 0x01, 0x00, 0x00, 0x00, 0x01, 0x00, 0x00, 0x00, 0x11, 0x00, 0x00, 0x00, 0x03, 0x00, 0x00, 0x00, 0x10, 0x00, 0x00, 0x00, 0x09, 0x00, 0x00, 0x00, 0x08, 0x00, 0x00, 0x00, 0xaa, 0xff, 0xff, 0xff, 0x24, 0x00, 0x00, 0x00, 0x00, 0x00, 0x00, 0x02, 0x30, 0x00, 0x00, 0x00, 0x34, 0x00, 0x00, 0x00, 0x02, 0x00, 0x00, 0x00, 0x00, 0x00, 0x0e, 0x00, 0x14, 0x00, 0x00, 0x00, 0x10, 0x00, 0x0c, 0x00, 0x08, 0x00, 0x07, 0x00, 0x0e, 0x00, 0x00, 0x00, 0x00, 0x00, 0x00, 0x01, 0x01, 0x00, 0x00, 0x00, 0x01, 0x00, 0x00, 0x00, 0x01, 0x00, 0x00, 0x00, 0x01, 0x00, 0x00, 0x00, 0x10, 0x00, 0x00, 0x00, 0x03, 0x00, 0x00, 0x00, 0x0f, 0x00, 0x00, 0x00, 0x0b, 0x00, 0x00, 0x00, 0x0a, 0x00, 0x00, 0x00, 0x00, 0x00, 0x0e, 0x00, 0x1a, 0x00, 0x14, 0x00, 0x10, 0x00, 0x0c, 0x00, 0x0b, 0x00, 0x04, 0x00, 0x0e, 0x00, 0x00, 0x00, 0x24, 0x00, 0x00, 0x00, 0x00, 0x00, 0x00, 0x05, 0x34, 0x00, 0x00, 0x00, 0x38, 0x00, 0x00, 0x00, 0x01, 0x00, 0x00, 0x00, 0x00, 0x00, 0x0e, 0x00, 0x18, 0x00, 0x17, 0x00, 0x10, 0x00, 0x0c, 0x00, 0x08, 0x00, 0x04, 0x00, 0x0e, 0x00, 0x00, 0x00, 0x02, 0x00, 0x00, 0x00, 0x02, 0x00, 0x00, 0x00, 0x02, 0x00, 0x00, 0x00, 0x02, 0x00, 0x00, 0x00, 0x00, 0x00, 0x00, 0x01, 0x01, 0x00, 0x00, 0x00, 0x0f, 0x00, 0x00, 0x00, 0x01, 0x00, 0x00, 0x00, 0x0e, 0x00, 0x00, 0x00, 0x00, 0x00, 0x0e, 0x00, 0x14, 0x00, 0x00, 0x00, 0x10, 0x00, 0x0c, 0x00, 0x0b, 0x00, 0x04, 0x00, 0x0e, 0x00, 0x00, 0x00, 0x1c, 0x00, 0x00, 0x00, 0x00, 0x00, 0x00, 0x01, 0x24, 0x00, 0x00, 0x00, 0x28, 0x00, 0x00, 0x00, 0x0c, 0x00, 0x10, 0x00, 0x00, 0x00, 0x0c, 0x00, 0x08, 0x00, 0x07, 0x00, 0x0c, 0x00, 0x00, 0x00, 0x00, 0x00, 0x00, 0x01, 0x01, 0x00, 0x00, 0x00, 0x01, 0x00, 0x00, 0x00, 0x01, 0x00, 0x00, 0x00, 0x0e, 0x00, 0x00, 0x00, 0x03, 0x00, 0x00, 0x00, 0x00, 0x00, 0x00, 0x00, 0x0d, 0x00, 0x00, 0x00, 0x0c, 0x00, 0x00, 0x00, 0x01, 0x00, 0x00, 0x00, 0x17, 0x00, 0x00, 0x00, 0x01, 0x00, 0x00, 0x00, 0x00, 0x00, 0x00, 0x00, 0x18, 0x00, 0x00, 0x00, 0x84, 0x1d, 0x00, 0x00, 0x28, 0x1d, 0x00, 0x00, 0x98, 0x1c, 0x00, 0x00, 0x1c, 0x1c, 0x00, 0x00, 0xc8, 0x18, 0x00, 0x00, 0x64, 0x15, 0x00, 0x00, 0x90, 0x13, 0x00, 0x00, 0x94, 0x11, 0x00, 0x00, 0xa8, 0x0f, 0x00, 0x00, 0xc4, 0x0d, 0x00, 0x00, 0xb0, 0x0c, 0x00, 0x00, 0x88, 0x0b, 0x00, 0x00, 0x70, 0x0a, 0x00, 0x00, 0x4c, 0x09, 0x00, 0x00, 0x38, 0x08, 0x00, 0x00, 0x9c, 0x07, 0x00, 0x00, 0x10, 0x06, 0x00, 0x00, 0xf4, 0x04, 0x00, 0x00, 0x58, 0x04, 0x00, 0x00, 0xcc, 0x02, 0x00, 0x00, 0xb0, 0x01, 0x00, 0x00, 0x1c, 0x01, 0x00, 0x00, 0x80, 0x00, 0x00, 0x00, 0x04, 0x00, 0x00, 0x00, 0xf2, 0xe2, 0xff, 0xff, 0x00, 0x00, 0x00, 0x01, 0x18, 0x00, 0x00, 0x00, 0x20, 0x00, 0x00, 0x00, 0x3c, 0x00, 0x00, 0x00, 0x18, 0x00, 0x00, 0x00, 0x00, 0x00, 0x00, 0x09, 0x50, 0x00, 0x00, 0x00, 0x02, 0x00, 0x00, 0x00, 0xff, 0xff, 0xff, 0xff, 0x03, 0x00, 0x00, 0x00, 0xd4, 0xe2, 0xff, 0xff, 0x08, 0x00, 0x00, 0x00, 0x10, 0x00, 0x00, 0x00, 0x01, 0x00, 0x00, 0x00, 0x80, 0xff, 0xff, 0xff, 0xff, 0xff, 0xff, 0xff, 0x01, 0x00, 0x00, 0x00, 0x00, 0x00, 0x80, 0x3b, 0x1b, 0x00, 0x00, 0x00, 0x53, 0x74, 0x61, 0x74, 0x65, 0x66, 0x75, 0x6c, 0x50, 0x61, 0x72, 0x74, 0x69, 0x74, 0x69, 0x6f, 0x6e, 0x65, 0x64, 0x43, 0x61, 0x6c, 0x6c, 0x5f, 0x31, 0x3a, 0x30, 0x00, 0x02, 0x00, 0x00, 0x00, 0x01, 0x00, 0x00, 0x00, 0x03, 0x00, 0x00, 0x00, 0x6a, 0xe3, 0xff, 0xff, 0x00, 0x00, 0x00, 0x01, 0x18, 0x00, 0x00, 0x00, 0x20, 0x00, 0x00, 0x00, 0x3c, 0x00, 0x00, 0x00, 0x17, 0x00, 0x00, 0x00, 0x00, 0x00, 0x00, 0x09, 0x70, 0x00, 0x00, 0x00, 0x02, 0x00, 0x00, 0x00, 0xff, 0xff, 0xff, 0xff, 0x03, 0x00, 0x00, 0x00, 0x4c, 0xe3, 0xff, 0xff, 0x08, 0x00, 0x00, 0x00, 0x10, 0x00, 0x00, 0x00, 0x01, 0x00, 0x00, 0x00, 0xf5, 0xff, 0xff, 0xff, 0xff, 0xff, 0xff, 0xff, 0x01, 0x00, 0x00, 0x00, 0x97, 0xc4, 0xb5, 0x3c, 0x38, 0x00, 0x00, 0x00, 0x73, 0x65, 0x71, 0x75, 0x65, 0x6e, 0x74, 0x69, 0x61, 0x6c, 0x5f, 0x31, 0x2f, 0x64, 0x65, 0x6e, 0x73, 0x65, 0x5f, 0x31, 0x2f, 0x4d, 0x61, 0x74, 0x4d, 0x75, 0x6c, 0x3b, 0x73, 0x65, 0x71, 0x75, 0x65, 0x6e, 0x74, 0x69, 0x61, 0x6c, 0x5f, 0x31, 0x2f, 0x64, 0x65, 0x6e, 0x73, 0x65, 0x5f, 0x31, 0x2f, 0x42, 0x69, 0x61, 0x73, 0x41, 0x64, 0x64, 0x00, 0x00, 0x00, 0x00, 0x02, 0x00, 0x00, 0x00, 0x01, 0x00, 0x00, 0x00, 0x03, 0x00, 0x00, 0x00, 0x02, 0xe4, 0xff, 0xff, 0x00, 0x00, 0x00, 0x01, 0x18, 0x00, 0x00, 0x00, 0x20, 0x00, 0x00, 0x00, 0x40, 0x00, 0x00, 0x00, 0x16, 0x00, 0x00, 0x00, 0x00, 0x00, 0x00, 0x09, 0x68, 0x00, 0x00, 0x00, 0x02, 0x00, 0x00, 0x00, 0xff, 0xff, 0xff, 0xff, 0x40, 0x00, 0x00, 0x00, 0xe4, 0xe3, 0xff, 0xff, 0x08, 0x00, 0x00, 0x00, 0x14, 0x00, 0x00, 0x00, 0x01, 0x00, 0x00, 0x00, 0x80, 0xff, 0xff, 0xff, 0xff, 0xff, 0xff, 0xff, 0x00, 0x00, 0x00, 0x00, 0x01, 0x00, 0x00, 0x00, 0x26, 0x31, 0xf1, 0x3b, 0x2c, 0x00, 0x00, 0x00, 0x73, 0x65, 0x71, 0x75, 0x65, 0x6e, 0x74, 0x69, 0x61, 0x6c, 0x5f, 0x31, 0x2f, 0x67, 0x6c, 0x6f, 0x62, 0x61, 0x6c, 0x5f, 0x61, 0x76, 0x65, 0x72, 0x61, 0x67, 0x65, 0x5f, 0x70, 0x6f, 0x6f, 0x6c, 0x69, 0x6e, 0x67, 0x32, 0x64, 0x5f, 0x31, 0x2f, 0x4d, 0x65, 0x61, 0x6e, 0x00, 0x00, 0x00, 0x00, 0x02, 0x00, 0x00, 0x00, 0x01, 0x00, 0x00, 0x00, 0x40, 0x00, 0x00, 0x00, 0x92, 0xe4, 0xff, 0xff, 0x00, 0x00, 0x00, 0x01, 0x18, 0x00, 0x00, 0x00, 0x28, 0x00, 0x00, 0x00, 0x48, 0x00, 0x00, 0x00, 0x15, 0x00, 0x00, 0x00, 0x00, 0x00, 0x00, 0x09, 0xe8, 0x00, 0x00, 0x00, 0x04, 0x00, 0x00, 0x00, 0xff, 0xff, 0xff, 0xff, 0x10, 0x00, 0x00, 0x00, 0x0f, 0x00, 0x00, 0x00, 0x40, 0x00, 0x00, 0x00, 0x7c, 0xe4, 0xff, 0xff, 0x08, 0x00, 0x00, 0x00, 0x14, 0x00, 0x00, 0x00, 0x01, 0x00, 0x00, 0x00, 0x80, 0xff, 0xff, 0xff, 0xff, 0xff, 0xff, 0xff, 0x00, 0x00, 0x00, 0x00, 0x01, 0x00, 0x00, 0x00, 0x3b, 0x2e, 0x01, 0x3d, 0xa7, 0x00, 0x00, 0x00, 0x73, 0x65, 0x71, 0x75, 0x65, 0x6e, 0x74, 0x69, 0x61, 0x6c, 0x5f, 0x31, 0x2f, 0x72, 0x65, 0x5f, 0x6c, 0x75, 0x5f, 0x34, 0x5f, 0x31, 0x2f, 0x52, 0x65, 0x6c, 0x75, 0x3b, 0x73, 0x65, 0x71, 0x75, 0x65, 0x6e, 0x74, 0x69, 0x61, 0x6c, 0x5f, 0x31, 0x2f, 0x62, 0x61, 0x74, 0x63, 0x68, 0x5f, 0x6e, 0x6f, 0x72, 0x6d, 0x61, 0x6c, 0x69, 0x7a, 0x61, 0x74, 0x69, 0x6f, 0x6e, 0x5f, 0x34, 0x5f, 0x31, 0x2f, 0x62, 0x61, 0x74, 0x63, 0x68, 0x6e, 0x6f, 0x72, 0x6d, 0x2f, 0x61, 0x64, 0x64, 0x5f, 0x31, 0x3b, 0x73, 0x65, 0x71, 0x75, 0x65, 0x6e, 0x74, 0x69, 0x61, 0x6c, 0x5f, 0x31, 0x2f, 0x63, 0x6f, 0x6e, 0x76, 0x32, 0x64, 0x5f, 0x32, 0x5f, 0x31, 0x2f, 0x63, 0x6f, 0x6e, 0x76, 0x6f, 0x6c, 0x75, 0x74, 0x69, 0x6f, 0x6e, 0x3b, 0x73, 0x65, 0x71, 0x75, 0x65, 0x6e, 0x74, 0x69, 0x61, 0x6c, 0x5f, 0x31, 0x2f, 0x62, 0x61, 0x74, 0x63, 0x68, 0x5f, 0x6e, 0x6f, 0x72, 0x6d, 0x61, 0x6c, 0x69, 0x7a, 0x61, 0x74, 0x69, 0x6f, 0x6e, 0x5f, 0x34, 0x5f, 0x31, 0x2f, 0x62, 0x61, 0x74, 0x63, 0x68, 0x6e, 0x6f, 0x72, 0x6d, 0x2f, 0x73, 0x75, 0x62, 0x00, 0x04, 0x00, 0x00, 0x00, 0x01, 0x00, 0x00, 0x00, 0x10, 0x00, 0x00, 0x00, 0x0f, 0x00, 0x00, 0x00, 0x40, 0x00, 0x00, 0x00, 0xaa, 0xe5, 0xff, 0xff, 0x00, 0x00, 0x00, 0x01, 0x18, 0x00, 0x00, 0x00, 0x28, 0x00, 0x00, 0x00, 0x48, 0x00, 0x00, 0x00, 0x14, 0x00, 0x00, 0x00, 0x00, 0x00, 0x00, 0x09, 0x58, 0x01, 0x00, 0x00, 0x04, 0x00, 0x00, 0x00, 0xff, 0xff, 0xff, 0xff, 0x10, 0x00, 0x00, 0x00, 0x0f, 0x00, 0x00, 0x00, 0x20, 0x00, 0x00, 0x00, 0x94, 0xe5, 0xff, 0xff, 0x08, 0x00, 0x00, 0x00, 0x14, 0x00, 0x00, 0x00, 0x01, 0x00, 0x00, 0x00, 0x80, 0xff, 0xff, 0xff, 0xff, 0xff, 0xff, 0xff, 0x00, 0x00, 0x00, 0x00, 0x01, 0x00, 0x00, 0x00, 0xb6, 0x73, 0xd3, 0x3c, 0x17, 0x01, 0x00, 0x00, 0x73, 0x65, 0x71, 0x75, 0x65, 0x6e, 0x74, 0x69, 0x61, 0x6c, 0x5f, 0x31, 0x2f, 0x72, 0x65, 0x5f, 0x6c, 0x75, 0x5f, 0x33, 0x5f, 0x31, 0x2f, 0x52, 0x65, 0x6c, 0x75, 0x3b, 0x73, 0x65, 0x71, 0x75, 0x65, 0x6e, 0x74, 0x69, 0x61, 0x6c, 0x5f, 0x31, 0x2f, 0x62, 0x61, 0x74, 0x63, 0x68, 0x5f, 0x6e, 0x6f, 0x72, 0x6d, 0x61, 0x6c, 0x69, 0x7a, 0x61, 0x74, 0x69, 0x6f, 0x6e, 0x5f, 0x33, 0x5f, 0x31, 0x2f, 0x62, 0x61, 0x74, 0x63, 0x68, 0x6e, 0x6f, 0x72, 0x6d, 0x2f, 0x61, 0x64, 0x64, 0x5f, 0x31, 0x3b, 0x73, 0x65, 0x71, 0x75, 0x65, 0x6e, 0x74, 0x69, 0x61, 0x6c, 0x5f, 0x31, 0x2f, 0x62, 0x61, 0x74, 0x63, 0x68, 0x5f, 0x6e, 0x6f, 0x72, 0x6d, 0x61, 0x6c, 0x69, 0x7a, 0x61, 0x74, 0x69, 0x6f, 0x6e, 0x5f, 0x33, 0x5f, 0x31, 0x2f, 0x62, 0x61, 0x74, 0x63, 0x68, 0x6e, 0x6f, 0x72, 0x6d, 0x2f, 0x6d, 0x75, 0x6c, 0x5f, 0x31, 0x3b, 0x73, 0x65, 0x71, 0x75, 0x65, 0x6e, 0x74, 0x69, 0x61, 0x6c, 0x5f, 0x31, 0x2f, 0x64, 0x65, 0x70, 0x74, 0x68, 0x77, 0x69, 0x73, 0x65, 0x5f, 0x63, 0x6f, 0x6e, 0x76, 0x32, 0x64, 0x5f, 0x31, 0x5f, 0x32, 0x2f, 0x64, 0x65, 0x70, 0x74, 0x68, 0x77, 0x69, 0x73, 0x65, 0x3b, 0x73, 0x65, 0x71, 0x75, 0x65, 0x6e, 0x74, 0x69, 0x61, 0x6c, 0x5f, 0x31, 0x2f, 0x62, 0x61, 0x74, 0x63, 0x68, 0x5f, 0x6e, 0x6f, 0x72, 0x6d, 0x61, 0x6c, 0x69, 0x7a, 0x61, 0x74, 0x69, 0x6f, 0x6e, 0x5f, 0x33, 0x5f, 0x31, 0x2f, 0x62, 0x61, 0x74, 0x63, 0x68, 0x6e, 0x6f, 0x72, 0x6d, 0x2f, 0x6d, 0x75, 0x6c, 0x3b, 0x73, 0x65, 0x71, 0x75, 0x65, 0x6e, 0x74, 0x69, 0x61, 0x6c, 0x5f, 0x31, 0x2f, 0x62, 0x61, 0x74, 0x63, 0x68, 0x5f, 0x6e, 0x6f, 0x72, 0x6d, 0x61, 0x6c, 0x69, 0x7a, 0x61, 0x74, 0x69, 0x6f, 0x6e, 0x5f, 0x33, 0x5f, 0x31, 0x2f, 0x62, 0x61, 0x74, 0x63, 0x68, 0x6e, 0x6f, 0x72, 0x6d, 0x2f, 0x73, 0x75, 0x62, 0x00, 0x04, 0x00, 0x00, 0x00, 0x01, 0x00, 0x00, 0x00, 0x10, 0x00, 0x00, 0x00, 0x0f, 0x00, 0x00, 0x00, 0x20, 0x00, 0x00, 0x00, 0x32, 0xe7, 0xff, 0xff, 0x00, 0x00, 0x00, 0x01, 0x18, 0x00, 0x00, 0x00, 0x28, 0x00, 0x00, 0x00, 0x44, 0x00, 0x00, 0x00, 0x13, 0x00, 0x00, 0x00, 0x00, 0x00, 0x00, 0x09, 0x68, 0x00, 0x00, 0x00, 0x04, 0x00, 0x00, 0x00, 0xff, 0xff, 0xff, 0xff, 0x10, 0x00, 0x00, 0x00, 0x0f, 0x00, 0x00, 0x00, 0x20, 0x00, 0x00, 0x00, 0x1c, 0xe7, 0xff, 0xff, 0x08, 0x00, 0x00, 0x00, 0x10, 0x00, 0x00, 0x00, 0x01, 0x00, 0x00, 0x00, 0x80, 0xff, 0xff, 0xff, 0xff, 0xff, 0xff, 0xff, 0x01, 0x00, 0x00, 0x00, 0xe5, 0x2a, 0x5b, 0x3d, 0x28, 0x00, 0x00, 0x00, 0x73, 0x65, 0x71, 0x75, 0x65, 0x6e, 0x74, 0x69, 0x61, 0x6c, 0x5f, 0x31, 0x2f, 0x6d, 0x61, 0x78, 0x5f, 0x70, 0x6f, 0x6f, 0x6c, 0x69, 0x6e, 0x67, 0x32, 0x64, 0x5f, 0x31, 0x5f, 0x32, 0x2f, 0x4d, 0x61, 0x78, 0x50, 0x6f, 0x6f, 0x6c, 0x32, 0x64, 0x00, 0x00, 0x00, 0x00, 0x04, 0x00, 0x00, 0x00, 0x01, 0x00, 0x00, 0x00, 0x10, 0x00, 0x00, 0x00, 0x0f, 0x00, 0x00, 0x00, 0x20, 0x00, 0x00, 0x00, 0xca, 0xe7, 0xff, 0xff, 0x00, 0x00, 0x00, 0x01, 0x18, 0x00, 0x00, 0x00, 0x28, 0x00, 0x00, 0x00, 0x48, 0x00, 0x00, 0x00, 0x12, 0x00, 0x00, 0x00, 0x00, 0x00, 0x00, 0x09, 0xe8, 0x00, 0x00, 0x00, 0x04, 0x00, 0x00, 0x00, 0xff, 0xff, 0xff, 0xff, 0x20, 0x00, 0x00, 0x00, 0x1f, 0x00, 0x00, 0x00, 0x20, 0x00, 0x00, 0x00, 0xb4, 0xe7, 0xff, 0xff, 0x08, 0x00, 0x00, 0x00, 0x14, 0x00, 0x00, 0x00, 0x01, 0x00, 0x00, 0x00, 0x80, 0xff, 0xff, 0xff, 0xff, 0xff, 0xff, 0xff, 0x00, 0x00, 0x00, 0x00, 0x01, 0x00, 0x00, 0x00, 0xe5, 0x2a, 0x5b, 0x3d, 0xa7, 0x00, 0x00, 0x00, 0x73, 0x65, 0x71, 0x75, 0x65, 0x6e, 0x74, 0x69, 0x61, 0x6c, 0x5f, 0x31, 0x2f, 0x72, 0x65, 0x5f, 0x6c, 0x75, 0x5f, 0x32, 0x5f, 0x31, 0x2f, 0x52, 0x65, 0x6c, 0x75, 0x3b, 0x73, 0x65, 0x71, 0x75, 0x65, 0x6e, 0x74, 0x69, 0x61, 0x6c, 0x5f, 0x31, 0x2f, 0x62, 0x61, 0x74, 0x63, 0x68, 0x5f, 0x6e, 0x6f, 0x72, 0x6d, 0x61, 0x6c, 0x69, 0x7a, 0x61, 0x74, 0x69, 0x6f, 0x6e, 0x5f, 0x32, 0x5f, 0x31, 0x2f, 0x62, 0x61, 0x74, 0x63, 0x68, 0x6e, 0x6f, 0x72, 0x6d, 0x2f, 0x61, 0x64, 0x64, 0x5f, 0x31, 0x3b, 0x73, 0x65, 0x71, 0x75, 0x65, 0x6e, 0x74, 0x69, 0x61, 0x6c, 0x5f, 0x31, 0x2f, 0x63, 0x6f, 0x6e, 0x76, 0x32, 0x64, 0x5f, 0x31, 0x5f, 0x32, 0x2f, 0x63, 0x6f, 0x6e, 0x76, 0x6f, 0x6c, 0x75, 0x74, 0x69, 0x6f, 0x6e, 0x3b, 0x73, 0x65, 0x71, 0x75, 0x65, 0x6e, 0x74, 0x69, 0x61, 0x6c, 0x5f, 0x31, 0x2f, 0x62, 0x61, 0x74, 0x63, 0x68, 0x5f, 0x6e, 0x6f, 0x72, 0x6d, 0x61, 0x6c, 0x69, 0x7a, 0x61, 0x74, 0x69, 0x6f, 0x6e, 0x5f, 0x32, 0x5f, 0x31, 0x2f, 0x62, 0x61, 0x74, 0x63, 0x68, 0x6e, 0x6f, 0x72, 0x6d, 0x2f, 0x73, 0x75, 0x62, 0x00, 0x04, 0x00, 0x00, 0x00, 0x01, 0x00, 0x00, 0x00, 0x20, 0x00, 0x00, 0x00, 0x1f, 0x00, 0x00, 0x00, 0x20, 0x00, 0x00, 0x00, 0xe2, 0xe8, 0xff, 0xff, 0x00, 0x00, 0x00, 0x01, 0x18, 0x00, 0x00, 0x00, 0x28, 0x00, 0x00, 0x00, 0x48, 0x00, 0x00, 0x00, 0x11, 0x00, 0x00, 0x00, 0x00, 0x00, 0x00, 0x09, 0x58, 0x01, 0x00, 0x00, 0x04, 0x00, 0x00, 0x00, 0xff, 0xff, 0xff, 0xff, 0x20, 0x00, 0x00, 0x00, 0x1f, 0x00, 0x00, 0x00, 0x10, 0x00, 0x00, 0x00, 0xcc, 0xe8, 0xff, 0xff, 0x08, 0x00, 0x00, 0x00, 0x14, 0x00, 0x00, 0x00, 0x01, 0x00, 0x00, 0x00, 0x80, 0xff, 0xff, 0xff, 0xff, 0xff, 0xff, 0xff, 0x00, 0x00, 0x00, 0x00, 0x01, 0x00, 0x00, 0x00, 0xa8, 0xc9, 0x5d, 0x3d, 0x15, 0x01, 0x00, 0x00, 0x73, 0x65, 0x71, 0x75, 0x65, 0x6e, 0x74, 0x69, 0x61, 0x6c, 0x5f, 0x31, 0x2f, 0x72, 0x65, 0x5f, 0x6c, 0x75, 0x5f, 0x31, 0x5f, 0x32, 0x2f, 0x52, 0x65, 0x6c, 0x75, 0x3b, 0x73, 0x65, 0x71, 0x75, 0x65, 0x6e, 0x74, 0x69, 0x61, 0x6c, 0x5f, 0x31, 0x2f, 0x62, 0x61, 0x74, 0x63, 0x68, 0x5f, 0x6e, 0x6f, 0x72, 0x6d, 0x61, 0x6c, 0x69, 0x7a, 0x61, 0x74, 0x69, 0x6f, 0x6e, 0x5f, 0x31, 0x5f, 0x32, 0x2f, 0x62, 0x61, 0x74, 0x63, 0x68, 0x6e, 0x6f, 0x72, 0x6d, 0x2f, 0x61, 0x64, 0x64, 0x5f, 0x31, 0x3b, 0x73, 0x65, 0x71, 0x75, 0x65, 0x6e, 0x74, 0x69, 0x61, 0x6c, 0x5f, 0x31, 0x2f, 0x62, 0x61, 0x74, 0x63, 0x68, 0x5f, 0x6e, 0x6f, 0x72, 0x6d, 0x61, 0x6c, 0x69, 0x7a, 0x61, 0x74, 0x69, 0x6f, 0x6e, 0x5f, 0x31, 0x5f, 0x32, 0x2f, 0x62, 0x61, 0x74, 0x63, 0x68, 0x6e, 0x6f, 0x72, 0x6d, 0x2f, 0x6d, 0x75, 0x6c, 0x5f, 0x31, 0x3b, 0x73, 0x65, 0x71, 0x75, 0x65, 0x6e, 0x74, 0x69, 0x61, 0x6c, 0x5f, 0x31, 0x2f, 0x64, 0x65, 0x70, 0x74, 0x68, 0x77, 0x69, 0x73, 0x65, 0x5f, 0x63, 0x6f, 0x6e, 0x76, 0x32, 0x64, 0x5f, 0x31, 0x2f, 0x64, 0x65, 0x70, 0x74, 0x68, 0x77, 0x69, 0x73, 0x65, 0x3b, 0x73, 0x65, 0x71, 0x75, 0x65, 0x6e, 0x74, 0x69, 0x61, 0x6c, 0x5f, 0x31, 0x2f, 0x62, 0x61, 0x74, 0x63, 0x68, 0x5f, 0x6e, 0x6f, 0x72, 0x6d, 0x61, 0x6c, 0x69, 0x7a, 0x61, 0x74, 0x69, 0x6f, 0x6e, 0x5f, 0x31, 0x5f, 0x32, 0x2f, 0x62, 0x61, 0x74, 0x63, 0x68, 0x6e, 0x6f, 0x72, 0x6d, 0x2f, 0x6d, 0x75, 0x6c, 0x3b, 0x73, 0x65, 0x71, 0x75, 0x65, 0x6e, 0x74, 0x69, 0x61, 0x6c, 0x5f, 0x31, 0x2f, 0x62, 0x61, 0x74, 0x63, 0x68, 0x5f, 0x6e, 0x6f, 0x72, 0x6d, 0x61, 0x6c, 0x69, 0x7a, 0x61, 0x74, 0x69, 0x6f, 0x6e, 0x5f, 0x31, 0x5f, 0x32, 0x2f, 0x62, 0x61, 0x74, 0x63, 0x68, 0x6e, 0x6f, 0x72, 0x6d, 0x2f, 0x73, 0x75, 0x62, 0x00, 0x00, 0x00, 0x04, 0x00, 0x00, 0x00, 0x01, 0x00, 0x00, 0x00, 0x20, 0x00, 0x00, 0x00, 0x1f, 0x00, 0x00, 0x00, 0x10, 0x00, 0x00, 0x00, 0x6a, 0xea, 0xff, 0xff, 0x00, 0x00, 0x00, 0x01, 0x18, 0x00, 0x00, 0x00, 0x28, 0x00, 0x00, 0x00, 0x48, 0x00, 0x00, 0x00, 0x10, 0x00, 0x00, 0x00, 0x00, 0x00, 0x00, 0x09, 0x68, 0x00, 0x00, 0x00, 0x04, 0x00, 0x00, 0x00, 0xff, 0xff, 0xff, 0xff, 0x20, 0x00, 0x00, 0x00, 0x1f, 0x00, 0x00, 0x00, 0x10, 0x00, 0x00, 0x00, 0x54, 0xea, 0xff, 0xff, 0x08, 0x00, 0x00, 0x00, 0x14, 0x00, 0x00, 0x00, 0x01, 0x00, 0x00, 0x00, 0x80, 0xff, 0xff, 0xff, 0xff, 0xff, 0xff, 0xff, 0x00, 0x00, 0x00, 0x00, 0x01, 0x00, 0x00, 0x00, 0xdd, 0x1c, 0x42, 0x3d, 0x26, 0x00, 0x00, 0x00, 0x73, 0x65, 0x71, 0x75, 0x65, 0x6e, 0x74, 0x69, 0x61, 0x6c, 0x5f, 0x31, 0x2f, 0x6d, 0x61, 0x78, 0x5f, 0x70, 0x6f, 0x6f, 0x6c, 0x69, 0x6e, 0x67, 0x32, 0x64, 0x5f, 0x31, 0x2f, 0x4d, 0x61, 0x78, 0x50, 0x6f, 0x6f, 0x6c, 0x32, 0x64, 0x00, 0x00, 0x04, 0x00, 0x00, 0x00, 0x01, 0x00, 0x00, 0x00, 0x20, 0x00, 0x00, 0x00, 0x1f, 0x00, 0x00, 0x00, 0x10, 0x00, 0x00, 0x00, 0x02, 0xeb, 0xff, 0xff, 0x00, 0x00, 0x00, 0x01, 0x18, 0x00, 0x00, 0x00, 0x28, 0x00, 0x00, 0x00, 0x44, 0x00, 0x00, 0x00, 0x0f, 0x00, 0x00, 0x00, 0x00, 0x00, 0x00, 0x09, 0xe0, 0x00, 0x00, 0x00, 0x04, 0x00, 0x00, 0x00, 0xff, 0xff, 0xff, 0xff, 0x40, 0x00, 0x00, 0x00, 0x3f, 0x00, 0x00, 0x00, 0x10, 0x00, 0x00, 0x00, 0xec, 0xea, 0xff, 0xff, 0x08, 0x00, 0x00, 0x00, 0x10, 0x00, 0x00, 0x00, 0x01, 0x00, 0x00, 0x00, 0x80, 0xff, 0xff, 0xff, 0xff, 0xff, 0xff, 0xff, 0x01, 0x00, 0x00, 0x00, 0xdd, 0x1c, 0x42, 0x3d, 0xa0, 0x00, 0x00, 0x00, 0x73, 0x65, 0x71, 0x75, 0x65, 0x6e, 0x74, 0x69, 0x61, 0x6c, 0x5f, 0x31, 0x2f, 0x72, 0x65, 0x5f, 0x6c, 0x75, 0x5f, 0x31, 0x2f, 0x52, 0x65, 0x6c, 0x75, 0x3b, 0x73, 0x65, 0x71, 0x75, 0x65, 0x6e, 0x74, 0x69, 0x61, 0x6c, 0x5f, 0x31, 0x2f, 0x62, 0x61, 0x74, 0x63, 0x68, 0x5f, 0x6e, 0x6f, 0x72, 0x6d, 0x61, 0x6c, 0x69, 0x7a, 0x61, 0x74, 0x69, 0x6f, 0x6e, 0x5f, 0x31, 0x2f, 0x62, 0x61, 0x74, 0x63, 0x68, 0x6e, 0x6f, 0x72, 0x6d, 0x2f, 0x61, 0x64, 0x64, 0x5f, 0x31, 0x3b, 0x73, 0x65, 0x71, 0x75, 0x65, 0x6e, 0x74, 0x69, 0x61, 0x6c, 0x5f, 0x31, 0x2f, 0x63, 0x6f, 0x6e, 0x76, 0x32, 0x64, 0x5f, 0x31, 0x2f, 0x63, 0x6f, 0x6e, 0x76, 0x6f, 0x6c, 0x75, 0x74, 0x69, 0x6f, 0x6e, 0x3b, 0x73, 0x65, 0x71, 0x75, 0x65, 0x6e, 0x74, 0x69, 0x61, 0x6c, 0x5f, 0x31, 0x2f, 0x62, 0x61, 0x74, 0x63, 0x68, 0x5f, 0x6e, 0x6f, 0x72, 0x6d, 0x61, 0x6c, 0x69, 0x7a, 0x61, 0x74, 0x69, 0x6f, 0x6e, 0x5f, 0x31, 0x2f, 0x62, 0x61, 0x74, 0x63, 0x68, 0x6e, 0x6f, 0x72, 0x6d, 0x2f, 0x73, 0x75, 0x62, 0x31, 0x00, 0x00, 0x00, 0x00, 0x04, 0x00, 0x00, 0x00, 0x01, 0x00, 0x00, 0x00, 0x40, 0x00, 0x00, 0x00, 0x3f, 0x00, 0x00, 0x00, 0x10, 0x00, 0x00, 0x00, 0x6a, 0xec, 0xff, 0xff, 0x00, 0x00, 0x00, 0x01, 0x14, 0x00, 0x00, 0x00, 0xe8, 0x00, 0x00, 0x00, 0x0e, 0x00, 0x00, 0x00, 0x00, 0x00, 0x00, 0x09, 0xf4, 0x00, 0x00, 0x00, 0xe4, 0xeb, 0xff, 0xff, 0x08, 0x00, 0x00, 0x00, 0x8c, 0x00, 0x00, 0x00, 0x10, 0x00, 0x00, 0x00, 0x00, 0x00, 0x00, 0x00, 0x00, 0x00, 0x00, 0x00, 0x00, 0x00, 0x00, 0x00, 0x00, 0x00, 0x00, 0x00, 0x00, 0x00, 0x00, 0x00, 0x00, 0x00, 0x00, 0x00, 0x00, 0x00, 0x00, 0x00, 0x00, 0x00, 0x00, 0x00, 0x00, 0x00, 0x00, 0x00, 0x00, 0x00, 0x00, 0x00, 0x00, 0x00, 0x00, 0x00, 0x00, 0x00, 0x00, 0x00, 0x00, 0x00, 0x00, 0x00, 0x00, 0x00, 0x00, 0x00, 0x00, 0x00, 0x00, 0x00, 0x00, 0x00, 0x00, 0x00, 0x00, 0x00, 0x00, 0x00, 0x00, 0x00, 0x00, 0x00, 0x00, 0x00, 0x00, 0x00, 0x00, 0x00, 0x00, 0x00, 0x00, 0x00, 0x00, 0x00, 0x00, 0x00, 0x00, 0x00, 0x00, 0x00, 0x00, 0x00, 0x00, 0x00, 0x00, 0x00, 0x00, 0x00, 0x00, 0x00, 0x00, 0x00, 0x00, 0x00, 0x00, 0x00, 0x00, 0x00, 0x00, 0x00, 0x00, 0x00, 0x00, 0x00, 0x00, 0x00, 0x00, 0x00, 0x00, 0x00, 0x00, 0x00, 0x00, 0x00, 0x00, 0x00, 0x00, 0x00, 0x00, 0x00, 0x00, 0x00, 0x10, 0x00, 0x00, 0x00, 0xeb, 0xd7, 0x13, 0x3a, 0x96, 0xd7, 0x1f, 0x3a, 0xc8, 0xb5, 0x80, 0x39, 0xe1, 0x78, 0xa0, 0x39, 0xf3, 0x22, 0xd1, 0x39, 0x76, 0x54, 0x2b, 0x39, 0xb0, 0xfd, 0xc2, 0x39, 0x52, 0x4f, 0xc4, 0x39, 0xbc, 0xac, 0x03, 0x3a, 0x18, 0x98, 0x80, 0x3a, 0x2d, 0x78, 0x13, 0x3a, 0x5c, 0x06, 0x41, 0x39, 0x2f, 0xd7, 0x04, 0x3a, 0x00, 0xc2, 0x58, 0x3a, 0x87, 0xe9, 0xc7, 0x39, 0x5d, 0x60, 0x45, 0x3a, 0x13, 0x00, 0x00, 0x00, 0x74, 0x66, 0x6c, 0x2e, 0x70, 0x73, 0x65, 0x75, 0x64, 0x6f, 0x5f, 0x71, 0x63, 0x6f, 0x6e, 0x73, 0x74, 0x31, 0x31, 0x00, 0x04, 0x00, 0x00, 0x00, 0x10, 0x00, 0x00, 0x00, 0x03, 0x00, 0x00, 0x00, 0x03, 0x00, 0x00, 0x00, 0x01, 0x00, 0x00, 0x00, 0x8a, 0xed, 0xff, 0xff, 0x00, 0x00, 0x00, 0x01, 0x14, 0x00, 0x00, 0x00, 0xe8, 0x00, 0x00, 0x00, 0x0d, 0x00, 0x00, 0x00, 0x00, 0x00, 0x00, 0x02, 0xf4, 0x00, 0x00, 0x00, 0x04, 0xed, 0xff, 0xff, 0x08, 0x00, 0x00, 0x00, 0x8c, 0x00, 0x00, 0x00, 0x10, 0x00, 0x00, 0x00, 0x00, 0x00, 0x00, 0x00, 0x00, 0x00, 0x00, 0x00, 0x00, 0x00, 0x00, 0x00, 0x00, 0x00, 0x00, 0x00, 0x00, 0x00, 0x00, 0x00, 0x00, 0x00, 0x00, 0x00, 0x00, 0x00, 0x00, 0x00, 0x00, 0x00, 0x00, 0x00, 0x00, 0x00, 0x00, 0x00, 0x00, 0x00, 0x00, 0x00, 0x00, 0x00, 0x00, 0x00, 0x00, 0x00, 0x00, 0x00, 0x00, 0x00, 0x00, 0x00, 0x00, 0x00, 0x00, 0x00, 0x00, 0x00, 0x00, 0x00, 0x00, 0x00, 0x00, 0x00, 0x00, 0x00, 0x00, 0x00, 0x00, 0x00, 0x00, 0x00, 0x00, 0x00, 0x00, 0x00, 0x00, 0x00, 0x00, 0x00, 0x00, 0x00, 0x00, 0x00, 0x00, 0x00, 0x00, 0x00, 0x00, 0x00, 0x00, 0x00, 0x00, 0x00, 0x00, 0x00, 0x00, 0x00, 0x00, 0x00, 0x00, 0x00, 0x00, 0x00, 0x00, 0x00, 0x00, 0x00, 0x00, 0x00, 0x00, 0x00, 0x00, 0x00, 0x00, 0x00, 0x00, 0x00, 0x00, 0x00, 0x00, 0x00, 0x00, 0x00, 0x00, 0x00, 0x00, 0x00, 0x00, 0x00, 0x00, 0x00, 0x10, 0x00, 0x00, 0x00, 0x6e, 0x87, 0x39, 0x39, 0x12, 0x96, 0x48, 0x39, 0xbf, 0x84, 0xa1, 0x38, 0x7a, 0x60, 0xc9, 0x38, 0x11, 0x39, 0x03, 0x39, 0x95, 0x00, 0x57, 0x38, 0xce, 0xb1, 0xf4, 0x38, 0x81, 0x59, 0xf6, 0x38, 0x29, 0x3d, 0x25, 0x39, 0x7e, 0x5f, 0xa1, 0x39, 0x48, 0x0f, 0x39, 0x39, 0x2e, 0x3a, 0x72, 0x38, 0xaf, 0xb3, 0x26, 0x39, 0x42, 0x01, 0x88, 0x39, 0xc8, 0xde, 0xfa, 0x38, 0x25, 0xb0, 0x77, 0x39, 0x13, 0x00, 0x00, 0x00, 0x74, 0x66, 0x6c, 0x2e, 0x70, 0x73, 0x65, 0x75, 0x64, 0x6f, 0x5f, 0x71, 0x63, 0x6f, 0x6e, 0x73, 0x74, 0x31, 0x30, 0x00, 0x01, 0x00, 0x00, 0x00, 0x10, 0x00, 0x00, 0x00, 0x9e, 0xee, 0xff, 0xff, 0x00, 0x00, 0x00, 0x01, 0x14, 0x00, 0x00, 0x00, 0xec, 0x00, 0x00, 0x00, 0x0c, 0x00, 0x00, 0x00, 0x00, 0x00, 0x00, 0x09, 0xf8, 0x00, 0x00, 0x00, 0x02, 0xfa, 0xff, 0xff, 0x03, 0x00, 0x00, 0x00, 0x08, 0x00, 0x00, 0x00, 0x8c, 0x00, 0x00, 0x00, 0x10, 0x00, 0x00, 0x00, 0x00, 0x00, 0x00, 0x00, 0x00, 0x00, 0x00, 0x00, 0x00, 0x00, 0x00, 0x00, 0x00, 0x00, 0x00, 0x00, 0x00, 0x00, 0x00, 0x00, 0x00, 0x00, 0x00, 0x00, 0x00, 0x00, 0x00, 0x00, 0x00, 0x00, 0x00, 0x00, 0x00, 0x00, 0x00, 0x00, 0x00, 0x00, 0x00, 0x00, 0x00, 0x00, 0x00, 0x00, 0x00, 0x00, 0x00, 0x00, 0x00, 0x00, 0x00, 0x00, 0x00, 0x00, 0x00, 0x00, 0x00, 0x00, 0x00, 0x00, 0x00, 0x00, 0x00, 0x00, 0x00, 0x00, 0x00, 0x00, 0x00, 0x00, 0x00, 0x00, 0x00, 0x00, 0x00, 0x00, 0x00, 0x00, 0x00, 0x00, 0x00, 0x00, 0x00, 0x00, 0x00, 0x00, 0x00, 0x00, 0x00, 0x00, 0x00, 0x00, 0x00, 0x00, 0x00, 0x00, 0x00, 0x00, 0x00, 0x00, 0x00, 0x00, 0x00, 0x00, 0x00, 0x00, 0x00, 0x00, 0x00, 0x00, 0x00, 0x00, 0x00, 0x00, 0x00, 0x00, 0x00, 0x00, 0x00, 0x00, 0x00, 0x00, 0x00, 0x00, 0x00, 0x00, 0x00, 0x00, 0x00, 0x00, 0x00, 0x00, 0x10, 0x00, 0x00, 0x00, 0xa6, 0xdd, 0x8b, 0x3b, 0x4f, 0x05, 0x98, 0x3b, 0xa8, 0x31, 0xee, 0x3b, 0x0f, 0x9a, 0xda, 0x3b, 0x14, 0x08, 0x0a, 0x3c, 0x6c, 0x37, 0x59, 0x3c, 0xd8, 0x79, 0xc9, 0x3b, 0x35, 0xe3, 0xfe, 0x3b, 0x39, 0x06, 0x1f, 0x3c, 0x38, 0xb0, 0xad, 0x3b, 0x98, 0xa3, 0xb0, 0x3b, 0xd2, 0x49, 0x32, 0x3c, 0x97, 0xb1, 0x55, 0x3b, 0x98, 0x64, 0xa4, 0x3b, 0xd1, 0x27, 0xf1, 0x3b, 0x93, 0x80, 0xc3, 0x3b, 0x12, 0x00, 0x00, 0x00, 0x74, 0x66, 0x6c, 0x2e, 0x70, 0x73, 0x65, 0x75, 0x64, 0x6f, 0x5f, 0x71, 0x63, 0x6f, 0x6e, 0x73, 0x74, 0x39, 0x00, 0x00, 0x04, 0x00, 0x00, 0x00, 0x01, 0x00, 0x00, 0x00, 0x03, 0x00, 0x00, 0x00, 0x03, 0x00, 0x00, 0x00, 0x10, 0x00, 0x00, 0x00, 0xc2, 0xef, 0xff, 0xff, 0x00, 0x00, 0x00, 0x01, 0x14, 0x00, 0x00, 0x00, 0xe4, 0x00, 0x00, 0x00, 0x0b, 0x00, 0x00, 0x00, 0x00, 0x00, 0x00, 0x02, 0xf0, 0x00, 0x00, 0x00, 0x3c, 0xef, 0xff, 0xff, 0x08, 0x00, 0x00, 0x00, 0x88, 0x00, 0x00, 0x00, 0x10, 0x00, 0x00, 0x00, 0x00, 0x00, 0x00, 0x00, 0x00, 0x00, 0x00, 0x00, 0x00, 0x00, 0x00, 0x00, 0x00, 0x00, 0x00, 0x00, 0x00, 0x00, 0x00, 0x00, 0x00, 0x00, 0x00, 0x00, 0x00, 0x00, 0x00, 0x00, 0x00, 0x00, 0x00, 0x00, 0x00, 0x00, 0x00, 0x00, 0x00, 0x00, 0x00, 0x00, 0x00, 0x00, 0x00, 0x00, 0x00, 0x00, 0x00, 0x00, 0x00, 0x00, 0x00, 0x00, 0x00, 0x00, 0x00, 0x00, 0x00, 0x00, 0x00, 0x00, 0x00, 0x00, 0x00, 0x00, 0x00, 0x00, 0x00, 0x00, 0x00, 0x00, 0x00, 0x00, 0x00, 0x00, 0x00, 0x00, 0x00, 0x00, 0x00, 0x00, 0x00, 0x00, 0x00, 0x00, 0x00, 0x00, 0x00, 0x00, 0x00, 0x00, 0x00, 0x00, 0x00, 0x00, 0x00, 0x00, 0x00, 0x00, 0x00, 0x00, 0x00, 0x00, 0x00, 0x00, 0x00, 0x00, 0x00, 0x00, 0x00, 0x00, 0x00, 0x00, 0x00, 0x00, 0x00, 0x00, 0x00, 0x00, 0x00, 0x00, 0x00, 0x00, 0x00, 0x00, 0x00, 0x00, 0x00, 0x00, 0x10, 0x00, 0x00, 0x00, 0x7a, 0x1b, 0x54, 0x39, 0x53, 0x8a, 0x66, 0x39, 0x7c, 0x9c, 0xb4, 0x39, 0x65, 0xc1, 0xa5, 0x39, 0x5e, 0x53, 0xd1, 0x39, 0x7d, 0xb4, 0x24, 0x3a, 0x0d, 0xc5, 0x98, 0x39, 0xeb, 0x44, 0xc1, 0x39, 0x4a, 0x29, 0xf1, 0x39, 0x20, 0xb3, 0x83, 0x39, 0xe4, 0xef, 0x85, 0x39, 0x0b, 0x30, 0x07, 0x3a, 0xac, 0x08, 0x22, 0x39, 0x88, 0x4d, 0x79, 0x39, 0x5d, 0xdb, 0xb6, 0x39, 0x7a, 0x3d, 0x94, 0x39, 0x12, 0x00, 0x00, 0x00, 0x74, 0x66, 0x6c, 0x2e, 0x70, 0x73, 0x65, 0x75, 0x64, 0x6f, 0x5f, 0x71, 0x63, 0x6f, 0x6e, 0x73, 0x74, 0x38, 0x00, 0x00, 0x01, 0x00, 0x00, 0x00, 0x10, 0x00, 0x00, 0x00, 0xd2, 0xf0, 0xff, 0xff, 0x00, 0x00, 0x00, 0x01, 0x14, 0x00, 0x00, 0x00, 0xa8, 0x01, 0x00, 0x00, 0x0a, 0x00, 0x00, 0x00, 0x00, 0x00, 0x00, 0x09, 0xb4, 0x01, 0x00, 0x00, 0x4c, 0xf0, 0xff, 0xff, 0x08, 0x00, 0x00, 0x00, 0x0c, 0x01, 0x00, 0x00, 0x20, 0x00, 0x00, 0x00, 0x00, 0x00, 0x00, 0x00, 0x00, 0x00, 0x00, 0x00, 0x00, 0x00, 0x00, 0x00, 0x00, 0x00, 0x00, 0x00, 0x00, 0x00, 0x00, 0x00, 0x00, 0x00, 0x00, 0x00, 0x00, 0x00, 0x00, 0x00, 0x00, 0x00, 0x00, 0x00, 0x00, 0x00, 0x00, 0x00, 0x00, 0x00, 0x00, 0x00, 0x00, 0x00, 0x00, 0x00, 0x00, 0x00, 0x00, 0x00, 0x00, 0x00, 0x00, 0x00, 0x00, 0x00, 0x00, 0x00, 0x00, 0x00, 0x00, 0x00, 0x00, 0x00, 0x00, 0x00, 0x00, 0x00, 0x00, 0x00, 0x00, 0x00, 0x00, 0x00, 0x00, 0x00, 0x00, 0x00, 0x00, 0x00, 0x00, 0x00, 0x00, 0x00, 0x00, 0x00, 0x00, 0x00, 0x00, 0x00, 0x00, 0x00, 0x00, 0x00, 0x00, 0x00, 0x00, 0x00, 0x00, 0x00, 0x00, 0x00, 0x00, 0x00, 0x00, 0x00, 0x00, 0x00, 0x00, 0x00, 0x00, 0x00, 0x00, 0x00, 0x00, 0x00, 0x00, 0x00, 0x00, 0x00, 0x00, 0x00, 0x00, 0x00, 0x00, 0x00, 0x00, 0x00, 0x00, 0x00, 0x00, 0x00, 0x00, 0x00, 0x00, 0x00, 0x00, 0x00, 0x00, 0x00, 0x00, 0x00, 0x00, 0x00, 0x00, 0x00, 0x00, 0x00, 0x00, 0x00, 0x00, 0x00, 0x00, 0x00, 0x00, 0x00, 0x00, 0x00, 0x00, 0x00, 0x00, 0x00, 0x00, 0x00, 0x00, 0x00, 0x00, 0x00, 0x00, 0x00, 0x00, 0x00, 0x00, 0x00, 0x00, 0x00, 0x00, 0x00, 0x00, 0x00, 0x00, 0x00, 0x00, 0x00, 0x00, 0x00, 0x00, 0x00, 0x00, 0x00, 0x00, 0x00, 0x00, 0x00, 0x00, 0x00, 0x00, 0x00, 0x00, 0x00, 0x00, 0x00, 0x00, 0x00, 0x00, 0x00, 0x00, 0x00, 0x00, 0x00, 0x00, 0x00, 0x00, 0x00, 0x00, 0x00, 0x00, 0x00, 0x00, 0x00, 0x00, 0x00, 0x00, 0x00, 0x00, 0x00, 0x00, 0x00, 0x00, 0x00, 0x00, 0x00, 0x00, 0x00, 0x00, 0x00, 0x00, 0x00, 0x00, 0x00, 0x00, 0x00, 0x00, 0x00, 0x00, 0x00, 0x00, 0x00, 0x00, 0x00, 0x00, 0x00, 0x00, 0x00, 0x00, 0x00, 0x00, 0x00, 0x00, 0x00, 0x00, 0x00, 0x20, 0x00, 0x00, 0x00, 0x4d, 0xfc, 0xba, 0x3b, 0x08, 0xa5, 0x94, 0x3b, 0x2a, 0x41, 0xaf, 0x3b, 0x7b, 0x79, 0xe7, 0x3b, 0x6e, 0x26, 0x9d, 0x3b, 0x03, 0x87, 0xff, 0x3b, 0xf4, 0x35, 0xbd, 0x3b, 0x74, 0xf3, 0x5f, 0x3b, 0x92, 0xeb, 0xc5, 0x3b, 0x0f, 0xdf, 0x60, 0x3b, 0x3b, 0x95, 0xb3, 0x3b, 0x96, 0xc1, 0x9a, 0x3b, 0xb1, 0x60, 0xd1, 0x3b, 0xb2, 0xa0, 0xf3, 0x3b, 0x67, 0x79, 0xc4, 0x3b, 0xd6, 0xb7, 0xcf, 0x3b, 0xf1, 0x69, 0xb5, 0x3b, 0x30, 0x20, 0x9b, 0x3b, 0x3e, 0x3e, 0xfd, 0x3b, 0x88, 0x65, 0xd0, 0x3b, 0x1f, 0x6d, 0xa3, 0x3b, 0xa9, 0xad, 0xa7, 0x3b, 0xc8, 0x8e, 0xae, 0x3b, 0x75, 0x54, 0xe5, 0x3b, 0xed, 0xbf, 0xa7, 0x3b, 0x8c, 0x6d, 0xe5, 0x3b, 0x76, 0xaf, 0x12, 0x3c, 0x1f, 0x10, 0xac, 0x3b, 0x8c, 0xf0, 0x05, 0x3c, 0xad, 0xca, 0x4d, 0x3b, 0x0a, 0xd9, 0xb7, 0x3b, 0x93, 0x56, 0x80, 0x3b, 0x12, 0x00, 0x00, 0x00, 0x74, 0x66, 0x6c, 0x2e, 0x70, 0x73, 0x65, 0x75, 0x64, 0x6f, 0x5f, 0x71, 0x63, 0x6f, 0x6e, 0x73, 0x74, 0x37, 0x00, 0x00, 0x04, 0x00, 0x00, 0x00, 0x20, 0x00, 0x00, 0x00, 0x01, 0x00, 0x00, 0x00, 0x01, 0x00, 0x00, 0x00, 0x10, 0x00, 0x00, 0x00, 0xb2, 0xf2, 0xff, 0xff, 0x00, 0x00, 0x00, 0x01, 0x14, 0x00, 0x00, 0x00, 0xa4, 0x01, 0x00, 0x00, 0x09, 0x00, 0x00, 0x00, 0x00, 0x00, 0x00, 0x02, 0xb0, 0x01, 0x00, 0x00, 0x2c, 0xf2, 0xff, 0xff, 0x08, 0x00, 0x00, 0x00, 0x08, 0x01, 0x00, 0x00, 0x20, 0x00, 0x00, 0x00, 0x00, 0x00, 0x00, 0x00, 0x00, 0x00, 0x00, 0x00, 0x00, 0x00, 0x00, 0x00, 0x00, 0x00, 0x00, 0x00, 0x00, 0x00, 0x00, 0x00, 0x00, 0x00, 0x00, 0x00, 0x00, 0x00, 0x00, 0x00, 0x00, 0x00, 0x00, 0x00, 0x00, 0x00, 0x00, 0x00, 0x00, 0x00, 0x00, 0x00, 0x00, 0x00, 0x00, 0x00, 0x00, 0x00, 0x00, 0x00, 0x00, 0x00, 0x00, 0x00, 0x00, 0x00, 0x00, 0x00, 0x00, 0x00, 0x00, 0x00, 0x00, 0x00, 0x00, 0x00, 0x00, 0x00, 0x00, 0x00, 0x00, 0x00, 0x00, 0x00, 0x00, 0x00, 0x00, 0x00, 0x00, 0x00, 0x00, 0x00, 0x00, 0x00, 0x00, 0x00, 0x00, 0x00, 0x00, 0x00, 0x00, 0x00, 0x00, 0x00, 0x00, 0x00, 0x00, 0x00, 0x00, 0x00, 0x00, 0x00, 0x00, 0x00, 0x00, 0x00, 0x00, 0x00, 0x00, 0x00, 0x00, 0x00, 0x00, 0x00, 0x00, 0x00, 0x00, 0x00, 0x00, 0x00, 0x00, 0x00, 0x00, 0x00, 0x00, 0x00, 0x00, 0x00, 0x00, 0x00, 0x00, 0x00, 0x00, 0x00, 0x00, 0x00, 0x00, 0x00, 0x00, 0x00, 0x00, 0x00, 0x00, 0x00, 0x00, 0x00, 0x00, 0x00, 0x00, 0x00, 0x00, 0x00, 0x00, 0x00, 0x00, 0x00, 0x00, 0x00, 0x00, 0x00, 0x00, 0x00, 0x00, 0x00, 0x00, 0x00, 0x00, 0x00, 0x00, 0x00, 0x00, 0x00, 0x00, 0x00, 0x00, 0x00, 0x00, 0x00, 0x00, 0x00, 0x00, 0x00, 0x00, 0x00, 0x00, 0x00, 0x00, 0x00, 0x00, 0x00, 0x00, 0x00, 0x00, 0x00, 0x00, 0x00, 0x00, 0x00, 0x00, 0x00, 0x00, 0x00, 0x00, 0x00, 0x00, 0x00, 0x00, 0x00, 0x00, 0x00, 0x00, 0x00, 0x00, 0x00, 0x00, 0x00, 0x00, 0x00, 0x00, 0x00, 0x00, 0x00, 0x00, 0x00, 0x00, 0x00, 0x00, 0x00, 0x00, 0x00, 0x00, 0x00, 0x00, 0x00, 0x00, 0x00, 0x00, 0x00, 0x00, 0x00, 0x00, 0x00, 0x00, 0x00, 0x00, 0x00, 0x00, 0x00, 0x00, 0x00, 0x00, 0x00, 0x00, 0x00, 0x00, 0x00, 0x00, 0x00, 0x20, 0x00, 0x00, 0x00, 0x19, 0xff, 0xa1, 0x39, 0x8f, 0xc7, 0x80, 0x39, 0x4e, 0xd5, 0x97, 0x39, 0x35, 0x8a, 0xc8, 0x39, 0xf7, 0x25, 0x88, 0x39, 0xd6, 0x60, 0xdd, 0x39, 0x9f, 0xec, 0xa3, 0x39, 0x94, 0x05, 0x42, 0x39, 0x45, 0x78, 0xab, 0x39, 0xb3, 0xd1, 0x42, 0x39, 0x4a, 0x95, 0x9b, 0x39, 0x06, 0x13, 0x86, 0x39, 0x67, 0x65, 0xb5, 0x39, 0xa3, 0x11, 0xd3, 0x39, 0x92, 0x37, 0xaa, 0x39, 0x53, 0xf5, 0xb3, 0x39, 0x5c, 0x2b, 0x9d, 0x39, 0xfc, 0x64, 0x86, 0x39, 0x38, 0x66, 0xdb, 0x39, 0xcf, 0x8b, 0xb4, 0x39, 0xf0, 0x95, 0x8d, 0x39, 0x00, 0x45, 0x91, 0x39, 0xc3, 0x3a, 0x97, 0x39, 0x8f, 0xae, 0xc6, 0x39, 0xd3, 0x54, 0x91, 0x39, 0x4b, 0xc4, 0xc6, 0x39, 0x0a, 0x2a, 0xfe, 0x39, 0x74, 0x11, 0x95, 0x39, 0x55, 0x14, 0xe8, 0x39, 0x13, 0x4a, 0x32, 0x39, 0x30, 0x47, 0x9f, 0x39, 0xaa, 0x5f, 0x5e, 0x39, 0x12, 0x00, 0x00, 0x00, 0x74, 0x66, 0x6c, 0x2e, 0x70, 0x73, 0x65, 0x75, 0x64, 0x6f, 0x5f, 0x71, 0x63, 0x6f, 0x6e, 0x73, 0x74, 0x36, 0x00, 0x00, 0x01, 0x00, 0x00, 0x00, 0x20, 0x00, 0x00, 0x00, 0x00, 0x00, 0x16, 0x00, 0x1e, 0x00, 0x18, 0x00, 0x17, 0x00, 0x10, 0x00, 0x0c, 0x00, 0x08, 0x00, 0x00, 0x00, 0x00, 0x00, 0x00, 0x00, 0x07, 0x00, 0x16, 0x00, 0x00, 0x00, 0x00, 0x00, 0x00, 0x01, 0x28, 0x00, 0x00, 0x00, 0xc0, 0x01, 0x00, 0x00, 0x08, 0x00, 0x00, 0x00, 0x00, 0x00, 0x00, 0x09, 0xcc, 0x01, 0x00, 0x00, 0x00, 0x00, 0x12, 0x00, 0x10, 0x00, 0x00, 0x00, 0x00, 0x00, 0x0c, 0x00, 0x08, 0x00, 0x00, 0x00, 0x00, 0x00, 0x04, 0x00, 0x12, 0x00, 0x00, 0x00, 0x03, 0x00, 0x00, 0x00, 0x08, 0x00, 0x00, 0x00, 0x0c, 0x01, 0x00, 0x00, 0x20, 0x00, 0x00, 0x00, 0x00, 0x00, 0x00, 0x00, 0x00, 0x00, 0x00, 0x00, 0x00, 0x00, 0x00, 0x00, 0x00, 0x00, 0x00, 0x00, 0x00, 0x00, 0x00, 0x00, 0x00, 0x00, 0x00, 0x00, 0x00, 0x00, 0x00, 0x00, 0x00, 0x00, 0x00, 0x00, 0x00, 0x00, 0x00, 0x00, 0x00, 0x00, 0x00, 0x00, 0x00, 0x00, 0x00, 0x00, 0x00, 0x00, 0x00, 0x00, 0x00, 0x00, 0x00, 0x00, 0x00, 0x00, 0x00, 0x00, 0x00, 0x00, 0x00, 0x00, 0x00, 0x00, 0x00, 0x00, 0x00, 0x00, 0x00, 0x00, 0x00, 0x00, 0x00, 0x00, 0x00, 0x00, 0x00, 0x00, 0x00, 0x00, 0x00, 0x00, 0x00, 0x00, 0x00, 0x00, 0x00, 0x00, 0x00, 0x00, 0x00, 0x00, 0x00, 0x00, 0x00, 0x00, 0x00, 0x00, 0x00, 0x00, 0x00, 0x00, 0x00, 0x00, 0x00, 0x00, 0x00, 0x00, 0x00, 0x00, 0x00, 0x00, 0x00, 0x00, 0x00, 0x00, 0x00, 0x00, 0x00, 0x00, 0x00, 0x00, 0x00, 0x00, 0x00, 0x00, 0x00, 0x00, 0x00, 0x00, 0x00, 0x00, 0x00, 0x00, 0x00, 0x00, 0x00, 0x00, 0x00, 0x00, 0x00, 0x00, 0x00, 0x00, 0x00, 0x00, 0x00, 0x00, 0x00, 0x00, 0x00, 0x00, 0x00, 0x00, 0x00, 0x00, 0x00, 0x00, 0x00, 0x00, 0x00, 0x00, 0x00, 0x00, 0x00, 0x00, 0x00, 0x00, 0x00, 0x00, 0x00, 0x00, 0x00, 0x00, 0x00, 0x00, 0x00, 0x00, 0x00, 0x00, 0x00, 0x00, 0x00, 0x00, 0x00, 0x00, 0x00, 0x00, 0x00, 0x00, 0x00, 0x00, 0x00, 0x00, 0x00, 0x00, 0x00, 0x00, 0x00, 0x00, 0x00, 0x00, 0x00, 0x00, 0x00, 0x00, 0x00, 0x00, 0x00, 0x00, 0x00, 0x00, 0x00, 0x00, 0x00, 0x00, 0x00, 0x00, 0x00, 0x00, 0x00, 0x00, 0x00, 0x00, 0x00, 0x00, 0x00, 0x00, 0x00, 0x00, 0x00, 0x00, 0x00, 0x00, 0x00, 0x00, 0x00, 0x00, 0x00, 0x00, 0x00, 0x00, 0x00, 0x00, 0x00, 0x00, 0x00, 0x00, 0x00, 0x00, 0x00, 0x00, 0x00, 0x00, 0x00, 0x00, 0x00, 0x00, 0x00, 0x00, 0x00, 0x00, 0x20, 0x00, 0x00, 0x00, 0x93, 0x90, 0x0e, 0x3c, 0x72, 0xeb, 0x05, 0x3c, 0x5a, 0x3d, 0xa2, 0x3b, 0xbd, 0xd5, 0x92, 0x3b, 0x16, 0x7b, 0xaa, 0x3b, 0xf4, 0x7f, 0xa0, 0x3b, 0x87, 0x8f, 0xb6, 0x3b, 0x90, 0x6b, 0x93, 0x3b, 0xc8, 0x36, 0x98, 0x3b, 0x4e, 0xa9, 0xac, 0x3b, 0x8e, 0x7e, 0x9e, 0x3b, 0xfd, 0x93, 0xc4, 0x3b, 0x3e, 0xc7, 0x9f, 0x3b, 0x9f, 0x19, 0xb6, 0x3b, 0xd8, 0x4e, 0xb6, 0x3b, 0x67, 0x14, 0xc9, 0x3b, 0xc1, 0x3f, 0xa6, 0x3b, 0xa7, 0x26, 0x9f, 0x3b, 0xd0, 0xd1, 0xb3, 0x3b, 0x39, 0x01, 0x4a, 0x3b, 0xbc, 0xd6, 0x0b, 0x3c, 0xe6, 0x6d, 0x88, 0x3b, 0x73, 0x71, 0x80, 0x3b, 0xb7, 0x33, 0xcc, 0x3b, 0xcf, 0x58, 0x84, 0x3b, 0x04, 0x79, 0xa4, 0x3b, 0xe7, 0x12, 0xa1, 0x3b, 0xc1, 0x44, 0xbc, 0x3b, 0x81, 0x5c, 0x6f, 0x3b, 0x30, 0xdd, 0x8a, 0x3b, 0x1a, 0x63, 0x94, 0x3b, 0xc8, 0x45, 0x81, 0x3b, 0x12, 0x00, 0x00, 0x00, 0x74, 0x66, 0x6c, 0x2e, 0x70, 0x73, 0x65, 0x75, 0x64, 0x6f, 0x5f, 0x71, 0x63, 0x6f, 0x6e, 0x73, 0x74, 0x35, 0x00, 0x00, 0x04, 0x00, 0x00, 0x00, 0x01, 0x00, 0x00, 0x00, 0x03, 0x00, 0x00, 0x00, 0x03, 0x00, 0x00, 0x00, 0x20, 0x00, 0x00, 0x00, 0x92, 0xf6, 0xff, 0xff, 0x00, 0x00, 0x00, 0x01, 0x14, 0x00, 0x00, 0x00, 0xa4, 0x01, 0x00, 0x00, 0x07, 0x00, 0x00, 0x00, 0x00, 0x00, 0x00, 0x02, 0xb0, 0x01, 0x00, 0x00, 0x0c, 0xf6, 0xff, 0xff, 0x08, 0x00, 0x00, 0x00, 0x08, 0x01, 0x00, 0x00, 0x20, 0x00, 0x00, 0x00, 0x00, 0x00, 0x00, 0x00, 0x00, 0x00, 0x00, 0x00, 0x00, 0x00, 0x00, 0x00, 0x00, 0x00, 0x00, 0x00, 0x00, 0x00, 0x00, 0x00, 0x00, 0x00, 0x00, 0x00, 0x00, 0x00, 0x00, 0x00, 0x00, 0x00, 0x00, 0x00, 0x00, 0x00, 0x00, 0x00, 0x00, 0x00, 0x00, 0x00, 0x00, 0x00, 0x00, 0x00, 0x00, 0x00, 0x00, 0x00, 0x00, 0x00, 0x00, 0x00, 0x00, 0x00, 0x00, 0x00, 0x00, 0x00, 0x00, 0x00, 0x00, 0x00, 0x00, 0x00, 0x00, 0x00, 0x00, 0x00, 0x00, 0x00, 0x00, 0x00, 0x00, 0x00, 0x00, 0x00, 0x00, 0x00, 0x00, 0x00, 0x00, 0x00, 0x00, 0x00, 0x00, 0x00, 0x00, 0x00, 0x00, 0x00, 0x00, 0x00, 0x00, 0x00, 0x00, 0x00, 0x00, 0x00, 0x00, 0x00, 0x00, 0x00, 0x00, 0x00, 0x00, 0x00, 0x00, 0x00, 0x00, 0x00, 0x00, 0x00, 0x00, 0x00, 0x00, 0x00, 0x00, 0x00, 0x00, 0x00, 0x00, 0x00, 0x00, 0x00, 0x00, 0x00, 0x00, 0x00, 0x00, 0x00, 0x00, 0x00, 0x00, 0x00, 0x00, 0x00, 0x00, 0x00, 0x00, 0x00, 0x00, 0x00, 0x00, 0x00, 0x00, 0x00, 0x00, 0x00, 0x00, 0x00, 0x00, 0x00, 0x00, 0x00, 0x00, 0x00, 0x00, 0x00, 0x00, 0x00, 0x00, 0x00, 0x00, 0x00, 0x00, 0x00, 0x00, 0x00, 0x00, 0x00, 0x00, 0x00, 0x00, 0x00, 0x00, 0x00, 0x00, 0x00, 0x00, 0x00, 0x00, 0x00, 0x00, 0x00, 0x00, 0x00, 0x00, 0x00, 0x00, 0x00, 0x00, 0x00, 0x00, 0x00, 0x00, 0x00, 0x00, 0x00, 0x00, 0x00, 0x00, 0x00, 0x00, 0x00, 0x00, 0x00, 0x00, 0x00, 0x00, 0x00, 0x00, 0x00, 0x00, 0x00, 0x00, 0x00, 0x00, 0x00, 0x00, 0x00, 0x00, 0x00, 0x00, 0x00, 0x00, 0x00, 0x00, 0x00, 0x00, 0x00, 0x00, 0x00, 0x00, 0x00, 0x00, 0x00, 0x00, 0x00, 0x00, 0x00, 0x00, 0x00, 0x00, 0x00, 0x00, 0x00, 0x00, 0x00, 0x00, 0x00, 0x00, 0x00, 0x00, 0x00, 0x00, 0x00, 0x20, 0x00, 0x00, 0x00, 0x22, 0x1b, 0xf4, 0x39, 0xb6, 0x4d, 0xe5, 0x39, 0xab, 0xe5, 0x8a, 0x39, 0xe6, 0x6a, 0x7b, 0x39, 0xdd, 0xf3, 0x91, 0x39, 0x5a, 0x68, 0x89, 0x39, 0x5f, 0x4b, 0x9c, 0x39, 0x6f, 0x6b, 0x7c, 0x39, 0x5e, 0x50, 0x82, 0x39, 0xc4, 0xd1, 0x93, 0x39, 0xd2, 0xb0, 0x87, 0x39, 0x8a, 0x4b, 0xa8, 0x39, 0x38, 0xca, 0x88, 0x39, 0x6e, 0xe6, 0x9b, 0x39, 0xff, 0x13, 0x9c, 0x39, 0x25, 0x26, 0xac, 0x39, 0x65, 0x54, 0x8e, 0x39, 0xbc, 0x40, 0x88, 0x39, 0x9e, 0xf2, 0x99, 0x39, 0xe5, 0xf0, 0x2c, 0x39, 0x42, 0x70, 0xef, 0x39, 0xc0, 0x99, 0x69, 0x39, 0x26, 0xed, 0x5b, 0x39, 0x75, 0xd2, 0xae, 0x39, 0x4c, 0x9c, 0x62, 0x39, 0x15, 0xcf, 0x8c, 0x39, 0x29, 0xe6, 0x89, 0x39, 0x5d, 0x2e, 0xa1, 0x39, 0x3e, 0xec, 0x4c, 0x39, 0xf9, 0xc4, 0x6d, 0x39, 0x48, 0x13, 0x7e, 0x39, 0xb6, 0x58, 0x5d, 0x39, 0x12, 0x00, 0x00, 0x00, 0x74, 0x66, 0x6c, 0x2e, 0x70, 0x73, 0x65, 0x75, 0x64, 0x6f, 0x5f, 0x71, 0x63, 0x6f, 0x6e, 0x73, 0x74, 0x34, 0x00, 0x00, 0x01, 0x00, 0x00, 0x00, 0x20, 0x00, 0x00, 0x00, 0x62, 0xf8, 0xff, 0xff, 0x00, 0x00, 0x00, 0x01, 0x14, 0x00, 0x00, 0x00, 0x28, 0x03, 0x00, 0x00, 0x06, 0x00, 0x00, 0x00, 0x00, 0x00, 0x00, 0x09, 0x34, 0x03, 0x00, 0x00, 0xdc, 0xf7, 0xff, 0xff, 0x08, 0x00, 0x00, 0x00, 0x0c, 0x02, 0x00, 0x00, 0x40, 0x00, 0x00, 0x00, 0x00, 0x00, 0x00, 0x00, 0x00, 0x00, 0x00, 0x00, 0x00, 0x00, 0x00, 0x00, 0x00, 0x00, 0x00, 0x00, 0x00, 0x00, 0x00, 0x00, 0x00, 0x00, 0x00, 0x00, 0x00, 0x00, 0x00, 0x00, 0x00, 0x00, 0x00, 0x00, 0x00, 0x00, 0x00, 0x00, 0x00, 0x00, 0x00, 0x00, 0x00, 0x00, 0x00, 0x00, 0x00, 0x00, 0x00, 0x00, 0x00, 0x00, 0x00, 0x00, 0x00, 0x00, 0x00, 0x00, 0x00, 0x00, 0x00, 0x00, 0x00, 0x00, 0x00, 0x00, 0x00, 0x00, 0x00, 0x00, 0x00, 0x00, 0x00, 0x00, 0x00, 0x00, 0x00, 0x00, 0x00, 0x00, 0x00, 0x00, 0x00, 0x00, 0x00, 0x00, 0x00, 0x00, 0x00, 0x00, 0x00, 0x00, 0x00, 0x00, 0x00, 0x00, 0x00, 0x00, 0x00, 0x00, 0x00, 0x00, 0x00, 0x00, 0x00, 0x00, 0x00, 0x00, 0x00, 0x00, 0x00, 0x00, 0x00, 0x00, 0x00, 0x00, 0x00, 0x00, 0x00, 0x00, 0x00, 0x00, 0x00, 0x00, 0x00, 0x00, 0x00, 0x00, 0x00, 0x00, 0x00, 0x00, 0x00, 0x00, 0x00, 0x00, 0x00, 0x00, 0x00, 0x00, 0x00, 0x00, 0x00, 0x00, 0x00, 0x00, 0x00, 0x00, 0x00, 0x00, 0x00, 0x00, 0x00, 0x00, 0x00, 0x00, 0x00, 0x00, 0x00, 0x00, 0x00, 0x00, 0x00, 0x00, 0x00, 0x00, 0x00, 0x00, 0x00, 0x00, 0x00, 0x00, 0x00, 0x00, 0x00, 0x00, 0x00, 0x00, 0x00, 0x00, 0x00, 0x00, 0x00, 0x00, 0x00, 0x00, 0x00, 0x00, 0x00, 0x00, 0x00, 0x00, 0x00, 0x00, 0x00, 0x00, 0x00, 0x00, 0x00, 0x00, 0x00, 0x00, 0x00, 0x00, 0x00, 0x00, 0x00, 0x00, 0x00, 0x00, 0x00, 0x00, 0x00, 0x00, 0x00, 0x00, 0x00, 0x00, 0x00, 0x00, 0x00, 0x00, 0x00, 0x00, 0x00, 0x00, 0x00, 0x00, 0x00, 0x00, 0x00, 0x00, 0x00, 0x00, 0x00, 0x00, 0x00, 0x00, 0x00, 0x00, 0x00, 0x00, 0x00, 0x00, 0x00, 0x00, 0x00, 0x00, 0x00, 0x00, 0x00, 0x00, 0x00, 0x00, 0x00, 0x00, 0x00, 0x00, 0x00, 0x00, 0x00, 0x00, 0x00, 0x00, 0x00, 0x00, 0x00, 0x00, 0x00, 0x00, 0x00, 0x00, 0x00, 0x00, 0x00, 0x00, 0x00, 0x00, 0x00, 0x00, 0x00, 0x00, 0x00, 0x00, 0x00, 0x00, 0x00, 0x00, 0x00, 0x00, 0x00, 0x00, 0x00, 0x00, 0x00, 0x00, 0x00, 0x00, 0x00, 0x00, 0x00, 0x00, 0x00, 0x00, 0x00, 0x00, 0x00, 0x00, 0x00, 0x00, 0x00, 0x00, 0x00, 0x00, 0x00, 0x00, 0x00, 0x00, 0x00, 0x00, 0x00, 0x00, 0x00, 0x00, 0x00, 0x00, 0x00, 0x00, 0x00, 0x00, 0x00, 0x00, 0x00, 0x00, 0x00, 0x00, 0x00, 0x00, 0x00, 0x00, 0x00, 0x00, 0x00, 0x00, 0x00, 0x00, 0x00, 0x00, 0x00, 0x00, 0x00, 0x00, 0x00, 0x00, 0x00, 0x00, 0x00, 0x00, 0x00, 0x00, 0x00, 0x00, 0x00, 0x00, 0x00, 0x00, 0x00, 0x00, 0x00, 0x00, 0x00, 0x00, 0x00, 0x00, 0x00, 0x00, 0x00, 0x00, 0x00, 0x00, 0x00, 0x00, 0x00, 0x00, 0x00, 0x00, 0x00, 0x00, 0x00, 0x00, 0x00, 0x00, 0x00, 0x00, 0x00, 0x00, 0x00, 0x00, 0x00, 0x00, 0x00, 0x00, 0x00, 0x00, 0x00, 0x00, 0x00, 0x00, 0x00, 0x00, 0x00, 0x00, 0x00, 0x00, 0x00, 0x00, 0x00, 0x00, 0x00, 0x00, 0x00, 0x00, 0x00, 0x00, 0x00, 0x00, 0x00, 0x00, 0x00, 0x00, 0x00, 0x00, 0x00, 0x00, 0x00, 0x00, 0x00, 0x00, 0x00, 0x00, 0x00, 0x00, 0x00, 0x00, 0x00, 0x00, 0x00, 0x00, 0x00, 0x00, 0x00, 0x00, 0x00, 0x00, 0x00, 0x00, 0x00, 0x00, 0x00, 0x00, 0x00, 0x00, 0x00, 0x00, 0x00, 0x00, 0x00, 0x00, 0x00, 0x00, 0x00, 0x00, 0x00, 0x00, 0x00, 0x00, 0x00, 0x00, 0x00, 0x00, 0x00, 0x00, 0x00, 0x00, 0x00, 0x00, 0x00, 0x00, 0x00, 0x00, 0x00, 0x00, 0x00, 0x00, 0x00, 0x00, 0x00, 0x00, 0x00, 0x00, 0x00, 0x00, 0x00, 0x00, 0x00, 0x00, 0x00, 0x00, 0x00, 0x00, 0x00, 0x00, 0x00, 0x00, 0x00, 0x00, 0x00, 0x00, 0x40, 0x00, 0x00, 0x00, 0x8e, 0x19, 0xc5, 0x3b, 0x1c, 0xf6, 0x88, 0x3b, 0xea, 0x60, 0xc1, 0x3b, 0x48, 0xad, 0xe1, 0x3b, 0x78, 0x09, 0x6e, 0x3b, 0x1e, 0xab, 0xb5, 0x3b, 0xd9, 0x7c, 0xde, 0x3b, 0x57, 0x03, 0xe8, 0x3b, 0xee, 0x5a, 0xfd, 0x3b, 0xcd, 0x62, 0xfc, 0x3b, 0xfe, 0x97, 0x99, 0x3b, 0x7e, 0x0a, 0xe0, 0x3b, 0x80, 0x71, 0xeb, 0x3b, 0x34, 0x28, 0xb4, 0x3b, 0x94, 0xe0, 0x0c, 0x3c, 0x14, 0x15, 0xe1, 0x3b, 0x68, 0x7f, 0xe8, 0x3b, 0x41, 0xce, 0xde, 0x3b, 0x51, 0x70, 0xaf, 0x3b, 0x3b, 0x35, 0x70, 0x3b, 0x13, 0xf5, 0x83, 0x3b, 0x6b, 0xf6, 0xa7, 0x3b, 0xd7, 0xdf, 0xd4, 0x3b, 0x6c, 0x7c, 0xac, 0x3b, 0x01, 0x6d, 0x1f, 0x3c, 0x2e, 0x3e, 0xd4, 0x3b, 0x83, 0x11, 0x8c, 0x3b, 0xa9, 0x23, 0xc9, 0x3b, 0x92, 0xa2, 0x93, 0x3b, 0x19, 0xc4, 0xaf, 0x3b, 0x8d, 0xf0, 0xda, 0x3b, 0x37, 0x16, 0xb0, 0x3b, 0xa9, 0x75, 0xe2, 0x3b, 0x58, 0xd4, 0xb2, 0x3b, 0xf2, 0x8a, 0x90, 0x3b, 0x5e, 0x2f, 0x8c, 0x3b, 0xbb, 0x60, 0xca, 0x3b, 0xde, 0x38, 0x90, 0x3b, 0x23, 0xa7, 0x77, 0x3b, 0x04, 0x64, 0xca, 0x3b, 0xcd, 0x29, 0x90, 0x3b, 0x75, 0xfa, 0xe3, 0x3b, 0xb1, 0xbf, 0x8b, 0x3b, 0xcd, 0x28, 0xaa, 0x3b, 0xc1, 0x58, 0xc0, 0x3b, 0x5c, 0x43, 0xbd, 0x3b, 0x3e, 0xaf, 0xad, 0x3b, 0xa8, 0x5c, 0xf5, 0x3b, 0xb6, 0x4d, 0xb0, 0x3b, 0x56, 0xc6, 0xce, 0x3b, 0x81, 0x1f, 0xa2, 0x3b, 0x80, 0xa8, 0xc4, 0x3b, 0x16, 0x88, 0xbb, 0x3b, 0x14, 0x3e, 0x9e, 0x3b, 0x0c, 0xbb, 0x0c, 0x3c, 0x7d, 0xb6, 0xb1, 0x3b, 0xd3, 0x66, 0xc0, 0x3b, 0x0c, 0xa9, 0x79, 0x3b, 0x2d, 0x62, 0x98, 0x3b, 0x42, 0x6c, 0x03, 0x3c, 0x27, 0x22, 0xd5, 0x3b, 0x15, 0xcd, 0xca, 0x3b, 0x43, 0x46, 0xbd, 0x3b, 0x09, 0x32, 0xb7, 0x3b, 0x12, 0x00, 0x00, 0x00, 0x74, 0x66, 0x6c, 0x2e, 0x70, 0x73, 0x65, 0x75, 0x64, 0x6f, 0x5f, 0x71, 0x63, 0x6f, 0x6e, 0x73, 0x74, 0x33, 0x00, 0x00, 0x04, 0x00, 0x00, 0x00, 0x40, 0x00, 0x00, 0x00, 0x01, 0x00, 0x00, 0x00, 0x01, 0x00, 0x00, 0x00, 0x20, 0x00, 0x00, 0x00, 0xc2, 0xfb, 0xff, 0xff, 0x00, 0x00, 0x00, 0x01, 0x14, 0x00, 0x00, 0x00, 0x24, 0x03, 0x00, 0x00, 0x05, 0x00, 0x00, 0x00, 0x00, 0x00, 0x00, 0x02, 0x30, 0x03, 0x00, 0x00, 0x3c, 0xfb, 0xff, 0xff, 0x08, 0x00, 0x00, 0x00, 0x08, 0x02, 0x00, 0x00, 0x40, 0x00, 0x00, 0x00, 0x00, 0x00, 0x00, 0x00, 0x00, 0x00, 0x00, 0x00, 0x00, 0x00, 0x00, 0x00, 0x00, 0x00, 0x00, 0x00, 0x00, 0x00, 0x00, 0x00, 0x00, 0x00, 0x00, 0x00, 0x00, 0x00, 0x00, 0x00, 0x00, 0x00, 0x00, 0x00, 0x00, 0x00, 0x00, 0x00, 0x00, 0x00, 0x00, 0x00, 0x00, 0x00, 0x00, 0x00, 0x00, 0x00, 0x00, 0x00, 0x00, 0x00, 0x00, 0x00, 0x00, 0x00, 0x00, 0x00, 0x00, 0x00, 0x00, 0x00, 0x00, 0x00, 0x00, 0x00, 0x00, 0x00, 0x00, 0x00, 0x00, 0x00, 0x00, 0x00, 0x00, 0x00, 0x00, 0x00, 0x00, 0x00, 0x00, 0x00, 0x00, 0x00, 0x00, 0x00, 0x00, 0x00, 0x00, 0x00, 0x00, 0x00, 0x00, 0x00, 0x00, 0x00, 0x00, 0x00, 0x00, 0x00, 0x00, 0x00, 0x00, 0x00, 0x00, 0x00, 0x00, 0x00, 0x00, 0x00, 0x00, 0x00, 0x00, 0x00, 0x00, 0x00, 0x00, 0x00, 0x00, 0x00, 0x00, 0x00, 0x00, 0x00, 0x00, 0x00, 0x00, 0x00, 0x00, 0x00, 0x00, 0x00, 0x00, 0x00, 0x00, 0x00, 0x00, 0x00, 0x00, 0x00, 0x00, 0x00, 0x00, 0x00, 0x00, 0x00, 0x00, 0x00, 0x00, 0x00, 0x00, 0x00, 0x00, 0x00, 0x00, 0x00, 0x00, 0x00, 0x00, 0x00, 0x00, 0x00, 0x00, 0x00, 0x00, 0x00, 0x00, 0x00, 0x00, 0x00, 0x00, 0x00, 0x00, 0x00, 0x00, 0x00, 0x00, 0x00, 0x00, 0x00, 0x00, 0x00, 0x00, 0x00, 0x00, 0x00, 0x00, 0x00, 0x00, 0x00, 0x00, 0x00, 0x00, 0x00, 0x00, 0x00, 0x00, 0x00, 0x00, 0x00, 0x00, 0x00, 0x00, 0x00, 0x00, 0x00, 0x00, 0x00, 0x00, 0x00, 0x00, 0x00, 0x00, 0x00, 0x00, 0x00, 0x00, 0x00, 0x00, 0x00, 0x00, 0x00, 0x00, 0x00, 0x00, 0x00, 0x00, 0x00, 0x00, 0x00, 0x00, 0x00, 0x00, 0x00, 0x00, 0x00, 0x00, 0x00, 0x00, 0x00, 0x00, 0x00, 0x00, 0x00, 0x00, 0x00, 0x00, 0x00, 0x00, 0x00, 0x00, 0x00, 0x00, 0x00, 0x00, 0x00, 0x00, 0x00, 0x00, 0x00, 0x00, 0x00, 0x00, 0x00, 0x00, 0x00, 0x00, 0x00, 0x00, 0x00, 0x00, 0x00, 0x00, 0x00, 0x00, 0x00, 0x00, 0x00, 0x00, 0x00, 0x00, 0x00, 0x00, 0x00, 0x00, 0x00, 0x00, 0x00, 0x00, 0x00, 0x00, 0x00, 0x00, 0x00, 0x00, 0x00, 0x00, 0x00, 0x00, 0x00, 0x00, 0x00, 0x00, 0x00, 0x00, 0x00, 0x00, 0x00, 0x00, 0x00, 0x00, 0x00, 0x00, 0x00, 0x00, 0x00, 0x00, 0x00, 0x00, 0x00, 0x00, 0x00, 0x00, 0x00, 0x00, 0x00, 0x00, 0x00, 0x00, 0x00, 0x00, 0x00, 0x00, 0x00, 0x00, 0x00, 0x00, 0x00, 0x00, 0x00, 0x00, 0x00, 0x00, 0x00, 0x00, 0x00, 0x00, 0x00, 0x00, 0x00, 0x00, 0x00, 0x00, 0x00, 0x00, 0x00, 0x00, 0x00, 0x00, 0x00, 0x00, 0x00, 0x00, 0x00, 0x00, 0x00, 0x00, 0x00, 0x00, 0x00, 0x00, 0x00, 0x00, 0x00, 0x00, 0x00, 0x00, 0x00, 0x00, 0x00, 0x00, 0x00, 0x00, 0x00, 0x00, 0x00, 0x00, 0x00, 0x00, 0x00, 0x00, 0x00, 0x00, 0x00, 0x00, 0x00, 0x00, 0x00, 0x00, 0x00, 0x00, 0x00, 0x00, 0x00, 0x00, 0x00, 0x00, 0x00, 0x00, 0x00, 0x00, 0x00, 0x00, 0x00, 0x00, 0x00, 0x00, 0x00, 0x00, 0x00, 0x00, 0x00, 0x00, 0x00, 0x00, 0x00, 0x00, 0x00, 0x00, 0x00, 0x00, 0x00, 0x00, 0x00, 0x00, 0x00, 0x00, 0x00, 0x00, 0x00, 0x00, 0x00, 0x00, 0x00, 0x00, 0x00, 0x00, 0x00, 0x00, 0x00, 0x00, 0x00, 0x00, 0x00, 0x00, 0x00, 0x00, 0x00, 0x00, 0x00, 0x00, 0x00, 0x00, 0x00, 0x00, 0x00, 0x00, 0x00, 0x00, 0x00, 0x00, 0x00, 0x00, 0x00, 0x00, 0x00, 0x00, 0x00, 0x00, 0x00, 0x00, 0x00, 0x00, 0x00, 0x00, 0x00, 0x00, 0x00, 0x00, 0x00, 0x00, 0x00, 0x00, 0x00, 0x00, 0x00, 0x00, 0x00, 0x00, 0x00, 0x00, 0x00, 0x00, 0x00, 0x00, 0x00, 0x00, 0x00, 0x00, 0x00, 0x00, 0x00, 0x00, 0x00, 0x40, 0x00, 0x00, 0x00, 0x27, 0xcd, 0x22, 0x39, 0x82, 0x41, 0xe2, 0x38, 0x49, 0xba, 0x1f, 0x39, 0xd4, 0x67, 0x3a, 0x39, 0x65, 0x9d, 0xc4, 0x38, 0x27, 0x0e, 0x16, 0x39, 0x77, 0xc5, 0x37, 0x39, 0x9f, 0xa3, 0x3f, 0x39, 0x76, 0x44, 0x51, 0x39, 0x83, 0x77, 0x50, 0x39, 0x66, 0xbb, 0xfd, 0x38, 0xea, 0x0d, 0x39, 0x39, 0xf8, 0x78, 0x42, 0x39, 0x91, 0xce, 0x14, 0x39, 0x8e, 0xb9, 0x68, 0x39, 0x1c, 0xea, 0x39, 0x39, 0x19, 0x0a, 0x40, 0x39, 0xb5, 0x08, 0x38, 0x39, 0xdf, 0xe8, 0x10, 0x39, 0x72, 0x68, 0xc6, 0x38, 0x47, 0xfd, 0xd9, 0x38, 0x05, 0xbc, 0x0a, 0x39, 0xb6, 0xd4, 0x2f, 0x39, 0x84, 0x78, 0x0e, 0x39, 0xe7, 0xae, 0x83, 0x39, 0x2f, 0x4f, 0x2f, 0x39, 0x7d, 0x63, 0xe7, 0x38, 0x4e, 0x23, 0x26, 0x39, 0x73, 0xe3, 0xf3, 0x38, 0x13, 0x2e, 0x11, 0x39, 0x3a, 0xd7, 0x34, 0x39, 0xe6, 0x71, 0x11, 0x39, 0x56, 0x0d, 0x3b, 0x39, 0xd9, 0xb5, 0x13, 0x39, 0xb5, 0xc7, 0xee, 0x38, 0xcf, 0x94, 0xe7, 0x38, 0x33, 0x29, 0x27, 0x39, 0x1e, 0x40, 0xee, 0x38, 0xb2, 0x8e, 0xcc, 0x38, 0xea, 0x2b, 0x27, 0x39, 0x3a, 0x27, 0xee, 0x38, 0x7a, 0x4e, 0x3c, 0x39, 0x53, 0xdc, 0xe6, 0x38, 0x8a, 0x8c, 0x0c, 0x39, 0x18, 0xe0, 0x1e, 0x39, 0x11, 0x54, 0x1c, 0x39, 0xf1, 0x75, 0x0f, 0x39, 0x46, 0xaa, 0x4a, 0x39, 0xbd, 0x9f, 0x11, 0x39, 0xef, 0xca, 0x2a, 0x39, 0x3f, 0xe9, 0x05, 0x39, 0xc5, 0x6f, 0x22, 0x39, 0xee, 0xe5, 0x1a, 0x39, 0xb1, 0xb4, 0x02, 0x39, 0x8e, 0x7b, 0x68, 0x39, 0xbc, 0xc9, 0x12, 0x39, 0xb7, 0xeb, 0x1e, 0x39, 0x2d, 0x37, 0xce, 0x38, 0x97, 0xbb, 0xfb, 0x38, 0x43, 0x1b, 0x59, 0x39, 0x7c, 0x0b, 0x30, 0x39, 0xb3, 0x82, 0x27, 0x39, 0x76, 0x56, 0x1c, 0x39, 0x0b, 0x51, 0x17, 0x39, 0x12, 0x00, 0x00, 0x00, 0x74, 0x66, 0x6c, 0x2e, 0x70, 0x73, 0x65, 0x75, 0x64, 0x6f, 0x5f, 0x71, 0x63, 0x6f, 0x6e, 0x73, 0x74, 0x32, 0x00, 0x00, 0x01, 0x00, 0x00, 0x00, 0x40, 0x00, 0x00, 0x00, 0x12, 0xff, 0xff, 0xff, 0x00, 0x00, 0x00, 0x01, 0x14, 0x00, 0x00, 0x00, 0x48, 0x00, 0x00, 0x00, 0x04, 0x00, 0x00, 0x00, 0x00, 0x00, 0x00, 0x09, 0x54, 0x00, 0x00, 0x00, 0x8c, 0xfe, 0xff, 0xff, 0x08, 0x00, 0x00, 0x00, 0x20, 0x00, 0x00, 0x00, 0x03, 0x00, 0x00, 0x00, 0x00, 0x00, 0x00, 0x00, 0x00, 0x00, 0x00, 0x00, 0x00, 0x00, 0x00, 0x00, 0x00, 0x00, 0x00, 0x00, 0x00, 0x00, 0x00, 0x00, 0x00, 0x00, 0x00, 0x00, 0x03, 0x00, 0x00, 0x00, 0xfc, 0xb6, 0x50, 0x3b, 0x47, 0xf1, 0x6f, 0x3b, 0x81, 0xb1, 0x60, 0x3b, 0x12, 0x00, 0x00, 0x00, 0x74, 0x66, 0x6c, 0x2e, 0x70, 0x73, 0x65, 0x75, 0x64, 0x6f, 0x5f, 0x71, 0x63, 0x6f, 0x6e, 0x73, 0x74, 0x31, 0x00, 0x00, 0x02, 0x00, 0x00, 0x00, 0x03, 0x00, 0x00, 0x00, 0x40, 0x00, 0x00, 0x00, 0x8a, 0xff, 0xff, 0xff, 0x00, 0x00, 0x00, 0x01, 0x14, 0x00, 0x00, 0x00, 0x48, 0x00, 0x00, 0x00, 0x03, 0x00, 0x00, 0x00, 0x00, 0x00, 0x00, 0x02, 0x54, 0x00, 0x00, 0x00, 0x04, 0xff, 0xff, 0xff, 0x08, 0x00, 0x00, 0x00, 0x20, 0x00, 0x00, 0x00, 0x03, 0x00, 0x00, 0x00, 0x00, 0x00, 0x00, 0x00, 0x00, 0x00, 0x00, 0x00, 0x00, 0x00, 0x00, 0x00, 0x00, 0x00, 0x00, 0x00, 0x00, 0x00, 0x00, 0x00, 0x00, 0x00, 0x00, 0x00, 0x03, 0x00, 0x00, 0x00, 0x55, 0xa4, 0xc4, 0x37, 0x35, 0x10, 0xe2, 0x37, 0x3e, 0xb2, 0xd3, 0x37, 0x11, 0x00, 0x00, 0x00, 0x74, 0x66, 0x6c, 0x2e, 0x70, 0x73, 0x65, 0x75, 0x64, 0x6f, 0x5f, 0x71, 0x63, 0x6f, 0x6e, 0x73, 0x74, 0x00, 0x00, 0x00, 0x01, 0x00, 0x00, 0x00, 0x03, 0x00, 0x00, 0x00, 0x00, 0x00, 0x16, 0x00, 0x1c, 0x00, 0x18, 0x00, 0x17, 0x00, 0x10, 0x00, 0x0c, 0x00, 0x08, 0x00, 0x00, 0x00, 0x00, 0x00, 0x00, 0x00, 0x07, 0x00, 0x16, 0x00, 0x00, 0x00, 0x00, 0x00, 0x00, 0x01, 0x18, 0x00, 0x00, 0x00, 0x18, 0x00, 0x00, 0x00, 0x02, 0x00, 0x00, 0x00, 0x00, 0x00, 0x00, 0x02, 0x20, 0x00, 0x00, 0x00, 0x04, 0x00, 0x04, 0x00, 0x04, 0x00, 0x00, 0x00, 0x0e, 0x00, 0x00, 0x00, 0x61, 0x72, 0x69, 0x74, 0x68, 0x2e, 0x63, 0x6f, 0x6e, 0x73, 0x74, 0x61, 0x6e, 0x74, 0x00, 0x00, 0x01, 0x00, 0x00, 0x00, 0x02, 0x00, 0x00, 0x00, 0x00, 0x00, 0x16, 0x00, 0x20, 0x00, 0x1c, 0x00, 0x1b, 0x00, 0x14, 0x00, 0x10, 0x00, 0x0c, 0x00, 0x00, 0x00, 0x00, 0x00, 0x08, 0x00, 0x07, 0x00, 0x16, 0x00, 0x00, 0x00, 0x00, 0x00, 0x00, 0x01, 0x18, 0x00, 0x00, 0x00, 0x34, 0x00, 0x00, 0x00, 0x50, 0x00, 0x00, 0x00, 0x01, 0x00, 0x00, 0x00, 0x00, 0x00, 0x00, 0x09, 0x68, 0x00, 0x00, 0x00, 0x04, 0x00, 0x00, 0x00, 0xff, 0xff, 0xff, 0xff, 0x40, 0x00, 0x00, 0x00, 0x3f, 0x00, 0x00, 0x00, 0x01, 0x00, 0x00, 0x00, 0x0c, 0x00, 0x0c, 0x00, 0x00, 0x00, 0x00, 0x00, 0x08, 0x00, 0x04, 0x00, 0x0c, 0x00, 0x00, 0x00, 0x08, 0x00, 0x00, 0x00, 0x10, 0x00, 0x00, 0x00, 0x01, 0x00, 0x00, 0x00, 0x7f, 0x00, 0x00, 0x00, 0x00, 0x00, 0x00, 0x00, 0x01, 0x00, 0x00, 0x00, 0xa1, 0xa0, 0xa0, 0x3e, 0x1d, 0x00, 0x00, 0x00, 0x73, 0x65, 0x72, 0x76, 0x69, 0x6e, 0x67, 0x5f, 0x64, 0x65, 0x66, 0x61, 0x75, 0x6c, 0x74, 0x5f, 0x69, 0x6e, 0x70, 0x75, 0x74, 0x5f, 0x6c, 0x61, 0x79, 0x65, 0x72, 0x3a, 0x30, 0x00, 0x00, 0x00, 0x04, 0x00, 0x00, 0x00, 0x01, 0x00, 0x00, 0x00, 0x40, 0x00, 0x00, 0x00, 0x3f, 0x00, 0x00, 0x00, 0x01, 0x00, 0x00, 0x00, 0x06, 0x00, 0x00, 0x00, 0x74, 0x00, 0x00, 0x00, 0x54, 0x00, 0x00, 0x00, 0x40, 0x00, 0x00, 0x00, 0x2c, 0x00, 0x00, 0x00, 0x18, 0x00, 0x00, 0x00, 0x04, 0x00, 0x00, 0x00, 0xb0, 0xff, 0xff, 0xff, 0x19, 0x00, 0x00, 0x00, 0x02, 0x00, 0x00, 0x00, 0x00, 0x00, 0x00, 0x19, 0xc0, 0xff, 0xff, 0xff, 0x09, 0x00, 0x00, 0x00, 0x04, 0x00, 0x00, 0x00, 0x00, 0x00, 0x00, 0x09, 0xd0, 0xff, 0xff, 0xff, 0x28, 0x00, 0x00, 0x00, 0x02, 0x00, 0x00, 0x00, 0x00, 0x00, 0x00, 0x28, 0xe0, 0xff, 0xff, 0xff, 0x04, 0x00, 0x00, 0x00, 0x03, 0x00, 0x00, 0x00, 0x00, 0x00, 0x00, 0x04, 0xf0, 0xff, 0xff, 0xff, 0x11, 0x00, 0x00, 0x00, 0x02, 0x00, 0x00, 0x00, 0x00, 0x00, 0x00, 0x11, 0x0c, 0x00, 0x10, 0x00, 0x0f, 0x00, 0x00, 0x00, 0x08, 0x00, 0x04, 0x00, 0x0c, 0x00, 0x00, 0x00, 0x03, 0x00, 0x00, 0x00, 0x03, 0x00, 0x00, 0x00, 0x00, 0x00, 0x00, 0x03
};

const unsigned int g_model_len = 13400;
