
#include <cstdint>

// TFLite Model Data
// Length: 13400 bytes
alignas(16) const unsigned char g_model[] = {
    0x20, 0x00, 0x00, 0x00, 0x54, 0x46, 0x4c, 0x33, 0x00, 0x00, 0x00, 0x00, 0x14, 0x00, 0x20, 0x00, 0x1c, 0x00, 0x18, 0x00, 0x14, 0x00, 0x10, 0x00, 0x0c, 0x00, 0x00, 0x00, 0x08, 0x00, 0x04, 0x00, 0x14, 0x00, 0x00, 0x00, 0x1c, 0x00, 0x00, 0x00, 0x94, 0x00, 0x00, 0x00, 0xec, 0x00, 0x00, 0x00, 0x40, 0x12, 0x00, 0x00, 0x50, 0x12, 0x00, 0x00, 0x98, 0x33, 0x00, 0x00, 0x03, 0x00, 0x00, 0x00, 0x01, 0x00, 0x00, 0x00, 0x10, 0x00, 0x00, 0x00, 0x00, 0x00, 0x0a, 0x00, 0x10, 0x00, 0x0c, 0x00, 0x08, 0x00, 0x04, 0x00, 0x0a, 0x00, 0x00, 0x00, 0x0c, 0x00, 0x00, 0x00, 0x1c, 0x00, 0x00, 0x00, 0x3c, 0x00, 0x00, 0x00, 0x0f, 0x00, 0x00, 0x00, 0x73, 0x65, 0x72, 0x76, 0x69, 0x6e, 0x67, 0x5f, 0x64, 0x65, 0x66, 0x61, 0x75, 0x6c, 0x74, 0x00, 0x01, 0x00, 0x00, 0x00, 0x04, 0x00, 0x00, 0x00, 0x94, 0xff, 0xff, 0xff, 0x17, 0x00, 0x00, 0x00, 0x04, 0x00, 0x00, 0x00, 0x08, 0x00, 0x00, 0x00, 0x6f, 0x75, 0x74, 0x70, 0x75, 0x74, 0x5f, 0x30, 0x00, 0x00, 0x00, 0x00, 0x01, 0x00, 0x00, 0x00, 0x04, 0x00, 0x00, 0x00, 0x9e, 0xed, 0xff, 0xff, 0x04, 0x00, 0x00, 0x00, 0x0b, 0x00, 0x00, 0x00, 0x69, 0x6e, 0x70, 0x75, 0x74, 0x5f, 0x6c, 0x61, 0x79, 0x65, 0x72, 0x00, 0x02, 0x00, 0x00, 0x00, 0x34, 0x00, 0x00, 0x00, 0x04, 0x00, 0x00, 0x00, 0xdc, 0xff, 0xff, 0xff, 0x1a, 0x00, 0x00, 0x00, 0x04, 0x00, 0x00, 0x00, 0x13, 0x00, 0x00, 0x00, 0x43, 0x4f, 0x4e, 0x56, 0x45, 0x52, 0x53, 0x49, 0x4f, 0x4e, 0x5f, 0x4d, 0x45, 0x54, 0x41, 0x44, 0x41, 0x54, 0x41, 0x00, 0x08, 0x00, 0x0c, 0x00, 0x08, 0x00, 0x04, 0x00, 0x08, 0x00, 0x00, 0x00, 0x19, 0x00, 0x00, 0x00, 0x04, 0x00, 0x00, 0x00, 0x13, 0x00, 0x00, 0x00, 0x6d, 0x69, 0x6e, 0x5f, 0x72, 0x75, 0x6e, 0x74, 0x69, 0x6d, 0x65, 0x5f, 0x76, 0x65, 0x72, 0x73, 0x69, 0x6f, 0x6e, 0x00, 0x1b, 0x00, 0x00, 0x00, 0x50, 0x11, 0x00, 0x00, 0x48, 0x11, 0x00, 0x00, 0x30, 0x11, 0x00, 0x00, 0x14, 0x11, 0x00, 0x00, 0x44, 0x10, 0x00, 0x00, 0x34, 0x0f, 0x00, 0x00, 0x24, 0x07, 0x00, 0x00, 0x94, 0x06, 0x00, 0x00, 0x64, 0x05, 0x00, 0x00, 0xd4, 0x04, 0x00, 0x00, 0xc4, 0x02, 0x00, 0x00, 0x74, 0x02, 0x00, 0x00, 0xd4, 0x01, 0x00, 0x00, 0x84, 0x01, 0x00, 0x00, 0xe4, 0x00, 0x00, 0x00, 0xdc, 0x00, 0x00, 0x00, 0xd4, 0x00, 0x00, 0x00, 0xcc, 0x00, 0x00, 0x00, 0xc4, 0x00, 0x00, 0x00, 0xbc, 0x00, 0x00, 0x00, 0xb4, 0x00, 0x00, 0x00, 0xac, 0x00, 0x00, 0x00, 0xa4, 0x00, 0x00, 0x00, 0x9c, 0x00, 0x00, 0x00, 0x94, 0x00, 0x00, 0x00, 0x74, 0x00, 0x00, 0x00, 0x04, 0x00, 0x00, 0x00, 0x82, 0xee, 0xff, 0xff, 0x04, 0x00, 0x00, 0x00, 0x60, 0x00, 0x00, 0x00, 0x0c, 0x00, 0x00, 0x00, 0x08, 0x00, 0x0e, 0x00, 0x08, 0x00, 0x04, 0x00, 0x08, 0x00, 0x00, 0x00, 0x10, 0x00, 0x00, 0x00, 0x28, 0x00, 0x00, 0x00, 0x00, 0x00, 0x06, 0x00, 0x08, 0x00, 0x04, 0x00, 0x06, 0x00, 0x00, 0x00, 0x04, 0x00, 0x00, 0x00, 0x01, 0x00, 0x00, 0x00, 0xeb, 0x03, 0x00, 0x00, 0x0c, 0x00, 0x18, 0x00, 0x14, 0x00, 0x10, 0x00, 0x0c, 0x00, 0x04, 0x00, 0x0c, 0x00, 0x00, 0x00, 0xfb, 0xa5, 0x61, 0xb7, 0x49, 0x12, 0x68, 0xfe, 0x02, 0x00, 0x00, 0x00, 0x02, 0x00, 0x00, 0x00, 0x04, 0x00, 0x00, 0x00, 0x06, 0x00, 0x00, 0x00, 0x32, 0x2e, 0x32, 0x30, 0x2e, 0x30, 0x00, 0x00, 0xee, 0xee, 0xff, 0xff, 0x04, 0x00, 0x00, 0x00, 0x10, 0x00, 0x00, 0x00, 0x31, 0x2e, 0x31, 0x34, 0x2e, 0x30, 0x00, 0x00, 0x00, 0x00, 0x00, 0x00, 0x00, 0x00, 0x00, 0x00, 0x14, 0xcf, 0xff, 0xff, 0x18, 0xcf, 0xff, 0xff, 0x1c, 0xcf, 0xff, 0xff, 0x20, 0xcf, 0xff, 0xff, 0x24, 0xcf, 0xff, 0xff, 0x28, 0xcf, 0xff, 0xff, 0x2c, 0xcf, 0xff, 0xff, 0x30, 0xcf, 0xff, 0xff, 0x34, 0xcf, 0xff, 0xff, 0x38, 0xcf, 0xff, 0xff, 0x32, 0xef, 0xff, 0xff, 0x04, 0x00, 0x00, 0x00, 0x90, 0x00, 0x00, 0x00, 0x32, 0xc4, 0x6a, 0x1c, 0x7f, 0x2b, 0xf8, 0xbd, 0xa2, 0x05, 0x4a, 0x6c, 0xdf, 0x81, 0x22, 0xdc, 0xf3, 0xd8, 0x2c, 0x3d, 0x4e, 0x38, 0x81, 0x9b, 0xa1, 0x07, 0x39, 0xf7, 0x81, 0x84, 0x62, 0x31, 0x49, 0xbf, 0x02, 0x3f, 0x3c, 0x93, 0x39, 0x38, 0x7f, 0xd5, 0xc7, 0x39, 0xe0, 0x46, 0x21, 0x5a, 0x78, 0x38, 0xe6, 0x41, 0xa9, 0x81, 0xe8, 0xd4, 0xa0, 0x7f, 0x3b, 0x6c, 0xf1, 0x58, 0xa2, 0x00, 0x02, 0x7f, 0xdc, 0x7d, 0x15, 0x4f, 0x55, 0x58, 0x67, 0x3f, 0xb2, 0xd8, 0x81, 0x8c, 0x8b, 0xb4, 0xde, 0xd7, 0x54, 0x50, 0x7f, 0xef, 0xd1, 0xd6, 0x0e, 0xfa, 0xdc, 0x84, 0x66, 0x0a, 0x6a, 0x81, 0xe4, 0x4a, 0xbb, 0x5e, 0x58, 0x38, 0x0b, 0xc7, 0x22, 0x7f, 0xb7, 0x2d, 0xd9, 0x1c, 0xb6, 0xb2, 0xf9, 0x57, 0x25, 0x7f, 0x69, 0x81, 0xe6, 0x06, 0xb9, 0xca, 0xe7, 0x53, 0xae, 0xc0, 0x95, 0xc4, 0x94, 0x32, 0x46, 0x7f, 0x56, 0x48, 0x8d, 0x0e, 0xe7, 0x7f, 0xe3, 0x5a, 0x33, 0x3d, 0xc9, 0x36, 0xce, 0xef, 0xff, 0xff, 0x04, 0x00, 0x00, 0x00, 0x40, 0x00, 0x00, 0x00, 0xe9, 0x26, 0x00, 0x00, 0xd8, 0xf0, 0xff, 0xff, 0x9b, 0xf4, 0xff, 0xff, 0x3e, 0xef, 0xff, 0xff, 0xd8, 0x2a, 0x00, 0x00, 0x53, 0x37, 0x00, 0x00, 0x53, 0x27, 0x00, 0x00, 0xea, 0x98, 0x00, 0x00, 0x5b, 0x71, 0xff, 0xff, 0x74, 0x27, 0x00, 0x00, 0xa2, 0xe8, 0xff, 0xff, 0x35, 0x60, 0x00, 0x00, 0x12, 0x36, 0x00, 0x00, 0x2f, 0x90, 0xff, 0xff, 0x50, 0x11, 0x00, 0x00, 0x1f, 0x59, 0x00, 0x00, 0x1a, 0xf0, 0xff, 0xff, 0x04, 0x00, 0x00, 0x00, 0x90, 0x00, 0x00, 0x00, 0xd7, 0x06, 0xae, 0xfe, 0x2d, 0xcc, 0x16, 0x63, 0x48, 0x7e, 0xb7, 0x77, 0xad, 0xc1, 0x81, 0xcd, 0xd5, 0xd1, 0x81, 0xd2, 0x6d, 0xbf, 0x2a, 0x27, 0x1a, 0x7f, 0x38, 0xf8, 0x41, 0x97, 0xb6, 0x08, 0x98, 0x81, 0x0f, 0xec, 0x42, 0x7f, 0xf8, 0xc2, 0xd9, 0x00, 0x7f, 0x7f, 0x7f, 0xf5, 0x00, 0xc6, 0xc1, 0x2a, 0x9f, 0xb6, 0xf5, 0xb0, 0x7f, 0x3e, 0xe8, 0xeb, 0x48, 0xd6, 0x18, 0xb2, 0x11, 0x70, 0xb0, 0x6d, 0xca, 0xd8, 0x81, 0xe6, 0x68, 0xb6, 0x34, 0x77, 0x47, 0xb0, 0x49, 0x1b, 0x54, 0xbf, 0x81, 0x9a, 0x45, 0x81, 0x0d, 0x1f, 0x31, 0xb0, 0x0b, 0xf3, 0xeb, 0x57, 0xbb, 0x7f, 0xfd, 0xa3, 0x53, 0x3f, 0xe8, 0xa7, 0x0f, 0xf7, 0xf7, 0x7c, 0x22, 0xea, 0x49, 0xc3, 0x50, 0xeb, 0xe5, 0x7f, 0xde, 0x22, 0xe3, 0xfc, 0xca, 0xe5, 0xb5, 0x00, 0x7f, 0x28, 0x56, 0x3b, 0x49, 0xd1, 0xc1, 0x4c, 0x44, 0xb8, 0x9b, 0x27, 0xe8, 0x1c, 0x30, 0x81, 0x61, 0x22, 0x5a, 0x27, 0x56, 0x2e, 0xd1, 0x0e, 0xb6, 0xf0, 0xff, 0xff, 0x04, 0x00, 0x00, 0x00, 0x40, 0x00, 0x00, 0x00, 0x1e, 0x0d, 0x00, 0x00, 0xa9, 0x05, 0x00, 0x00, 0xcf, 0x11, 0x00, 0x00, 0x85, 0x0f, 0x00, 0x00, 0xa6, 0xfd, 0xff, 0xff, 0xe3, 0x01, 0x00, 0x00, 0xf4, 0xf4, 0xff, 0xff, 0x90, 0x00, 0x00, 0x00, 0xf4, 0xf1, 0xff, 0xff, 0x24, 0xf1, 0xff, 0xff, 0x03, 0xec, 0xff, 0xff, 0x85, 0xf9, 0xff, 0xff, 0xee, 0xf3, 0xff, 0xff, 0x06, 0x03, 0x00, 0x00, 0xe0, 0x06, 0x00, 0x00, 0xe8, 0xff, 0xff, 0xff, 0x02, 0xf1, 0xff, 0xff, 0x04, 0x00, 0x00, 0x00, 0x00, 0x02, 0x00, 0x00, 0x05, 0x38, 0xb3, 0x43, 0x0d, 0x61, 0x31, 0x07, 0xa8, 0xea, 0x81, 0xac, 0xfe, 0x0f, 0x13, 0x2f, 0x95, 0x72, 0xf9, 0x36, 0x39, 0x5d, 0xe4, 0x43, 0xa7, 0x7f, 0xf7, 0xe6, 0xfa, 0xce, 0xc0, 0x0f, 0x81, 0xda, 0x57, 0x6f, 0xfa, 0x99, 0x08, 0x45, 0x3a, 0x13, 0x09, 0xce, 0xda, 0x94, 0x59, 0x2f, 0xaa, 0x28, 0x6e, 0x8e, 0x36, 0x15, 0x7f, 0x47, 0x56, 0xd0, 0x26, 0xf3, 0x65, 0x4b, 0xb9, 0xfe, 0x28, 0x7f, 0x90, 0xab, 0xca, 0x20, 0xf6, 0xa2, 0x4b, 0x96, 0xa3, 0xf8, 0xdf, 0x3c, 0x8f, 0x92, 0x42, 0xcf, 0xf0, 0x57, 0x5f, 0xd8, 0x7f, 0xb2, 0xaf, 0x3f, 0x5e, 0x46, 0xcc, 0xb4, 0x3d, 0xbe, 0x8a, 0x61, 0x81, 0x37, 0xf5, 0x8a, 0x7e, 0xef, 0x90, 0x1e, 0x6a, 0xda, 0x73, 0xbd, 0xd7, 0x61, 0x12, 0x25, 0xfc, 0xee, 0x55, 0x20, 0x79, 0x58, 0xef, 0x79, 0x7f, 0xa9, 0xb6, 0x7c, 0x58, 0xe1, 0x3c, 0xd3, 0x05, 0x16, 0xec, 0xcf, 0x1a, 0x7f, 0x08, 0x31, 0xad, 0x17, 0xb0, 0x18, 0xee, 0x29, 0x81, 0x32, 0xb9, 0x42, 0x19, 0x4f, 0xaa, 0x8b, 0xac, 0x4f, 0xe4, 0x08, 0xd3, 0xa0, 0x97, 0xf5, 0x4a, 0x9c, 0x2e, 0xc9, 0xf9, 0xc6, 0xb0, 0x7f, 0x5e, 0x42, 0xb6, 0x67, 0xd9, 0xb4, 0x0e, 0xd9, 0x31, 0xbf, 0x20, 0x14, 0x8e, 0xb8, 0xed, 0x64, 0xb6, 0x48, 0x7f, 0x40, 0x9e, 0x63, 0xa2, 0xca, 0x5a, 0xef, 0x05, 0x9b, 0x7c, 0x9f, 0x07, 0x81, 0xb2, 0x6d, 0xd7, 0xfc, 0xaa, 0x4c, 0x26, 0xc9, 0x23, 0x39, 0x14, 0xf9, 0xac, 0x7f, 0x1e, 0x63, 0xba, 0x5d, 0x66, 0xd4, 0x53, 0x66, 0xfe, 0xd0, 0x67, 0x22, 0x7f, 0xbf, 0x10, 0xa3, 0x1c, 0x33, 0x4a, 0xbe, 0x87, 0xae, 0x2d, 0xb7, 0xe7, 0x57, 0x32, 0x81, 0x9a, 0xbf, 0xf8, 0x25, 0x64, 0xfd, 0xcb, 0x5e, 0x14, 0xef, 0xe2, 0x03, 0x22, 0xff, 0x29, 0xe6, 0x8d, 0xb4, 0xcd, 0x7f, 0x6a, 0xd9, 0xf8, 0xc0, 0xc3, 0x8f, 0x17, 0xe5, 0x01, 0xdf, 0xe9, 0xaa, 0xa1, 0x86, 0xb1, 0x7f, 0x3f, 0xb0, 0xa6, 0x36, 0x9b, 0x57, 0x96, 0xee, 0x58, 0x43, 0x81, 0x19, 0xbb, 0xf5, 0x97, 0x53, 0xcb, 0x7a, 0x1f, 0xf5, 0xf6, 0x7d, 0xb2, 0xbc, 0x30, 0x0a, 0x7f, 0xcc, 0x34, 0x45, 0x0c, 0x49, 0x4e, 0x17, 0xbe, 0xb5, 0x6d, 0xe5, 0x40, 0xa2, 0x35, 0x3d, 0xad, 0x8f, 0x19, 0xce, 0x08, 0xe3, 0x25, 0x7f, 0x3c, 0xdc, 0x5e, 0xc7, 0x70, 0x1d, 0x38, 0xf6, 0x10, 0xd0, 0x70, 0x19, 0x65, 0xfb, 0x96, 0x08, 0xc8, 0x7c, 0x55, 0x1e, 0x81, 0xda, 0x6c, 0x9c, 0x75, 0x15, 0xc1, 0xe4, 0x89, 0xa5, 0x28, 0x95, 0xbf, 0x3f, 0x7d, 0x81, 0x31, 0xe5, 0xfc, 0xd8, 0xbd, 0x1a, 0x4b, 0x66, 0x20, 0xca, 0x0c, 0x2e, 0x02, 0xdd, 0x98, 0x5d, 0xa1, 0x81, 0x28, 0x98, 0x3e, 0xf9, 0x6c, 0xb3, 0x86, 0xa7, 0x73, 0xce, 0x19, 0xe0, 0x5b, 0xa5, 0xed, 0x7f, 0x38, 0x0e, 0x1f, 0xeb, 0x42, 0x1e, 0xd2, 0x89, 0x3d, 0x0c, 0x59, 0x7f, 0x28, 0x73, 0x7d, 0x2b, 0xfc, 0x23, 0x81, 0xcb, 0x15, 0x98, 0x3f, 0xb0, 0x75, 0xae, 0xc3, 0x9d, 0x61, 0xc4, 0x81, 0xd3, 0xaa, 0xb1, 0x2f, 0x65, 0xf7, 0x41, 0xf0, 0x8e, 0x3b, 0x55, 0x0a, 0x9a, 0x92, 0xaf, 0xba, 0x7f, 0x16, 0xe1, 0x3f, 0x1c, 0x27, 0xba, 0xc1, 0xf1, 0x14, 0xc5, 0xa0, 0x0d, 0xdc, 0x55, 0x59, 0xbc, 0x7f, 0x05, 0xe4, 0x78, 0x7f, 0xd3, 0xbd, 0x78, 0xc0, 0xa4, 0xe4, 0x6a, 0x19, 0x49, 0x05, 0x25, 0x4c, 0x7c, 0xc4, 0xc2, 0xbe, 0x95, 0xa1, 0x1d, 0x28, 0x3a, 0x05, 0x44, 0xbe, 0xca, 0x61, 0x2c, 0x7f, 0xa8, 0xba, 0xa7, 0xc7, 0x02, 0xe0, 0xd3, 0x22, 0x25, 0x04, 0x6f, 0xf2, 0xe5, 0x32, 0xc9, 0x0e, 0x7f, 0x0e, 0xf3, 0xff, 0xff, 0x04, 0x00, 0x00, 0x00, 0x80, 0x00, 0x00, 0x00, 0x8a, 0x05, 0x00, 0x00, 0x1e, 0xfb, 0xff, 0xff, 0x59, 0xf9, 0xff, 0xff, 0x37, 0xee, 0xff, 0xff, 0x46, 0x1a, 0x00, 0x00, 0x21, 0xec, 0xff, 0xff, 0xc5, 0x03, 0x00, 0x00, 0xf4, 0xdf, 0xff, 0xff, 0x9b, 0xf9, 0xff, 0xff, 0x6a, 0x1b, 0x00, 0x00, 0xf1, 0x00, 0x00, 0x00, 0x50, 0xfc, 0xff, 0xff, 0x67, 0x02, 0x00, 0x00, 0xe2, 0xe4, 0xff, 0xff, 0xdd, 0x01, 0x00, 0x00, 0xdc, 0xfe, 0xff, 0xff, 0xe0, 0x10, 0x00, 0x00, 0xef, 0x0d, 0x00, 0x00, 0xa7, 0x05, 0x00, 0x00, 0xfa, 0xe8, 0xff, 0xff, 0xfb, 0xf6, 0xff, 0xff, 0xf1, 0xef, 0xff, 0xff, 0xac, 0x08, 0x00, 0x00, 0x1d, 0x09, 0x00, 0x00, 0x02, 0xf5, 0xff, 0xff, 0x8c, 0xdf, 0xff, 0xff, 0x14, 0x27, 0x00, 0x00, 0xee, 0xfd, 0xff, 0xff, 0x5d, 0xfa, 0xff, 0xff, 0xf5, 0xe2, 0xff, 0xff, 0x1d, 0x07, 0x00, 0x00, 0x50, 0xfe, 0xff, 0xff, 0x9a, 0xf3, 0xff, 0xff, 0x04, 0x00, 0x00, 0x00, 0x20, 0x01, 0x00, 0x00, 0x19, 0x71, 0x66, 0xe8, 0x81, 0x8e, 0x55, 0x2f, 0x81, 0x53, 0xf6, 0xb6, 0x53, 0xa4, 0x30, 0x68, 0xaa, 0x02, 0x7d, 0xea, 0xe0, 0x4a, 0x3b, 0x41, 0xe1, 0x0d, 0x57, 0x5c, 0x81, 0x9a, 0x2c, 0x1f, 0x28, 0x9f, 0x24, 0x98, 0xab, 0xc6, 0xfe, 0xf8, 0x30, 0x81, 0x27, 0x21, 0x5b, 0xd7, 0x37, 0x01, 0x3f, 0x36, 0x1e, 0x2d, 0x0f, 0x2b, 0x55, 0x7f, 0x44, 0xd1, 0x3b, 0xa8, 0x92, 0x14, 0x02, 0xd2, 0x3b, 0xfe, 0xee, 0x3c, 0x00, 0x0c, 0xd8, 0xca, 0x15, 0xf2, 0xd9, 0xf2, 0x47, 0x69, 0x3b, 0xef, 0xc1, 0x54, 0x7f, 0x66, 0x0a, 0x33, 0xc9, 0x6d, 0xbc, 0x12, 0xdd, 0x2d, 0xda, 0x37, 0x7f, 0x81, 0xb7, 0x58, 0x34, 0x85, 0xfe, 0x1d, 0x4e, 0x35, 0xed, 0x24, 0x84, 0x04, 0x4c, 0xfb, 0x81, 0xfc, 0x81, 0x2e, 0xf7, 0x3d, 0x96, 0x2f, 0x35, 0xbf, 0x48, 0x0b, 0x02, 0xfb, 0xca, 0x0d, 0xea, 0xc0, 0x81, 0x9b, 0x73, 0xd7, 0xb2, 0xb3, 0x38, 0x81, 0x11, 0x93, 0x13, 0x6d, 0x3a, 0xfd, 0xb4, 0x7f, 0xb6, 0x69, 0x09, 0x53, 0xc7, 0x01, 0x0d, 0x36, 0xde, 0x0d, 0x73, 0x7f, 0xd0, 0x4b, 0x61, 0x0d, 0x9f, 0xfe, 0x2b, 0x81, 0x06, 0xf6, 0x7f, 0x50, 0xf6, 0x53, 0xfe, 0x7f, 0x7f, 0x7f, 0xa0, 0x17, 0x4f, 0x36, 0x0e, 0x42, 0x81, 0x7f, 0x7f, 0x02, 0xd7, 0xe0, 0x7f, 0xcd, 0xdd, 0xf6, 0x5f, 0xe6, 0x43, 0x54, 0x3d, 0xd2, 0xf5, 0x2a, 0xf0, 0x8b, 0x97, 0xc0, 0x26, 0xb1, 0x1b, 0xc8, 0xe8, 0x03, 0x27, 0x05, 0xff, 0x7f, 0xb9, 0x2e, 0x22, 0xdc, 0x81, 0xa4, 0xe7, 0x4a, 0xc4, 0x35, 0x50, 0x31, 0xc0, 0x7f, 0x5d, 0x0c, 0x2a, 0x7f, 0x15, 0xa3, 0xc9, 0x95, 0x81, 0x3a, 0x31, 0x06, 0xd1, 0x38, 0xad, 0x7f, 0x33, 0x1e, 0x00, 0x62, 0xea, 0x28, 0xce, 0x1d, 0x1a, 0xd7, 0x03, 0x62, 0x38, 0x60, 0xb0, 0xa1, 0x7f, 0x24, 0xd2, 0x67, 0x37, 0x94, 0x60, 0x6a, 0xf8, 0xdc, 0xd5, 0x55, 0x00, 0x4d, 0x72, 0x62, 0xdb, 0x1f, 0x25, 0xea, 0x19, 0x03, 0xd9, 0x81, 0xb2, 0x18, 0x43, 0x7f, 0xfb, 0x0e, 0xc6, 0xf4, 0xff, 0xff, 0x04, 0x00, 0x00, 0x00, 0x80, 0x00, 0x00, 0x00, 0xb1, 0x1b, 0x00, 0x00, 0xf9, 0xf3, 0xff, 0xff, 0x74, 0xce, 0xff, 0xff, 0x6b, 0x13, 0x00, 0x00, 0x3d, 0x1d, 0x00, 0x00, 0x2e, 0xfc, 0xff, 0xff, 0x04, 0xd6, 0xff, 0xff, 0x9f, 0x15, 0x00, 0x00, 0x57, 0x00, 0x00, 0x00, 0xf5, 0x0a, 0x00, 0x00, 0xf5, 0x0f, 0x00, 0x00, 0x99, 0xf1, 0xff, 0xff, 0xd0, 0xd4, 0xff, 0xff, 0x9b, 0xe1, 0xff, 0xff, 0xdc, 0x0a, 0x00, 0x00, 0xb6, 0xde, 0xff, 0xff, 0xaa, 0x01, 0x00, 0x00, 0x86, 0xcc, 0xff, 0xff, 0x1f, 0xe9, 0xff, 0xff, 0x7f, 0xcb, 0xff, 0xff, 0xd2, 0x18, 0x00, 0x00, 0x10, 0xda, 0xff, 0xff, 0x0c, 0xe1, 0xff, 0xff, 0x27, 0xe2, 0xff, 0xff, 0x91, 0x02, 0x00, 0x00, 0x00, 0x12, 0x00, 0x00, 0x82, 0xea, 0xff, 0xff, 0xf3, 0xef, 0xff, 0xff, 0xcb, 0x18, 0x00, 0x00, 0xfb, 0xe2, 0xff, 0xff, 0xec, 0xd2, 0xff, 0xff, 0xea, 0x00, 0x00, 0x00, 0x52, 0xf5, 0xff, 0xff, 0x04, 0x00, 0x00, 0x00, 0x00, 0x08, 0x00, 0x00, 0xca, 0xce, 0x01, 0xd7, 0xc8, 0xbc, 0x32, 0xdc, 0xff, 0x16, 0xf8, 0x51, 0x38, 0x1b, 0x1c, 0x42, 0x30, 0xf6, 0x07, 0xb9, 0x13, 0x8e, 0x25, 0xb8, 0xfc, 0xa0, 0xab, 0xff, 0xcd, 0xc6, 0x7f, 0x1e, 0x03, 0x2b, 0x5a, 0xfb, 0xe0, 0xf2, 0xb9, 0x55, 0x58, 0x7f, 0xb9, 0x2d, 0xfe, 0x4b, 0xff, 0x04, 0x03, 0x28, 0xf8, 0x6a, 0xe0, 0xc2, 0xfc, 0x4a, 0x48, 0xd3, 0xfc, 0x15, 0x41, 0x1e, 0xc0, 0x1c, 0xd3, 0x10, 0x19, 0x12, 0x2f, 0xd2, 0x31, 0xd1, 0xe6, 0x76, 0xb3, 0x4a, 0xfb, 0x65, 0x02, 0xd4, 0xf1, 0xed, 0x7f, 0xd0, 0x05, 0xce, 0xcb, 0xee, 0xe4, 0x5e, 0x2d, 0x03, 0x14, 0x05, 0x4d, 0x3b, 0x3e, 0x13, 0xb3, 0x01, 0xe4, 0x49, 0xb0, 0xd8, 0x92, 0xcd, 0xe5, 0xb2, 0x90, 0x2a, 0x07, 0x0b, 0xab, 0xaa, 0xdc, 0x02, 0xec, 0xc6, 0xd5, 0x2c, 0xfb, 0x10, 0xe0, 0xc7, 0x7f, 0x2a, 0x0d, 0xd8, 0x4a, 0x19, 0xd5, 0xd6, 0xb1, 0x7f, 0x2e, 0x20, 0x8f, 0x28, 0x4c, 0xff, 0x48, 0xba, 0x53, 0xbf, 0x46, 0x27, 0x0a, 0x3e, 0xcf, 0x6a, 0xbd, 0x79, 0x0c, 0xc3, 0xc7, 0x2a, 0x56, 0xc6, 0x1d, 0x4f, 0x0c, 0x32, 0xe8, 0xf4, 0x24, 0xad, 0x2b, 0xbf, 0x05, 0x2f, 0xfe, 0x52, 0xd8, 0x24, 0xe2, 0xf6, 0x42, 0x39, 0x7f, 0xd4, 0xa1, 0xc3, 0xdf, 0x0f, 0x1a, 0x32, 0x1b, 0x1e, 0xe5, 0xef, 0x4b, 0x43, 0x90, 0x2e, 0x3b, 0x15, 0x0f, 0x1a, 0x3a, 0x56, 0x7f, 0x75, 0xeb, 0xf5, 0xbc, 0x53, 0x2e, 0xff, 0x7b, 0x04, 0x40, 0x30, 0xb9, 0xd5, 0x09, 0x26, 0xfe, 0x53, 0x9f, 0x6f, 0xf1, 0x55, 0x86, 0x06, 0x1d, 0xbc, 0xdd, 0xd1, 0xc9, 0xe6, 0x2f, 0xb0, 0x05, 0xd4, 0x14, 0xda, 0x7f, 0xcd, 0xac, 0x24, 0x21, 0xc6, 0xf1, 0x33, 0x32, 0x1f, 0xc6, 0xef, 0xb0, 0x01, 0x1c, 0xcd, 0xf2, 0xf1, 0xba, 0x48, 0x60, 0x29, 0x15, 0x23, 0x64, 0x7f, 0x69, 0x53, 0x01, 0x04, 0x9c, 0xa7, 0xbc, 0xac, 0x20, 0x84, 0x50, 0x4d, 0xf8, 0xb2, 0xaf, 0x1b, 0x66, 0x76, 0x5d, 0x8c, 0x43, 0x43, 0x1f, 0x29, 0x8d, 0x4f, 0x0e, 0x1b, 0x1a, 0xec, 0x05, 0xc0, 0x15, 0xe9, 0x10, 0x00, 0xf9, 0x0f, 0xc4, 0x0c, 0x10, 0xe1, 0x5d, 0x4c, 0x7f, 0xe0, 0x39, 0xd1, 0x3a, 0xf3, 0x20, 0x10, 0x18, 0xc6, 0xf0, 0xe8, 0x47, 0x2d, 0x45, 0x32, 0xc1, 0xbc, 0x1f, 0x62, 0x12, 0x1d, 0xf7, 0xad, 0x0a, 0xda, 0x4b, 0x40, 0x49, 0x7f, 0xcd, 0x6c, 0x08, 0x99, 0x64, 0xba, 0x15, 0x4d, 0xa6, 0xf9, 0x26, 0x22, 0x36, 0x8f, 0x23, 0x3d, 0x29, 0x3f, 0x2f, 0x0d, 0x9f, 0x7f, 0xf3, 0x2d, 0xf7, 0xc2, 0xb0, 0x0c, 0x7f, 0x1d, 0x56, 0xc1, 0x22, 0xe2, 0xa9, 0xcc, 0x8e, 0x43, 0x63, 0x66, 0x5f, 0x90, 0x0a, 0xb1, 0x3b, 0x4b, 0x83, 0xf5, 0x3b, 0x4d, 0x81, 0x6e, 0x99, 0xba, 0xd0, 0xbb, 0xd1, 0x4e, 0xf1, 0x61, 0xb7, 0x53, 0x20, 0x4a, 0xd1, 0x6a, 0x32, 0x8b, 0xe9, 0xc0, 0x87, 0x22, 0x14, 0x23, 0xca, 0x58, 0x87, 0x07, 0x58, 0x0e, 0xc5, 0x2f, 0x9b, 0x43, 0xfd, 0xd8, 0xf1, 0xf0, 0x45, 0xf6, 0x0a, 0xbe, 0x08, 0xa7, 0x27, 0x7f, 0xf7, 0x37, 0x15, 0xbe, 0x27, 0xd1, 0x28, 0x0c, 0x21, 0x24, 0x14, 0x31, 0x96, 0x25, 0x76, 0xb6, 0x12, 0x0d, 0x30, 0xe0, 0xda, 0xbf, 0xd6, 0xe9, 0x92, 0x5a, 0xd1, 0x49, 0xf1, 0x3d, 0xeb, 0x79, 0xc8, 0x7f, 0x66, 0xea, 0x9b, 0x9f, 0xa4, 0x19, 0x30, 0x72, 0x03, 0x06, 0xee, 0xf5, 0xe9, 0x98, 0xec, 0xc5, 0xc6, 0xcb, 0xe2, 0x53, 0x94, 0xf1, 0xce, 0xae, 0x03, 0xb6, 0x81, 0xd9, 0x33, 0x15, 0xec, 0x23, 0x63, 0x44, 0xe1, 0x55, 0x4e, 0xf5, 0xb7, 0xe6, 0xca, 0x06, 0x68, 0xf8, 0xc9, 0x3a, 0x4a, 0x2f, 0xf9, 0xdb, 0xe4, 0x2d, 0xbf, 0x0c, 0xb1, 0xb4, 0x23, 0x2e, 0x7f, 0xed, 0xeb, 0xd2, 0x2d, 0xc1, 0xbe, 0xf5, 0xf4, 0x33, 0x19, 0x56, 0x10, 0xc0, 0xe2, 0xcd, 0x19, 0x4f, 0x32, 0xf8, 0x08, 0x0a, 0xff, 0x19, 0x43, 0x65, 0x11, 0x5c, 0x25, 0xe8, 0xd3, 0xcf, 0x7f, 0xd8, 0xe2, 0xf3, 0x0d, 0xb7, 0xf2, 0x52, 0x4d, 0x6c, 0x0c, 0xf0, 0x4a, 0xea, 0x26, 0x16, 0xd5, 0x2c, 0xd8, 0xd6, 0x3d, 0xf6, 0xe6, 0x43, 0xc5, 0xd9, 0x2a, 0x29, 0x4a, 0x28, 0xf6, 0x15, 0x23, 0xdf, 0xcf, 0xf4, 0xd0, 0x7c, 0xf2, 0xcb, 0xca, 0x9a, 0x0d, 0x33, 0x5b, 0xab, 0x1a, 0x2d, 0x81, 0xcd, 0x4c, 0x15, 0xfe, 0x4a, 0xcf, 0x62, 0x56, 0xd0, 0x97, 0x33, 0xda, 0x2d, 0x81, 0x61, 0xa0, 0x2b, 0xae, 0xaa, 0xd6, 0x46, 0xfd, 0x3b, 0x0e, 0xf6, 0xd4, 0xca, 0xbd, 0xe0, 0xf3, 0x6d, 0x03, 0x38, 0x30, 0x85, 0x21, 0xe6, 0x6c, 0x42, 0xe4, 0xe5, 0x00, 0xb0, 0x5b, 0xce, 0x99, 0x6f, 0x32, 0xb9, 0xd2, 0xb1, 0xde, 0x11, 0xd2, 0x70, 0xff, 0xed, 0x7f, 0xde, 0x1b, 0xbd, 0xa0, 0xf9, 0x5d, 0xfe, 0xcc, 0xff, 0x58, 0x40, 0x4f, 0x67, 0xbe, 0xaf, 0xb4, 0xca, 0x23, 0x7f, 0x84, 0x4a, 0xe5, 0xcd, 0xdc, 0x28, 0x60, 0xd4, 0x0a, 0xa7, 0x45, 0x05, 0x24, 0xb3, 0xa9, 0x93, 0x88, 0x08, 0x44, 0xba, 0xfd, 0x19, 0xf3, 0x43, 0xd0, 0xf1, 0xea, 0xcf, 0x01, 0x5c, 0x1c, 0x20, 0x7f, 0xb0, 0xec, 0xaf, 0x12, 0x49, 0xeb, 0x52, 0x37, 0x11, 0x38, 0x08, 0xc0, 0xc0, 0x6d, 0xf5, 0xbb, 0x98, 0xaf, 0x02, 0x22, 0xaf, 0xd6, 0x9d, 0xac, 0xfb, 0x1f, 0x16, 0x63, 0xd1, 0x9b, 0x99, 0xff, 0x26, 0x7f, 0xe4, 0xf5, 0x4f, 0x3c, 0x49, 0x0e, 0x49, 0x45, 0x4e, 0xb4, 0xfa, 0xdd, 0xea, 0xf0, 0xd5, 0x14, 0xe6, 0x36, 0x12, 0xbf, 0xde, 0xaf, 0xd5, 0x19, 0x28, 0xa6, 0xd5, 0x49, 0x06, 0x81, 0x2a, 0xfd, 0x0e, 0x14, 0x9c, 0x27, 0x00, 0xf2, 0x0b, 0x26, 0x25, 0x0e, 0x15, 0xba, 0x65, 0xd6, 0x16, 0xc7, 0x55, 0xf0, 0xd4, 0x13, 0x01, 0x06, 0xf0, 0x4f, 0x17, 0xcc, 0x13, 0xfb, 0x2e, 0x3e, 0xd8, 0x7c, 0xba, 0x3e, 0x01, 0x0f, 0x7f, 0xbe, 0x48, 0x33, 0xf4, 0xe5, 0x0b, 0x08, 0x46, 0x17, 0x2f, 0x9e, 0x28, 0x1a, 0x26, 0xf2, 0xfd, 0xfd, 0xf9, 0x97, 0xe9, 0xca, 0xae, 0x1f, 0xbb, 0x85, 0x65, 0x25, 0xe4, 0xf8, 0x08, 0x2b, 0xdb, 0x07, 0x75, 0x03, 0xe3, 0x1f, 0x1c, 0xd9, 0x9c, 0x81, 0xc0, 0xfb, 0xe6, 0xad, 0x0f, 0x37, 0xd3, 0x3f, 0x83, 0x72, 0x2a, 0x23, 0xb9, 0xa1, 0x18, 0xa7, 0x98, 0xef, 0x1f, 0x1c, 0x12, 0x8b, 0x9e, 0xd3, 0x33, 0x0e, 0x40, 0xd0, 0xc8, 0xbb, 0x9d, 0xee, 0xc8, 0x97, 0x44, 0x81, 0x7b, 0x6d, 0x3f, 0xe1, 0x0a, 0x52, 0x0c, 0x3c, 0x26, 0xd1, 0xbd, 0xcc, 0xdc, 0xfc, 0x3e, 0x42, 0xb7, 0x9e, 0x81, 0xf3, 0x4a, 0xfc, 0xbe, 0xde, 0xe0, 0x04, 0xd5, 0xa1, 0xf8, 0xde, 0x4f, 0xd3, 0xf7, 0x38, 0x05, 0x39, 0x28, 0x47, 0xc2, 0xc1, 0x8d, 0xc0, 0xd5, 0x6e, 0x91, 0x6b, 0x3b, 0x53, 0xfb, 0x36, 0x81, 0xc5, 0x06, 0xc8, 0x78, 0xd0, 0xbe, 0x9f, 0x23, 0x94, 0x9c, 0xa7, 0x13, 0xb6, 0x5d, 0x5b, 0x17, 0x02, 0x4e, 0x99, 0xa5, 0x23, 0xbd, 0x7f, 0x28, 0xb0, 0x7c, 0x91, 0x3c, 0xfd, 0xdf, 0x08, 0x1e, 0x27, 0xe5, 0xfe, 0x21, 0xc7, 0x42, 0xf7, 0x1d, 0xb6, 0x3c, 0xc7, 0x50, 0xbf, 0x25, 0xc3, 0x32, 0xbd, 0x2d, 0xdf, 0xca, 0x30, 0xb7, 0xba, 0xff, 0x46, 0x40, 0xeb, 0x60, 0x42, 0x3f, 0xc0, 0x42, 0x37, 0x8a, 0x81, 0x14, 0x00, 0xab, 0xde, 0x08, 0xcf, 0xa2, 0x62, 0x0b, 0x6c, 0x38, 0x13, 0x54, 0xd1, 0xed, 0xe8, 0x82, 0x7f, 0xac, 0x70, 0x21, 0x61, 0x01, 0xc7, 0xd7, 0xe7, 0xec, 0x32, 0x75, 0x2f, 0xe8, 0xac, 0x1c, 0xc4, 0xa2, 0xb7, 0xbc, 0xb6, 0x53, 0x43, 0xb0, 0x3d, 0xc8, 0x9b, 0xf0, 0x03, 0xe6, 0xbb, 0xba, 0xdc, 0x9f, 0xf2, 0xd7, 0xdb, 0xfd, 0x05, 0x29, 0x66, 0x20, 0x1d, 0x7f, 0xf0, 0x31, 0x4f, 0xf2, 0x93, 0xe3, 0x46, 0x1f, 0x1a, 0x19, 0x9d, 0xa9, 0x23, 0x08, 0x2f, 0x7f, 0x74, 0xe5, 0xb5, 0xd5, 0x04, 0xfa, 0xf2, 0x37, 0xcc, 0x6c, 0x16, 0x0c, 0xda, 0xd7, 0x72, 0x0e, 0x70, 0x01, 0x29, 0xa3, 0xf3, 0x2c, 0xed, 0x18, 0xf1, 0x43, 0x60, 0xe2, 0xff, 0x2a, 0x2a, 0xce, 0xaa, 0xb0, 0xbd, 0x3b, 0xbe, 0xd2, 0x3b, 0xc4, 0x9e, 0x23, 0xe1, 0x3e, 0x76, 0x3f, 0x01, 0xf2, 0x29, 0x93, 0xf6, 0xc2, 0x81, 0x71, 0xa1, 0x06, 0x22, 0x37, 0x32, 0xad, 0xe2, 0x2e, 0x30, 0xdf, 0xf4, 0x33, 0x0f, 0x92, 0xd1, 0xea, 0x23, 0xf1, 0xcf, 0xc8, 0x52, 0xba, 0x53, 0xee, 0x29, 0xbc, 0xea, 0x55, 0xe6, 0x0b, 0x4f, 0x10, 0x81, 0x5e, 0x1c, 0x2b, 0xb0, 0x49, 0x8f, 0x7d, 0xd0, 0xd6, 0xc6, 0xfe, 0xb6, 0xfa, 0x6a, 0xbf, 0xbe, 0xc7, 0xe5, 0xe5, 0x7e, 0xd2, 0xfe, 0xcc, 0xf7, 0xcc, 0xa8, 0x4d, 0xe8, 0xd9, 0x71, 0x02, 0xb1, 0x68, 0x0e, 0xf5, 0x60, 0x7f, 0xab, 0x75, 0x16, 0x07, 0x05, 0x3c, 0x34, 0x13, 0x03, 0xa5, 0xbb, 0xf2, 0xc4, 0xda, 0xf4, 0xcd, 0x31, 0xf4, 0xd1, 0xfa, 0xde, 0x3e, 0x62, 0xea, 0x08, 0x0d, 0x4b, 0xbd, 0x55, 0xed, 0x2d, 0x7f, 0x9a, 0x40, 0x0d, 0x2b, 0xc3, 0xcf, 0x5c, 0x5e, 0x15, 0x36, 0x0c, 0xff, 0xe6, 0x10, 0x48, 0xa9, 0x2c, 0xdd, 0xaa, 0x46, 0xd1, 0xdc, 0x5d, 0x7f, 0x0e, 0x26, 0x4b, 0xa0, 0x07, 0xc7, 0x4d, 0x09, 0x2c, 0xca, 0x28, 0xe5, 0x35, 0xff, 0x1d, 0xa7, 0x10, 0x28, 0xe6, 0xe3, 0x40, 0x5d, 0xdc, 0x1a, 0xc6, 0x51, 0x0e, 0x0c, 0x7f, 0xfa, 0x0b, 0x1e, 0x41, 0xc5, 0xf4, 0xd1, 0xd7, 0x5a, 0xe4, 0x20, 0xdc, 0xca, 0xd9, 0xc7, 0xb0, 0xe5, 0x07, 0x10, 0x04, 0xbf, 0xb4, 0xc2, 0xe8, 0x38, 0x4f, 0x18, 0xd8, 0x4b, 0xc7, 0xfa, 0x01, 0xc7, 0xb8, 0xe5, 0xc3, 0xd7, 0xde, 0xaa, 0xcc, 0xf6, 0xdf, 0xed, 0x7f, 0x25, 0xf2, 0x0f, 0xee, 0x38, 0x2c, 0xf1, 0x17, 0x06, 0x20, 0xfb, 0xf0, 0xf8, 0x41, 0x01, 0xcd, 0xee, 0xeb, 0x7f, 0xf7, 0x06, 0x0b, 0xbc, 0x08, 0xfc, 0x25, 0x40, 0x1c, 0xe6, 0xd9, 0xcd, 0x2c, 0x0a, 0x04, 0xdc, 0x04, 0x1b, 0x08, 0xf6, 0xd8, 0x0a, 0x0f, 0xb5, 0x44, 0x29, 0x38, 0xcf, 0x57, 0x7f, 0x3d, 0x16, 0x03, 0x16, 0xe5, 0xf4, 0xe6, 0xdf, 0xe0, 0xf4, 0xd8, 0xe4, 0x0d, 0x0e, 0x0a, 0xe4, 0x4f, 0x51, 0xa1, 0xfb, 0xe2, 0xff, 0xb6, 0xae, 0x9b, 0x3a, 0x06, 0xff, 0x82, 0xd3, 0x3d, 0xfd, 0x27, 0xb2, 0xdb, 0xf8, 0x08, 0x12, 0xbf, 0xd3, 0xcb, 0x66, 0x81, 0x13, 0x0a, 0x59, 0xcf, 0x0b, 0xd8, 0x41, 0x28, 0xe8, 0x16, 0xbe, 0xdb, 0x19, 0x03, 0xc6, 0x5b, 0xc1, 0x6f, 0x17, 0x24, 0x7f, 0xcd, 0x1a, 0xdc, 0xdf, 0xbd, 0x9d, 0xf6, 0xa8, 0xe6, 0xb6, 0xed, 0xba, 0x2d, 0xee, 0x7a, 0xbe, 0x89, 0x40, 0xc1, 0x12, 0x32, 0xb7, 0x21, 0xf3, 0x0e, 0xc4, 0x4d, 0xf0, 0x2b, 0x11, 0x05, 0x7f, 0x02, 0x1b, 0xf4, 0xeb, 0xd8, 0xa0, 0x30, 0x18, 0xaa, 0xdd, 0xc2, 0xdc, 0x1c, 0xd2, 0x5f, 0x9b, 0xac, 0x32, 0x2d, 0xa5, 0xb9, 0xb7, 0xec, 0xc4, 0x7f, 0x6b, 0x04, 0xde, 0xab, 0xd9, 0x41, 0x6f, 0xff, 0xc6, 0x6e, 0x14, 0xf5, 0xde, 0x42, 0x6d, 0x29, 0x2c, 0xd6, 0x27, 0xdb, 0x17, 0x16, 0xee, 0xe6, 0x2c, 0x0e, 0xca, 0xd9, 0xf1, 0xf9, 0xe8, 0x1c, 0x11, 0x32, 0xfc, 0x27, 0x26, 0xe6, 0xdc, 0xf5, 0x13, 0x7f, 0xb7, 0x29, 0xcb, 0x59, 0xc3, 0x39, 0xc5, 0xc4, 0x36, 0x12, 0xff, 0xeb, 0xf1, 0xf7, 0xef, 0x43, 0x0d, 0xdf, 0x2d, 0xf4, 0xa3, 0x57, 0x66, 0x81, 0x39, 0x28, 0x21, 0xf4, 0xad, 0xe6, 0xff, 0x05, 0x64, 0xa9, 0xe1, 0x47, 0x42, 0xbc, 0x46, 0xf3, 0xaf, 0x2d, 0x64, 0xc8, 0xc3, 0xf0, 0x2d, 0xd1, 0x00, 0x3f, 0x40, 0xb7, 0xbf, 0xd0, 0xc5, 0xe3, 0xc6, 0x6f, 0x34, 0x4f, 0x69, 0xdb, 0x2e, 0xcd, 0xa2, 0x32, 0x7f, 0x3e, 0xc1, 0xf2, 0xca, 0x0c, 0x1f, 0x9e, 0xbc, 0x1a, 0x4a, 0x41, 0xc2, 0xb4, 0xfe, 0x36, 0x3a, 0xee, 0xcd, 0x2d, 0xea, 0x0e, 0xb4, 0x59, 0xcd, 0x0a, 0x30, 0x17, 0xce, 0xdb, 0x46, 0xdc, 0x7f, 0xb2, 0x34, 0x1b, 0xee, 0xd1, 0x2b, 0x13, 0x4e, 0xa8, 0x5a, 0x1c, 0x22, 0x03, 0xcf, 0x56, 0xc9, 0x22, 0x2f, 0x5d, 0x7f, 0xf2, 0x45, 0x19, 0x1d, 0xf9, 0xdb, 0xf8, 0xb8, 0x64, 0xfa, 0xa0, 0xf6, 0x34, 0x13, 0xcf, 0xe8, 0x37, 0x0c, 0xc5, 0x6c, 0xae, 0x23, 0xf3, 0xdc, 0xbf, 0xf9, 0xf3, 0x0b, 0x22, 0xd6, 0x48, 0x17, 0xfa, 0x56, 0xc4, 0x33, 0x01, 0xe6, 0xe4, 0xe7, 0x7f, 0xdb, 0x07, 0xc1, 0xf7, 0x46, 0xac, 0x02, 0xc1, 0x3a, 0xd1, 0x24, 0x6d, 0x40, 0xbc, 0x5a, 0x85, 0x8c, 0xa6, 0xcf, 0x2c, 0x04, 0x6e, 0x53, 0x29, 0x5b, 0x0f, 0xf9, 0x40, 0x16, 0x47, 0x7f, 0x23, 0x96, 0xc8, 0xd2, 0x33, 0xec, 0x33, 0x04, 0xa7, 0xc4, 0x60, 0xe4, 0x35, 0x2e, 0x2a, 0x20, 0x75, 0x09, 0xf4, 0xfc, 0x3a, 0x0c, 0x40, 0x72, 0x2f, 0x01, 0x05, 0x5c, 0xd6, 0xdb, 0x3c, 0x88, 0x66, 0x31, 0x34, 0x35, 0x3c, 0xf6, 0xfc, 0x7f, 0xc6, 0x1f, 0xe3, 0x56, 0xcd, 0x09, 0xe6, 0xe8, 0x71, 0x11, 0xfc, 0xc1, 0xb7, 0x2d, 0x46, 0x54, 0x8e, 0x7f, 0xd5, 0x27, 0xc6, 0x15, 0x31, 0x04, 0x55, 0xb5, 0x0d, 0x08, 0x56, 0xe2, 0x53, 0x69, 0xb0, 0x34, 0xfb, 0x4f, 0xff, 0xac, 0xf7, 0xe2, 0x21, 0xbf, 0x35, 0xc6, 0xc0, 0x3e, 0x39, 0x9e, 0x6b, 0x9b, 0x25, 0x81, 0x08, 0x22, 0x23, 0x1e, 0xc2, 0x1a, 0xcc, 0x3a, 0xfb, 0x7a, 0xe3, 0x56, 0x52, 0xa7, 0xd0, 0x40, 0x21, 0xd9, 0x01, 0xe6, 0x14, 0xc7, 0xb0, 0x18, 0x00, 0x2e, 0x09, 0x2d, 0xbf, 0x37, 0x3a, 0x1b, 0x20, 0xf5, 0x3f, 0x23, 0xd6, 0x11, 0xc3, 0xb4, 0xd2, 0xf0, 0x2b, 0x4c, 0xed, 0x1d, 0xaf, 0xcb, 0x7f, 0xda, 0x4c, 0x02, 0x70, 0xbb, 0x11, 0xdc, 0xc7, 0x49, 0x38, 0xed, 0x1e, 0xe6, 0xb8, 0x7f, 0xc5, 0xde, 0xe1, 0x18, 0x7c, 0x2c, 0x8c, 0x01, 0xfb, 0xbe, 0x07, 0x00, 0xb5, 0x4d, 0xf0, 0x25, 0xd0, 0xc7, 0x05, 0xf2, 0x9f, 0x47, 0x69, 0x60, 0x75, 0xa5, 0xb9, 0xb6, 0x6a, 0xfa, 0x06, 0xd5, 0x7f, 0x34, 0x2b, 0xfc, 0x1e, 0xf3, 0x0d, 0x08, 0xf9, 0x49, 0x09, 0x30, 0xdf, 0xb7, 0x45, 0x02, 0x22, 0xcf, 0xf9, 0x7f, 0xcc, 0xd3, 0x1c, 0xf3, 0xc4, 0x54, 0x75, 0x46, 0xae, 0x20, 0xd5, 0x74, 0xfd, 0xe6, 0x6d, 0x16, 0x2b, 0xef, 0x90, 0x32, 0xa8, 0xaa, 0xe0, 0x49, 0xd7, 0x1d, 0x02, 0xe5, 0xd9, 0x35, 0x42, 0x28, 0xce, 0x2e, 0x5d, 0x26, 0xf3, 0x2e, 0xec, 0xa0, 0x46, 0xc2, 0xf5, 0x30, 0xec, 0x1c, 0x37, 0xbd, 0xfa, 0x65, 0xd6, 0x7f, 0x0c, 0xcf, 0xa8, 0x0a, 0x9f, 0xf0, 0xb9, 0xf8, 0xc4, 0xfd, 0xb3, 0xed, 0x03, 0x1e, 0x03, 0xe5, 0xa6, 0x13, 0xb2, 0xe0, 0x2b, 0x2c, 0x39, 0xe5, 0x37, 0x6f, 0xc6, 0x7f, 0xf0, 0xdb, 0x4a, 0xef, 0x40, 0x16, 0xd3, 0xb9, 0x45, 0xe7, 0xb2, 0x2e, 0x67, 0xec, 0x5e, 0xfd, 0xff, 0xff, 0x04, 0x00, 0x00, 0x00, 0x00, 0x01, 0x00, 0x00, 0xa4, 0x21, 0x00, 0x00, 0x05, 0xc1, 0xff, 0xff, 0xaf, 0xd7, 0xff, 0xff, 0x95, 0x47, 0x00, 0x00, 0xc6, 0xbb, 0xff, 0xff, 0x0c, 0xdb, 0xff, 0xff, 0xba, 0xbc, 0xff, 0xff, 0x0d, 0x3c, 0x00, 0x00, 0x4e, 0xcb, 0xff, 0xff, 0xa9, 0xdb, 0xff, 0xff, 0xfd, 0xcc, 0xff, 0xff, 0xf5, 0xfe, 0xff, 0xff, 0x6d, 0x06, 0x00, 0x00, 0xd2, 0xed, 0xff, 0xff, 0x85, 0xf9, 0xff, 0xff, 0x0b, 0x25, 0x00, 0x00, 0x1c, 0xfd, 0xff, 0xff, 0x0c, 0xce, 0xff, 0xff, 0x19, 0xf4, 0xff, 0xff, 0x53, 0x1b, 0x00, 0x00, 0xcb, 0x09, 0x00, 0x00, 0x4c, 0x1e, 0x00, 0x00, 0x30, 0x01, 0x00, 0x00, 0xb1, 0xed, 0xff, 0xff, 0xc4, 0x17, 0x00, 0x00, 0xf4, 0xb6, 0xff, 0xff, 0x20, 0x42, 0x00, 0x00, 0x01, 0x4e, 0x00, 0x00, 0x41, 0x22, 0x00, 0x00, 0xf8, 0x39, 0x00, 0x00, 0xad, 0xf7, 0xff, 0xff, 0x81, 0xf7, 0xff, 0xff, 0xe2, 0x0d, 0x00, 0x00, 0x85, 0x15, 0x00, 0x00, 0x51, 0xc1, 0xff, 0xff, 0xbb, 0x32, 0x00, 0x00, 0xda, 0x04, 0x00, 0x00, 0x56, 0x15, 0x00, 0x00, 0xe9, 0xf9, 0xff, 0xff, 0x9b, 0xdb, 0xff, 0xff, 0x3b, 0xda, 0xff, 0xff, 0x95, 0x41, 0x00, 0x00, 0x4c, 0xde, 0xff, 0xff, 0x3f, 0xec, 0xff, 0xff, 0x2f, 0x39, 0x00, 0x00, 0x04, 0x12, 0x00, 0x00, 0xaa, 0x15, 0x00, 0x00, 0xe4, 0xeb, 0xff, 0xff, 0x68, 0x06, 0x00, 0x00, 0xe7, 0xf3, 0xff, 0xff, 0x1c, 0x01, 0x00, 0x00, 0xca, 0xf2, 0xff, 0xff, 0xa4, 0xd4, 0xff, 0xff, 0x42, 0xf4, 0xff, 0xff, 0x85, 0xe0, 0xff, 0xff, 0xa4, 0x9b, 0xff, 0xff, 0x59, 0xd0, 0xff, 0xff, 0xfe, 0xf5, 0xff, 0xff, 0x07, 0xf4, 0xff, 0xff, 0xbb, 0x04, 0x00, 0x00, 0xb8, 0xd1, 0xff, 0xff, 0x16, 0x00, 0x00, 0x00, 0x3a, 0x09, 0x00, 0x00, 0x6b, 0xe0, 0xff, 0xff, 0x6a, 0xfe, 0xff, 0xff, 0x04, 0x00, 0x00, 0x00, 0xc0, 0x00, 0x00, 0x00, 0xcc, 0x0c, 0x84, 0x0e, 0x59, 0x8c, 0x08, 0x0f, 0x3a, 0xbf, 0xf4, 0x43, 0x83, 0x05, 0xb6, 0x27, 0x75, 0x7f, 0xe0, 0xa5, 0x36, 0xad, 0xc4, 0x10, 0xa9, 0x1f, 0xc3, 0x56, 0x48, 0x56, 0xdd, 0xac, 0xb0, 0xd9, 0xf9, 0xb2, 0x53, 0x21, 0x69, 0x6a, 0xb0, 0xf3, 0xd9, 0xd4, 0x12, 0xf3, 0xde, 0x09, 0xa4, 0xa9, 0x70, 0x5e, 0x10, 0xa1, 0x97, 0x14, 0xa9, 0x5d, 0xbe, 0xc7, 0x19, 0xb1, 0x4a, 0xf7, 0x5a, 0xe0, 0xeb, 0xff, 0xf3, 0x5a, 0xe0, 0xb0, 0xc1, 0x1e, 0x48, 0xc9, 0x38, 0x72, 0x4d, 0x98, 0xf8, 0x06, 0x5b, 0xe9, 0xdb, 0x96, 0x03, 0x26, 0xb1, 0x4f, 0x91, 0x15, 0x91, 0xa7, 0xc5, 0x05, 0x4d, 0x62, 0x2f, 0x33, 0x02, 0x8e, 0x9a, 0x50, 0x14, 0x73, 0x30, 0x26, 0xf7, 0x4b, 0x75, 0x41, 0xe0, 0x81, 0x4d, 0xe2, 0xb8, 0x1b, 0x6b, 0x93, 0xed, 0x02, 0x69, 0xb5, 0x40, 0x43, 0xbe, 0x58, 0x2b, 0x3f, 0x1c, 0x11, 0xf5, 0x69, 0x63, 0xc5, 0xf1, 0x33, 0x98, 0xf6, 0xf9, 0xed, 0x1b, 0x53, 0xdf, 0xcd, 0x0d, 0x56, 0x41, 0x3b, 0xc9, 0x8b, 0xd2, 0x97, 0x08, 0x26, 0x03, 0xd3, 0x63, 0xd6, 0x0c, 0xd8, 0x72, 0xba, 0xe4, 0xee, 0xd4, 0xbb, 0x2a, 0xbe, 0xd2, 0xa3, 0x38, 0xe4, 0xbc, 0x61, 0x30, 0x00, 0x81, 0xba, 0x3f, 0x1f, 0x1c, 0x73, 0x62, 0x9a, 0x02, 0x43, 0x86, 0x6b, 0x07, 0xe8, 0x36, 0xff, 0xff, 0xff, 0x04, 0x00, 0x00, 0x00, 0x0c, 0x00, 0x00, 0x00, 0xc4, 0x06, 0x00, 0x00, 0xa3, 0xf7, 0xff, 0xff, 0xb2, 0xfc, 0xff, 0xff, 0x4e, 0xff, 0xff, 0xff, 0x04, 0x00, 0x00, 0x00, 0x08, 0x00, 0x00, 0x00, 0x01, 0x00, 0x00, 0x00, 0x02, 0x00, 0x00, 0x00, 0x6c, 0xdf, 0xff, 0xff, 0x70, 0xdf, 0xff, 0xff, 0x0f, 0x00, 0x00, 0x00, 0x4d, 0x4c, 0x49, 0x52, 0x20, 0x43, 0x6f, 0x6e, 0x76, 0x65, 0x72, 0x74, 0x65, 0x64, 0x2e, 0x00, 0x01, 0x00, 0x00, 0x00, 0x14, 0x00, 0x00, 0x00, 0x00, 0x00, 0x0e, 0x00, 0x18, 0x00, 0x14, 0x00, 0x10, 0x00, 0x0c, 0x00, 0x08, 0x00, 0x04, 0x00, 0x0e, 0x00, 0x00, 0x00, 0x14, 0x00, 0x00, 0x00, 0x1c, 0x00, 0x00, 0x00, 0xf8, 0x02, 0x00, 0x00, 0xfc, 0x02, 0x00, 0x00, 0x00, 0x03, 0x00, 0x00, 0x04, 0x00, 0x00, 0x00, 0x6d, 0x61, 0x69, 0x6e, 0x00, 0x00, 0x00, 0x00, 0x0a, 0x00, 0x00, 0x00, 0x94, 0x02, 0x00, 0x00, 0x30, 0x02, 0x00, 0x00, 0xc8, 0x01, 0x00, 0x00, 0x88, 0x01, 0x00, 0x00, 0x44, 0x01, 0x00, 0x00, 0xec, 0x00, 0x00, 0x00, 0xac, 0x00, 0x00, 0x00, 0x78, 0x00, 0x00, 0x00, 0x40, 0x00, 0x00, 0x00, 0x04, 0x00, 0x00, 0x00, 0x02, 0xfe, 0xff, 0xff, 0x1c, 0x00, 0x00, 0x00, 0x00, 0x00, 0x00, 0x09, 0x1c, 0x00, 0x00, 0x00, 0x20, 0x00, 0x00, 0x00, 0x05, 0x00, 0x00, 0x00, 0x00, 0x00, 0x06, 0x00, 0x08, 0x00, 0x04, 0x00, 0x06, 0x00, 0x00, 0x00, 0x00, 0x00, 0x80, 0x3f, 0x01, 0x00, 0x00, 0x00, 0x17, 0x00, 0x00, 0x00, 0x01, 0x00, 0x00, 0x00, 0x16, 0x00, 0x00, 0x00, 0x1a, 0xff, 0xff, 0xff, 0x14, 0x00, 0x00, 0x00, 0x00, 0x00, 0x00, 0x08, 0x10, 0x00, 0x00, 0x00, 0x14, 0x00, 0x00, 0x00, 0x04, 0x00, 0x00, 0x00, 0x40, 0xe0, 0xff, 0xff, 0x01, 0x00, 0x00, 0x00, 0x16, 0x00, 0x00, 0x00, 0x03, 0x00, 0x00, 0x00, 0x15, 0x00, 0x00, 0x00, 0x03, 0x00, 0x00, 0x00, 0x02, 0x00, 0x00, 0x00, 0x4e, 0xff, 0xff, 0xff, 0x14, 0x00, 0x00, 0x00, 0x00, 0x00, 0x00, 0x1b, 0x10, 0x00, 0x00, 0x00, 0x14, 0x00, 0x00, 0x00, 0x03, 0x00, 0x00, 0x00, 0x74, 0xe0, 0xff, 0xff, 0x01, 0x00, 0x00, 0x00, 0x15, 0x00, 0x00, 0x00, 0x02, 0x00, 0x00, 0x00, 0x14, 0x00, 0x00, 0x00, 0x01, 0x00, 0x00, 0x00, 0x3e, 0xfe, 0xff, 0xff, 0x10, 0x00, 0x00, 0x00, 0x00, 0x00, 0x00, 0x01, 0x18, 0x00, 0x00, 0x00, 0x1c, 0x00, 0x00, 0x00, 0x30, 0xfe, 0xff, 0xff, 0x00, 0x00, 0x00, 0x01, 0x01, 0x00, 0x00, 0x00, 0x01, 0x00, 0x00, 0x00, 0x01, 0x00, 0x00, 0x00, 0x14, 0x00, 0x00, 0x00, 0x03, 0x00, 0x00, 0x00, 0x13, 0x00, 0x00, 0x00, 0x05, 0x00, 0x00, 0x00, 0x04, 0x00, 0x00, 0x00, 0xba, 0xff, 0xff, 0xff, 0x14, 0x00, 0x00, 0x00, 0x00, 0x00, 0x00, 0x02, 0x20, 0x00, 0x00, 0x00, 0x24, 0x00, 0x00, 0x00, 0x02, 0x00, 0x00, 0x00, 0x2e, 0xff, 0xff, 0xff, 0x00, 0x00, 0x00, 0x01, 0x01, 0x00, 0x00, 0x00, 0x01, 0x00, 0x00, 0x00, 0x01, 0x00, 0x00, 0x00, 0x01, 0x00, 0x00, 0x00, 0x13, 0x00, 0x00, 0x00, 0x03, 0x00, 0x00, 0x00, 0x12, 0x00, 0x00, 0x00, 0x07, 0x00, 0x00, 0x00, 0x06, 0x00, 0x00, 0x00, 0x00, 0x00, 0x0e, 0x00, 0x18, 0x00, 0x14, 0x00, 0x10, 0x00, 0x0c, 0x00, 0x0b, 0x00, 0x04, 0x00, 0x0e, 0x00, 0x00, 0x00, 0x14, 0x00, 0x00, 0x00, 0x00, 0x00, 0x00, 0x05, 0x24, 0x00, 0x00, 0x00, 0x28, 0x00, 0x00, 0x00, 0x01, 0x00, 0x00, 0x00, 0x1e, 0xff, 0xff, 0xff, 0x02, 0x00, 0x00, 0x00, 0x02, 0x00, 0x00, 0x00, 0x02, 0x00, 0x00, 0x00, 0x02, 0x00, 0x00, 0x00, 0x00, 0x00, 0x00, 0x01, 0x01, 0x00, 0x00, 0x00, 0x12, 0x00, 0x00, 0x00, 0x01, 0x00, 0x00, 0x00, 0x11, 0x00, 0x00, 0x00, 0x0e, 0xff, 0xff, 0xff, 0x10, 0x00, 0x00, 0x00, 0x00, 0x00, 0x00, 0x01, 0x18, 0x00, 0x00, 0x00, 0x1c, 0x00, 0x00, 0x00, 0x00, 0xff, 0xff, 0xff, 0x00, 0x00, 0x00, 0x01, 0x01, 0x00, 0x00, 0x00, 0x01, 0x00, 0x00, 0x00, 0x01, 0x00, 0x00, 0x00, 0x11, 0x00, 0x00, 0x00, 0x03, 0x00, 0x00, 0x00, 0x10, 0x00, 0x00, 0x00, 0x09, 0x00, 0x00, 0x00, 0x08, 0x00, 0x00, 0x00, 0xaa, 0xff, 0xff, 0xff, 0x24, 0x00, 0x00, 0x00, 0x00, 0x00, 0x00, 0x02, 0x30, 0x00, 0x00, 0x00, 0x34, 0x00, 0x00, 0x00, 0x02, 0x00, 0x00, 0x00, 0x00, 0x00, 0x0e, 0x00, 0x14, 0x00, 0x00, 0x00, 0x10, 0x00, 0x0c, 0x00, 0x08, 0x00, 0x07, 0x00, 0x0e, 0x00, 0x00, 0x00, 0x00, 0x00, 0x00, 0x01, 0x01, 0x00, 0x00, 0x00, 0x01, 0x00, 0x00, 0x00, 0x01, 0x00, 0x00, 0x00, 0x01, 0x00, 0x00, 0x00, 0x10, 0x00, 0x00, 0x00, 0x03, 0x00, 0x00, 0x00, 0x0f, 0x00, 0x00, 0x00, 0x0b, 0x00, 0x00, 0x00, 0x0a, 0x00, 0x00, 0x00, 0x00, 0x00, 0x0e, 0x00, 0x1a, 0x00, 0x14, 0x00, 0x10, 0x00, 0x0c, 0x00, 0x0b, 0x00, 0x04, 0x00, 0x0e, 0x00, 0x00, 0x00, 0x24, 0x00, 0x00, 0x00, 0x00, 0x00, 0x00, 0x05, 0x34, 0x00, 0x00, 0x00, 0x38, 0x00, 0x00, 0x00, 0x01, 0x00, 0x00, 0x00, 0x00, 0x00, 0x0e, 0x00, 0x18, 0x00, 0x17, 0x00, 0x10, 0x00, 0x0c, 0x00, 0x08, 0x00, 0x04, 0x00, 0x0e, 0x00, 0x00, 0x00, 0x02, 0x00, 0x00, 0x00, 0x02, 0x00, 0x00, 0x00, 0x02, 0x00, 0x00, 0x00, 0x02, 0x00, 0x00, 0x00, 0x00, 0x00, 0x00, 0x01, 0x01, 0x00, 0x00, 0x00, 0x0f, 0x00, 0x00, 0x00, 0x01, 0x00, 0x00, 0x00, 0x0e, 0x00, 0x00, 0x00, 0x00, 0x00, 0x0e, 0x00, 0x14, 0x00, 0x00, 0x00, 0x10, 0x00, 0x0c, 0x00, 0x0b, 0x00, 0x04, 0x00, 0x0e, 0x00, 0x00, 0x00, 0x1c, 0x00, 0x00, 0x00, 0x00, 0x00, 0x00, 0x01, 0x24, 0x00, 0x00, 0x00, 0x28, 0x00, 0x00, 0x00, 0x0c, 0x00, 0x10, 0x00, 0x00, 0x00, 0x0c, 0x00, 0x08, 0x00, 0x07, 0x00, 0x0c, 0x00, 0x00, 0x00, 0x00, 0x00, 0x00, 0x01, 0x01, 0x00, 0x00, 0x00, 0x01, 0x00, 0x00, 0x00, 0x01, 0x00, 0x00, 0x00, 0x0e, 0x00, 0x00, 0x00, 0x03, 0x00, 0x00, 0x00, 0x00, 0x00, 0x00, 0x00, 0x0d, 0x00, 0x00, 0x00, 0x0c, 0x00, 0x00, 0x00, 0x01, 0x00, 0x00, 0x00, 0x17, 0x00, 0x00, 0x00, 0x01, 0x00, 0x00, 0x00, 0x00, 0x00, 0x00, 0x00, 0x18, 0x00, 0x00, 0x00, 0x84, 0x1d, 0x00, 0x00, 0x28, 0x1d, 0x00, 0x00, 0x98, 0x1c, 0x00, 0x00, 0x1c, 0x1c, 0x00, 0x00, 0xc8, 0x18, 0x00, 0x00, 0x64, 0x15, 0x00, 0x00, 0x90, 0x13, 0x00, 0x00, 0x94, 0x11, 0x00, 0x00, 0xa8, 0x0f, 0x00, 0x00, 0xc4, 0x0d, 0x00, 0x00, 0xb0, 0x0c, 0x00, 0x00, 0x88, 0x0b, 0x00, 0x00, 0x70, 0x0a, 0x00, 0x00, 0x4c, 0x09, 0x00, 0x00, 0x38, 0x08, 0x00, 0x00, 0x9c, 0x07, 0x00, 0x00, 0x10, 0x06, 0x00, 0x00, 0xf4, 0x04, 0x00, 0x00, 0x58, 0x04, 0x00, 0x00, 0xcc, 0x02, 0x00, 0x00, 0xb0, 0x01, 0x00, 0x00, 0x1c, 0x01, 0x00, 0x00, 0x80, 0x00, 0x00, 0x00, 0x04, 0x00, 0x00, 0x00, 0xf2, 0xe2, 0xff, 0xff, 0x00, 0x00, 0x00, 0x01, 0x18, 0x00, 0x00, 0x00, 0x20, 0x00, 0x00, 0x00, 0x3c, 0x00, 0x00, 0x00, 0x18, 0x00, 0x00, 0x00, 0x00, 0x00, 0x00, 0x09, 0x50, 0x00, 0x00, 0x00, 0x02, 0x00, 0x00, 0x00, 0xff, 0xff, 0xff, 0xff, 0x03, 0x00, 0x00, 0x00, 0xd4, 0xe2, 0xff, 0xff, 0x08, 0x00, 0x00, 0x00, 0x10, 0x00, 0x00, 0x00, 0x01, 0x00, 0x00, 0x00, 0x80, 0xff, 0xff, 0xff, 0xff, 0xff, 0xff, 0xff, 0x01, 0x00, 0x00, 0x00, 0x00, 0x00, 0x80, 0x3b, 0x1b, 0x00, 0x00, 0x00, 0x53, 0x74, 0x61, 0x74, 0x65, 0x66, 0x75, 0x6c, 0x50, 0x61, 0x72, 0x74, 0x69, 0x74, 0x69, 0x6f, 0x6e, 0x65, 0x64, 0x43, 0x61, 0x6c, 0x6c, 0x5f, 0x31, 0x3a, 0x30, 0x00, 0x02, 0x00, 0x00, 0x00, 0x01, 0x00, 0x00, 0x00, 0x03, 0x00, 0x00, 0x00, 0x6a, 0xe3, 0xff, 0xff, 0x00, 0x00, 0x00, 0x01, 0x18, 0x00, 0x00, 0x00, 0x20, 0x00, 0x00, 0x00, 0x3c, 0x00, 0x00, 0x00, 0x17, 0x00, 0x00, 0x00, 0x00, 0x00, 0x00, 0x09, 0x70, 0x00, 0x00, 0x00, 0x02, 0x00, 0x00, 0x00, 0xff, 0xff, 0xff, 0xff, 0x03, 0x00, 0x00, 0x00, 0x4c, 0xe3, 0xff, 0xff, 0x08, 0x00, 0x00, 0x00, 0x10, 0x00, 0x00, 0x00, 0x01, 0x00, 0x00, 0x00, 0x2a, 0x00, 0x00, 0x00, 0x00, 0x00, 0x00, 0x00, 0x01, 0x00, 0x00, 0x00, 0x68, 0x14, 0x34, 0x3c, 0x38, 0x00, 0x00, 0x00, 0x73, 0x65, 0x71, 0x75, 0x65, 0x6e, 0x74, 0x69, 0x61, 0x6c, 0x5f, 0x31, 0x2f, 0x64, 0x65, 0x6e, 0x73, 0x65, 0x5f, 0x31, 0x2f, 0x4d, 0x61, 0x74, 0x4d, 0x75, 0x6c, 0x3b, 0x73, 0x65, 0x71, 0x75, 0x65, 0x6e, 0x74, 0x69, 0x61, 0x6c, 0x5f, 0x31, 0x2f, 0x64, 0x65, 0x6e, 0x73, 0x65, 0x5f, 0x31, 0x2f, 0x42, 0x69, 0x61, 0x73, 0x41, 0x64, 0x64, 0x00, 0x00, 0x00, 0x00, 0x02, 0x00, 0x00, 0x00, 0x01, 0x00, 0x00, 0x00, 0x03, 0x00, 0x00, 0x00, 0x02, 0xe4, 0xff, 0xff, 0x00, 0x00, 0x00, 0x01, 0x18, 0x00, 0x00, 0x00, 0x20, 0x00, 0x00, 0x00, 0x40, 0x00, 0x00, 0x00, 0x16, 0x00, 0x00, 0x00, 0x00, 0x00, 0x00, 0x09, 0x68, 0x00, 0x00, 0x00, 0x02, 0x00, 0x00, 0x00, 0xff, 0xff, 0xff, 0xff, 0x40, 0x00, 0x00, 0x00, 0xe4, 0xe3, 0xff, 0xff, 0x08, 0x00, 0x00, 0x00, 0x14, 0x00, 0x00, 0x00, 0x01, 0x00, 0x00, 0x00, 0x80, 0xff, 0xff, 0xff, 0xff, 0xff, 0xff, 0xff, 0x00, 0x00, 0x00, 0x00, 0x01, 0x00, 0x00, 0x00, 0xef, 0x59, 0x81, 0x3b, 0x2c, 0x00, 0x00, 0x00, 0x73, 0x65, 0x71, 0x75, 0x65, 0x6e, 0x74, 0x69, 0x61, 0x6c, 0x5f, 0x31, 0x2f, 0x67, 0x6c, 0x6f, 0x62, 0x61, 0x6c, 0x5f, 0x61, 0x76, 0x65, 0x72, 0x61, 0x67, 0x65, 0x5f, 0x70, 0x6f, 0x6f, 0x6c, 0x69, 0x6e, 0x67, 0x32, 0x64, 0x5f, 0x31, 0x2f, 0x4d, 0x65, 0x61, 0x6e, 0x00, 0x00, 0x00, 0x00, 0x02, 0x00, 0x00, 0x00, 0x01, 0x00, 0x00, 0x00, 0x40, 0x00, 0x00, 0x00, 0x92, 0xe4, 0xff, 0xff, 0x00, 0x00, 0x00, 0x01, 0x18, 0x00, 0x00, 0x00, 0x28, 0x00, 0x00, 0x00, 0x48, 0x00, 0x00, 0x00, 0x15, 0x00, 0x00, 0x00, 0x00, 0x00, 0x00, 0x09, 0xe8, 0x00, 0x00, 0x00, 0x04, 0x00, 0x00, 0x00, 0xff, 0xff, 0xff, 0xff, 0x10, 0x00, 0x00, 0x00, 0x0f, 0x00, 0x00, 0x00, 0x40, 0x00, 0x00, 0x00, 0x7c, 0xe4, 0xff, 0xff, 0x08, 0x00, 0x00, 0x00, 0x14, 0x00, 0x00, 0x00, 0x01, 0x00, 0x00, 0x00, 0x80, 0xff, 0xff, 0xff, 0xff, 0xff, 0xff, 0xff, 0x00, 0x00, 0x00, 0x00, 0x01, 0x00, 0x00, 0x00, 0x41, 0x46, 0x02, 0x3c, 0xa7, 0x00, 0x00, 0x00, 0x73, 0x65, 0x71, 0x75, 0x65, 0x6e, 0x74, 0x69, 0x61, 0x6c, 0x5f, 0x31, 0x2f, 0x72, 0x65, 0x5f, 0x6c, 0x75, 0x5f, 0x34, 0x5f, 0x31, 0x2f, 0x52, 0x65, 0x6c, 0x75, 0x3b, 0x73, 0x65, 0x71, 0x75, 0x65, 0x6e, 0x74, 0x69, 0x61, 0x6c, 0x5f, 0x31, 0x2f, 0x62, 0x61, 0x74, 0x63, 0x68, 0x5f, 0x6e, 0x6f, 0x72, 0x6d, 0x61, 0x6c, 0x69, 0x7a, 0x61, 0x74, 0x69, 0x6f, 0x6e, 0x5f, 0x34, 0x5f, 0x31, 0x2f, 0x62, 0x61, 0x74, 0x63, 0x68, 0x6e, 0x6f, 0x72, 0x6d, 0x2f, 0x61, 0x64, 0x64, 0x5f, 0x31, 0x3b, 0x73, 0x65, 0x71, 0x75, 0x65, 0x6e, 0x74, 0x69, 0x61, 0x6c, 0x5f, 0x31, 0x2f, 0x63, 0x6f, 0x6e, 0x76, 0x32, 0x64, 0x5f, 0x32, 0x5f, 0x31, 0x2f, 0x63, 0x6f, 0x6e, 0x76, 0x6f, 0x6c, 0x75, 0x74, 0x69, 0x6f, 0x6e, 0x3b, 0x73, 0x65, 0x71, 0x75, 0x65, 0x6e, 0x74, 0x69, 0x61, 0x6c, 0x5f, 0x31, 0x2f, 0x62, 0x61, 0x74, 0x63, 0x68, 0x5f, 0x6e, 0x6f, 0x72, 0x6d, 0x61, 0x6c, 0x69, 0x7a, 0x61, 0x74, 0x69, 0x6f, 0x6e, 0x5f, 0x34, 0x5f, 0x31, 0x2f, 0x62, 0x61, 0x74, 0x63, 0x68, 0x6e, 0x6f, 0x72, 0x6d, 0x2f, 0x73, 0x75, 0x62, 0x00, 0x04, 0x00, 0x00, 0x00, 0x01, 0x00, 0x00, 0x00, 0x10, 0x00, 0x00, 0x00, 0x0f, 0x00, 0x00, 0x00, 0x40, 0x00, 0x00, 0x00, 0xaa, 0xe5, 0xff, 0xff, 0x00, 0x00, 0x00, 0x01, 0x18, 0x00, 0x00, 0x00, 0x28, 0x00, 0x00, 0x00, 0x48, 0x00, 0x00, 0x00, 0x14, 0x00, 0x00, 0x00, 0x00, 0x00, 0x00, 0x09, 0x58, 0x01, 0x00, 0x00, 0x04, 0x00, 0x00, 0x00, 0xff, 0xff, 0xff, 0xff, 0x10, 0x00, 0x00, 0x00, 0x0f, 0x00, 0x00, 0x00, 0x20, 0x00, 0x00, 0x00, 0x94, 0xe5, 0xff, 0xff, 0x08, 0x00, 0x00, 0x00, 0x14, 0x00, 0x00, 0x00, 0x01, 0x00, 0x00, 0x00, 0x80, 0xff, 0xff, 0xff, 0xff, 0xff, 0xff, 0xff, 0x00, 0x00, 0x00, 0x00, 0x01, 0x00, 0x00, 0x00, 0xe7, 0x5a, 0x2b, 0x3c, 0x17, 0x01, 0x00, 0x00, 0x73, 0x65, 0x71, 0x75, 0x65, 0x6e, 0x74, 0x69, 0x61, 0x6c, 0x5f, 0x31, 0x2f, 0x72, 0x65, 0x5f, 0x6c, 0x75, 0x5f, 0x33, 0x5f, 0x31, 0x2f, 0x52, 0x65, 0x6c, 0x75, 0x3b, 0x73, 0x65, 0x71, 0x75, 0x65, 0x6e, 0x74, 0x69, 0x61, 0x6c, 0x5f, 0x31, 0x2f, 0x62, 0x61, 0x74, 0x63, 0x68, 0x5f, 0x6e, 0x6f, 0x72, 0x6d, 0x61, 0x6c, 0x69, 0x7a, 0x61, 0x74, 0x69, 0x6f, 0x6e, 0x5f, 0x33, 0x5f, 0x31, 0x2f, 0x62, 0x61, 0x74, 0x63, 0x68, 0x6e, 0x6f, 0x72, 0x6d, 0x2f, 0x61, 0x64, 0x64, 0x5f, 0x31, 0x3b, 0x73, 0x65, 0x71, 0x75, 0x65, 0x6e, 0x74, 0x69, 0x61, 0x6c, 0x5f, 0x31, 0x2f, 0x62, 0x61, 0x74, 0x63, 0x68, 0x5f, 0x6e, 0x6f, 0x72, 0x6d, 0x61, 0x6c, 0x69, 0x7a, 0x61, 0x74, 0x69, 0x6f, 0x6e, 0x5f, 0x33, 0x5f, 0x31, 0x2f, 0x62, 0x61, 0x74, 0x63, 0x68, 0x6e, 0x6f, 0x72, 0x6d, 0x2f, 0x6d, 0x75, 0x6c, 0x5f, 0x31, 0x3b, 0x73, 0x65, 0x71, 0x75, 0x65, 0x6e, 0x74, 0x69, 0x61, 0x6c, 0x5f, 0x31, 0x2f, 0x64, 0x65, 0x70, 0x74, 0x68, 0x77, 0x69, 0x73, 0x65, 0x5f, 0x63, 0x6f, 0x6e, 0x76, 0x32, 0x64, 0x5f, 0x31, 0x5f, 0x32, 0x2f, 0x64, 0x65, 0x70, 0x74, 0x68, 0x77, 0x69, 0x73, 0x65, 0x3b, 0x73, 0x65, 0x71, 0x75, 0x65, 0x6e, 0x74, 0x69, 0x61, 0x6c, 0x5f, 0x31, 0x2f, 0x62, 0x61, 0x74, 0x63, 0x68, 0x5f, 0x6e, 0x6f, 0x72, 0x6d, 0x61, 0x6c, 0x69, 0x7a, 0x61, 0x74, 0x69, 0x6f, 0x6e, 0x5f, 0x33, 0x5f, 0x31, 0x2f, 0x62, 0x61, 0x74, 0x63, 0x68, 0x6e, 0x6f, 0x72, 0x6d, 0x2f, 0x6d, 0x75, 0x6c, 0x3b, 0x73, 0x65, 0x71, 0x75, 0x65, 0x6e, 0x74, 0x69, 0x61, 0x6c, 0x5f, 0x31, 0x2f, 0x62, 0x61, 0x74, 0x63, 0x68, 0x5f, 0x6e, 0x6f, 0x72, 0x6d, 0x61, 0x6c, 0x69, 0x7a, 0x61, 0x74, 0x69, 0x6f, 0x6e, 0x5f, 0x33, 0x5f, 0x31, 0x2f, 0x62, 0x61, 0x74, 0x63, 0x68, 0x6e, 0x6f, 0x72, 0x6d, 0x2f, 0x73, 0x75, 0x62, 0x00, 0x04, 0x00, 0x00, 0x00, 0x01, 0x00, 0x00, 0x00, 0x10, 0x00, 0x00, 0x00, 0x0f, 0x00, 0x00, 0x00, 0x20, 0x00, 0x00, 0x00, 0x32, 0xe7, 0xff, 0xff, 0x00, 0x00, 0x00, 0x01, 0x18, 0x00, 0x00, 0x00, 0x28, 0x00, 0x00, 0x00, 0x44, 0x00, 0x00, 0x00, 0x13, 0x00, 0x00, 0x00, 0x00, 0x00, 0x00, 0x09, 0x68, 0x00, 0x00, 0x00, 0x04, 0x00, 0x00, 0x00, 0xff, 0xff, 0xff, 0xff, 0x10, 0x00, 0x00, 0x00, 0x0f, 0x00, 0x00, 0x00, 0x20, 0x00, 0x00, 0x00, 0x1c, 0xe7, 0xff, 0xff, 0x08, 0x00, 0x00, 0x00, 0x10, 0x00, 0x00, 0x00, 0x01, 0x00, 0x00, 0x00, 0x80, 0xff, 0xff, 0xff, 0xff, 0xff, 0xff, 0xff, 0x01, 0x00, 0x00, 0x00, 0xab, 0xa5, 0x99, 0x3c, 0x28, 0x00, 0x00, 0x00, 0x73, 0x65, 0x71, 0x75, 0x65, 0x6e, 0x74, 0x69, 0x61, 0x6c, 0x5f, 0x31, 0x2f, 0x6d, 0x61, 0x78, 0x5f, 0x70, 0x6f, 0x6f, 0x6c, 0x69, 0x6e, 0x67, 0x32, 0x64, 0x5f, 0x31, 0x5f, 0x32, 0x2f, 0x4d, 0x61, 0x78, 0x50, 0x6f, 0x6f, 0x6c, 0x32, 0x64, 0x00, 0x00, 0x00, 0x00, 0x04, 0x00, 0x00, 0x00, 0x01, 0x00, 0x00, 0x00, 0x10, 0x00, 0x00, 0x00, 0x0f, 0x00, 0x00, 0x00, 0x20, 0x00, 0x00, 0x00, 0xca, 0xe7, 0xff, 0xff, 0x00, 0x00, 0x00, 0x01, 0x18, 0x00, 0x00, 0x00, 0x28, 0x00, 0x00, 0x00, 0x48, 0x00, 0x00, 0x00, 0x12, 0x00, 0x00, 0x00, 0x00, 0x00, 0x00, 0x09, 0xe8, 0x00, 0x00, 0x00, 0x04, 0x00, 0x00, 0x00, 0xff, 0xff, 0xff, 0xff, 0x20, 0x00, 0x00, 0x00, 0x1f, 0x00, 0x00, 0x00, 0x20, 0x00, 0x00, 0x00, 0xb4, 0xe7, 0xff, 0xff, 0x08, 0x00, 0x00, 0x00, 0x14, 0x00, 0x00, 0x00, 0x01, 0x00, 0x00, 0x00, 0x80, 0xff, 0xff, 0xff, 0xff, 0xff, 0xff, 0xff, 0x00, 0x00, 0x00, 0x00, 0x01, 0x00, 0x00, 0x00, 0xab, 0xa5, 0x99, 0x3c, 0xa7, 0x00, 0x00, 0x00, 0x73, 0x65, 0x71, 0x75, 0x65, 0x6e, 0x74, 0x69, 0x61, 0x6c, 0x5f, 0x31, 0x2f, 0x72, 0x65, 0x5f, 0x6c, 0x75, 0x5f, 0x32, 0x5f, 0x31, 0x2f, 0x52, 0x65, 0x6c, 0x75, 0x3b, 0x73, 0x65, 0x71, 0x75, 0x65, 0x6e, 0x74, 0x69, 0x61, 0x6c, 0x5f, 0x31, 0x2f, 0x62, 0x61, 0x74, 0x63, 0x68, 0x5f, 0x6e, 0x6f, 0x72, 0x6d, 0x61, 0x6c, 0x69, 0x7a, 0x61, 0x74, 0x69, 0x6f, 0x6e, 0x5f, 0x32, 0x5f, 0x31, 0x2f, 0x62, 0x61, 0x74, 0x63, 0x68, 0x6e, 0x6f, 0x72, 0x6d, 0x2f, 0x61, 0x64, 0x64, 0x5f, 0x31, 0x3b, 0x73, 0x65, 0x71, 0x75, 0x65, 0x6e, 0x74, 0x69, 0x61, 0x6c, 0x5f, 0x31, 0x2f, 0x63, 0x6f, 0x6e, 0x76, 0x32, 0x64, 0x5f, 0x31, 0x5f, 0x32, 0x2f, 0x63, 0x6f, 0x6e, 0x76, 0x6f, 0x6c, 0x75, 0x74, 0x69, 0x6f, 0x6e, 0x3b, 0x73, 0x65, 0x71, 0x75, 0x65, 0x6e, 0x74, 0x69, 0x61, 0x6c, 0x5f, 0x31, 0x2f, 0x62, 0x61, 0x74, 0x63, 0x68, 0x5f, 0x6e, 0x6f, 0x72, 0x6d, 0x61, 0x6c, 0x69, 0x7a, 0x61, 0x74, 0x69, 0x6f, 0x6e, 0x5f, 0x32, 0x5f, 0x31, 0x2f, 0x62, 0x61, 0x74, 0x63, 0x68, 0x6e, 0x6f, 0x72, 0x6d, 0x2f, 0x73, 0x75, 0x62, 0x00, 0x04, 0x00, 0x00, 0x00, 0x01, 0x00, 0x00, 0x00, 0x20, 0x00, 0x00, 0x00, 0x1f, 0x00, 0x00, 0x00, 0x20, 0x00, 0x00, 0x00, 0xe2, 0xe8, 0xff, 0xff, 0x00, 0x00, 0x00, 0x01, 0x18, 0x00, 0x00, 0x00, 0x28, 0x00, 0x00, 0x00, 0x48, 0x00, 0x00, 0x00, 0x11, 0x00, 0x00, 0x00, 0x00, 0x00, 0x00, 0x09, 0x58, 0x01, 0x00, 0x00, 0x04, 0x00, 0x00, 0x00, 0xff, 0xff, 0xff, 0xff, 0x20, 0x00, 0x00, 0x00, 0x1f, 0x00, 0x00, 0x00, 0x10, 0x00, 0x00, 0x00, 0xcc, 0xe8, 0xff, 0xff, 0x08, 0x00, 0x00, 0x00, 0x14, 0x00, 0x00, 0x00, 0x01, 0x00, 0x00, 0x00, 0x80, 0xff, 0xff, 0xff, 0xff, 0xff, 0xff, 0xff, 0x00, 0x00, 0x00, 0x00, 0x01, 0x00, 0x00, 0x00, 0x01, 0x43, 0xbd, 0x3c, 0x15, 0x01, 0x00, 0x00, 0x73, 0x65, 0x71, 0x75, 0x65, 0x6e, 0x74, 0x69, 0x61, 0x6c, 0x5f, 0x31, 0x2f, 0x72, 0x65, 0x5f, 0x6c, 0x75, 0x5f, 0x31, 0x5f, 0x32, 0x2f, 0x52, 0x65, 0x6c, 0x75, 0x3b, 0x73, 0x65, 0x71, 0x75, 0x65, 0x6e, 0x74, 0x69, 0x61, 0x6c, 0x5f, 0x31, 0x2f, 0x62, 0x61, 0x74, 0x63, 0x68, 0x5f, 0x6e, 0x6f, 0x72, 0x6d, 0x61, 0x6c, 0x69, 0x7a, 0x61, 0x74, 0x69, 0x6f, 0x6e, 0x5f, 0x31, 0x5f, 0x32, 0x2f, 0x62, 0x61, 0x74, 0x63, 0x68, 0x6e, 0x6f, 0x72, 0x6d, 0x2f, 0x61, 0x64, 0x64, 0x5f, 0x31, 0x3b, 0x73, 0x65, 0x71, 0x75, 0x65, 0x6e, 0x74, 0x69, 0x61, 0x6c, 0x5f, 0x31, 0x2f, 0x62, 0x61, 0x74, 0x63, 0x68, 0x5f, 0x6e, 0x6f, 0x72, 0x6d, 0x61, 0x6c, 0x69, 0x7a, 0x61, 0x74, 0x69, 0x6f, 0x6e, 0x5f, 0x31, 0x5f, 0x32, 0x2f, 0x62, 0x61, 0x74, 0x63, 0x68, 0x6e, 0x6f, 0x72, 0x6d, 0x2f, 0x6d, 0x75, 0x6c, 0x5f, 0x31, 0x3b, 0x73, 0x65, 0x71, 0x75, 0x65, 0x6e, 0x74, 0x69, 0x61, 0x6c, 0x5f, 0x31, 0x2f, 0x64, 0x65, 0x70, 0x74, 0x68, 0x77, 0x69, 0x73, 0x65, 0x5f, 0x63, 0x6f, 0x6e, 0x76, 0x32, 0x64, 0x5f, 0x31, 0x2f, 0x64, 0x65, 0x70, 0x74, 0x68, 0x77, 0x69, 0x73, 0x65, 0x3b, 0x73, 0x65, 0x71, 0x75, 0x65, 0x6e, 0x74, 0x69, 0x61, 0x6c, 0x5f, 0x31, 0x2f, 0x62, 0x61, 0x74, 0x63, 0x68, 0x5f, 0x6e, 0x6f, 0x72, 0x6d, 0x61, 0x6c, 0x69, 0x7a, 0x61, 0x74, 0x69, 0x6f, 0x6e, 0x5f, 0x31, 0x5f, 0x32, 0x2f, 0x62, 0x61, 0x74, 0x63, 0x68, 0x6e, 0x6f, 0x72, 0x6d, 0x2f, 0x6d, 0x75, 0x6c, 0x3b, 0x73, 0x65, 0x71, 0x75, 0x65, 0x6e, 0x74, 0x69, 0x61, 0x6c, 0x5f, 0x31, 0x2f, 0x62, 0x61, 0x74, 0x63, 0x68, 0x5f, 0x6e, 0x6f, 0x72, 0x6d, 0x61, 0x6c, 0x69, 0x7a, 0x61, 0x74, 0x69, 0x6f, 0x6e, 0x5f, 0x31, 0x5f, 0x32, 0x2f, 0x62, 0x61, 0x74, 0x63, 0x68, 0x6e, 0x6f, 0x72, 0x6d, 0x2f, 0x73, 0x75, 0x62, 0x00, 0x00, 0x00, 0x04, 0x00, 0x00, 0x00, 0x01, 0x00, 0x00, 0x00, 0x20, 0x00, 0x00, 0x00, 0x1f, 0x00, 0x00, 0x00, 0x10, 0x00, 0x00, 0x00, 0x6a, 0xea, 0xff, 0xff, 0x00, 0x00, 0x00, 0x01, 0x18, 0x00, 0x00, 0x00, 0x28, 0x00, 0x00, 0x00, 0x48, 0x00, 0x00, 0x00, 0x10, 0x00, 0x00, 0x00, 0x00, 0x00, 0x00, 0x09, 0x68, 0x00, 0x00, 0x00, 0x04, 0x00, 0x00, 0x00, 0xff, 0xff, 0xff, 0xff, 0x20, 0x00, 0x00, 0x00, 0x1f, 0x00, 0x00, 0x00, 0x10, 0x00, 0x00, 0x00, 0x54, 0xea, 0xff, 0xff, 0x08, 0x00, 0x00, 0x00, 0x14, 0x00, 0x00, 0x00, 0x01, 0x00, 0x00, 0x00, 0x80, 0xff, 0xff, 0xff, 0xff, 0xff, 0xff, 0xff, 0x00, 0x00, 0x00, 0x00, 0x01, 0x00, 0x00, 0x00, 0xd9, 0xc0, 0x46, 0x3d, 0x26, 0x00, 0x00, 0x00, 0x73, 0x65, 0x71, 0x75, 0x65, 0x6e, 0x74, 0x69, 0x61, 0x6c, 0x5f, 0x31, 0x2f, 0x6d, 0x61, 0x78, 0x5f, 0x70, 0x6f, 0x6f, 0x6c, 0x69, 0x6e, 0x67, 0x32, 0x64, 0x5f, 0x31, 0x2f, 0x4d, 0x61, 0x78, 0x50, 0x6f, 0x6f, 0x6c, 0x32, 0x64, 0x00, 0x00, 0x04, 0x00, 0x00, 0x00, 0x01, 0x00, 0x00, 0x00, 0x20, 0x00, 0x00, 0x00, 0x1f, 0x00, 0x00, 0x00, 0x10, 0x00, 0x00, 0x00, 0x02, 0xeb, 0xff, 0xff, 0x00, 0x00, 0x00, 0x01, 0x18, 0x00, 0x00, 0x00, 0x28, 0x00, 0x00, 0x00, 0x44, 0x00, 0x00, 0x00, 0x0f, 0x00, 0x00, 0x00, 0x00, 0x00, 0x00, 0x09, 0xe0, 0x00, 0x00, 0x00, 0x04, 0x00, 0x00, 0x00, 0xff, 0xff, 0xff, 0xff, 0x40, 0x00, 0x00, 0x00, 0x3f, 0x00, 0x00, 0x00, 0x10, 0x00, 0x00, 0x00, 0xec, 0xea, 0xff, 0xff, 0x08, 0x00, 0x00, 0x00, 0x10, 0x00, 0x00, 0x00, 0x01, 0x00, 0x00, 0x00, 0x80, 0xff, 0xff, 0xff, 0xff, 0xff, 0xff, 0xff, 0x01, 0x00, 0x00, 0x00, 0xd9, 0xc0, 0x46, 0x3d, 0xa0, 0x00, 0x00, 0x00, 0x73, 0x65, 0x71, 0x75, 0x65, 0x6e, 0x74, 0x69, 0x61, 0x6c, 0x5f, 0x31, 0x2f, 0x72, 0x65, 0x5f, 0x6c, 0x75, 0x5f, 0x31, 0x2f, 0x52, 0x65, 0x6c, 0x75, 0x3b, 0x73, 0x65, 0x71, 0x75, 0x65, 0x6e, 0x74, 0x69, 0x61, 0x6c, 0x5f, 0x31, 0x2f, 0x62, 0x61, 0x74, 0x63, 0x68, 0x5f, 0x6e, 0x6f, 0x72, 0x6d, 0x61, 0x6c, 0x69, 0x7a, 0x61, 0x74, 0x69, 0x6f, 0x6e, 0x5f, 0x31, 0x2f, 0x62, 0x61, 0x74, 0x63, 0x68, 0x6e, 0x6f, 0x72, 0x6d, 0x2f, 0x61, 0x64, 0x64, 0x5f, 0x31, 0x3b, 0x73, 0x65, 0x71, 0x75, 0x65, 0x6e, 0x74, 0x69, 0x61, 0x6c, 0x5f, 0x31, 0x2f, 0x63, 0x6f, 0x6e, 0x76, 0x32, 0x64, 0x5f, 0x31, 0x2f, 0x63, 0x6f, 0x6e, 0x76, 0x6f, 0x6c, 0x75, 0x74, 0x69, 0x6f, 0x6e, 0x3b, 0x73, 0x65, 0x71, 0x75, 0x65, 0x6e, 0x74, 0x69, 0x61, 0x6c, 0x5f, 0x31, 0x2f, 0x62, 0x61, 0x74, 0x63, 0x68, 0x5f, 0x6e, 0x6f, 0x72, 0x6d, 0x61, 0x6c, 0x69, 0x7a, 0x61, 0x74, 0x69, 0x6f, 0x6e, 0x5f, 0x31, 0x2f, 0x62, 0x61, 0x74, 0x63, 0x68, 0x6e, 0x6f, 0x72, 0x6d, 0x2f, 0x73, 0x75, 0x62, 0x31, 0x00, 0x00, 0x00, 0x00, 0x04, 0x00, 0x00, 0x00, 0x01, 0x00, 0x00, 0x00, 0x40, 0x00, 0x00, 0x00, 0x3f, 0x00, 0x00, 0x00, 0x10, 0x00, 0x00, 0x00, 0x6a, 0xec, 0xff, 0xff, 0x00, 0x00, 0x00, 0x01, 0x14, 0x00, 0x00, 0x00, 0xe8, 0x00, 0x00, 0x00, 0x0e, 0x00, 0x00, 0x00, 0x00, 0x00, 0x00, 0x09, 0xf4, 0x00, 0x00, 0x00, 0xe4, 0xeb, 0xff, 0xff, 0x08, 0x00, 0x00, 0x00, 0x8c, 0x00, 0x00, 0x00, 0x10, 0x00, 0x00, 0x00, 0x00, 0x00, 0x00, 0x00, 0x00, 0x00, 0x00, 0x00, 0x00, 0x00, 0x00, 0x00, 0x00, 0x00, 0x00, 0x00, 0x00, 0x00, 0x00, 0x00, 0x00, 0x00, 0x00, 0x00, 0x00, 0x00, 0x00, 0x00, 0x00, 0x00, 0x00, 0x00, 0x00, 0x00, 0x00, 0x00, 0x00, 0x00, 0x00, 0x00, 0x00, 0x00, 0x00, 0x00, 0x00, 0x00, 0x00, 0x00, 0x00, 0x00, 0x00, 0x00, 0x00, 0x00, 0x00, 0x00, 0x00, 0x00, 0x00, 0x00, 0x00, 0x00, 0x00, 0x00, 0x00, 0x00, 0x00, 0x00, 0x00, 0x00, 0x00, 0x00, 0x00, 0x00, 0x00, 0x00, 0x00, 0x00, 0x00, 0x00, 0x00, 0x00, 0x00, 0x00, 0x00, 0x00, 0x00, 0x00, 0x00, 0x00, 0x00, 0x00, 0x00, 0x00, 0x00, 0x00, 0x00, 0x00, 0x00, 0x00, 0x00, 0x00, 0x00, 0x00, 0x00, 0x00, 0x00, 0x00, 0x00, 0x00, 0x00, 0x00, 0x00, 0x00, 0x00, 0x00, 0x00, 0x00, 0x00, 0x00, 0x00, 0x00, 0x00, 0x00, 0x00, 0x00, 0x00, 0x00, 0x00, 0x00, 0x00, 0x00, 0x10, 0x00, 0x00, 0x00, 0x85, 0xad, 0x00, 0x3a, 0xa1, 0xfe, 0x3f, 0x3a, 0xfc, 0xdd, 0x8a, 0x3a, 0xc5, 0xdc, 0x3a, 0x3a, 0xd7, 0xf5, 0x15, 0x3a, 0xd7, 0x89, 0xa3, 0x39, 0x0f, 0x1b, 0x0b, 0x3a, 0x6d, 0x15, 0x46, 0x39, 0xa0, 0x28, 0x42, 0x39, 0xfb, 0x44, 0x14, 0x3a, 0xf2, 0x2e, 0x4e, 0x3a, 0x34, 0x36, 0x84, 0x39, 0x9e, 0x37, 0xbd, 0x39, 0x23, 0x5c, 0x62, 0x39, 0xf3, 0x95, 0x1a, 0x3a, 0x19, 0xbe, 0x8c, 0x39, 0x13, 0x00, 0x00, 0x00, 0x74, 0x66, 0x6c, 0x2e, 0x70, 0x73, 0x65, 0x75, 0x64, 0x6f, 0x5f, 0x71, 0x63, 0x6f, 0x6e, 0x73, 0x74, 0x31, 0x31, 0x00, 0x04, 0x00, 0x00, 0x00, 0x10, 0x00, 0x00, 0x00, 0x03, 0x00, 0x00, 0x00, 0x03, 0x00, 0x00, 0x00, 0x01, 0x00, 0x00, 0x00, 0x8a, 0xed, 0xff, 0xff, 0x00, 0x00, 0x00, 0x01, 0x14, 0x00, 0x00, 0x00, 0xe8, 0x00, 0x00, 0x00, 0x0d, 0x00, 0x00, 0x00, 0x00, 0x00, 0x00, 0x02, 0xf4, 0x00, 0x00, 0x00, 0x04, 0xed, 0xff, 0xff, 0x08, 0x00, 0x00, 0x00, 0x8c, 0x00, 0x00, 0x00, 0x10, 0x00, 0x00, 0x00, 0x00, 0x00, 0x00, 0x00, 0x00, 0x00, 0x00, 0x00, 0x00, 0x00, 0x00, 0x00, 0x00, 0x00, 0x00, 0x00, 0x00, 0x00, 0x00, 0x00, 0x00, 0x00, 0x00, 0x00, 0x00, 0x00, 0x00, 0x00, 0x00, 0x00, 0x00, 0x00, 0x00, 0x00, 0x00, 0x00, 0x00, 0x00, 0x00, 0x00, 0x00, 0x00, 0x00, 0x00, 0x00, 0x00, 0x00, 0x00, 0x00, 0x00, 0x00, 0x00, 0x00, 0x00, 0x00, 0x00, 0x00, 0x00, 0x00, 0x00, 0x00, 0x00, 0x00, 0x00, 0x00, 0x00, 0x00, 0x00, 0x00, 0x00, 0x00, 0x00, 0x00, 0x00, 0x00, 0x00, 0x00, 0x00, 0x00, 0x00, 0x00, 0x00, 0x00, 0x00, 0x00, 0x00, 0x00, 0x00, 0x00, 0x00, 0x00, 0x00, 0x00, 0x00, 0x00, 0x00, 0x00, 0x00, 0x00, 0x00, 0x00, 0x00, 0x00, 0x00, 0x00, 0x00, 0x00, 0x00, 0x00, 0x00, 0x00, 0x00, 0x00, 0x00, 0x00, 0x00, 0x00, 0x00, 0x00, 0x00, 0x00, 0x00, 0x00, 0x00, 0x00, 0x00, 0x00, 0x00, 0x00, 0x00, 0x00, 0x00, 0x10, 0x00, 0x00, 0x00, 0x61, 0x7a, 0x21, 0x39, 0x39, 0xef, 0x70, 0x39, 0xbf, 0x43, 0xae, 0x39, 0x75, 0x7e, 0x6a, 0x39, 0x7d, 0x2f, 0x3c, 0x39, 0x87, 0x39, 0xcd, 0x38, 0x64, 0x90, 0x2e, 0x39, 0x5c, 0x93, 0x78, 0x38, 0x6f, 0xa6, 0x73, 0x38, 0x4a, 0x10, 0x3a, 0x39, 0xb6, 0x5e, 0x81, 0x39, 0xab, 0xe9, 0xa5, 0x38, 0xf9, 0x72, 0xed, 0x38, 0x9e, 0x07, 0x8e, 0x38, 0x6e, 0xfd, 0x41, 0x39, 0x3e, 0x9e, 0xb0, 0x38, 0x13, 0x00, 0x00, 0x00, 0x74, 0x66, 0x6c, 0x2e, 0x70, 0x73, 0x65, 0x75, 0x64, 0x6f, 0x5f, 0x71, 0x63, 0x6f, 0x6e, 0x73, 0x74, 0x31, 0x30, 0x00, 0x01, 0x00, 0x00, 0x00, 0x10, 0x00, 0x00, 0x00, 0x9e, 0xee, 0xff, 0xff, 0x00, 0x00, 0x00, 0x01, 0x14, 0x00, 0x00, 0x00, 0xec, 0x00, 0x00, 0x00, 0x0c, 0x00, 0x00, 0x00, 0x00, 0x00, 0x00, 0x09, 0xf8, 0x00, 0x00, 0x00, 0x02, 0xfa, 0xff, 0xff, 0x03, 0x00, 0x00, 0x00, 0x08, 0x00, 0x00, 0x00, 0x8c, 0x00, 0x00, 0x00, 0x10, 0x00, 0x00, 0x00, 0x00, 0x00, 0x00, 0x00, 0x00, 0x00, 0x00, 0x00, 0x00, 0x00, 0x00, 0x00, 0x00, 0x00, 0x00, 0x00, 0x00, 0x00, 0x00, 0x00, 0x00, 0x00, 0x00, 0x00, 0x00, 0x00, 0x00, 0x00, 0x00, 0x00, 0x00, 0x00, 0x00, 0x00, 0x00, 0x00, 0x00, 0x00, 0x00, 0x00, 0x00, 0x00, 0x00, 0x00, 0x00, 0x00, 0x00, 0x00, 0x00, 0x00, 0x00, 0x00, 0x00, 0x00, 0x00, 0x00, 0x00, 0x00, 0x00, 0x00, 0x00, 0x00, 0x00, 0x00, 0x00, 0x00, 0x00, 0x00, 0x00, 0x00, 0x00, 0x00, 0x00, 0x00, 0x00, 0x00, 0x00, 0x00, 0x00, 0x00, 0x00, 0x00, 0x00, 0x00, 0x00, 0x00, 0x00, 0x00, 0x00, 0x00, 0x00, 0x00, 0x00, 0x00, 0x00, 0x00, 0x00, 0x00, 0x00, 0x00, 0x00, 0x00, 0x00, 0x00, 0x00, 0x00, 0x00, 0x00, 0x00, 0x00, 0x00, 0x00, 0x00, 0x00, 0x00, 0x00, 0x00, 0x00, 0x00, 0x00, 0x00, 0x00, 0x00, 0x00, 0x00, 0x00, 0x00, 0x00, 0x00, 0x00, 0x00, 0x00, 0x10, 0x00, 0x00, 0x00, 0x2b, 0x4d, 0x6f, 0x3b, 0xfe, 0xb7, 0x7a, 0x3b, 0x5c, 0xaf, 0x69, 0x3b, 0xdb, 0xd9, 0x99, 0x3b, 0x88, 0x06, 0x91, 0x3b, 0xe0, 0xcc, 0x99, 0x3b, 0xdc, 0xce, 0x97, 0x3b, 0x84, 0x65, 0x80, 0x3b, 0xfd, 0x24, 0x58, 0x3b, 0x5e, 0xe2, 0x4a, 0x3b, 0x66, 0x11, 0x4c, 0x3b, 0x3d, 0xa1, 0x90, 0x3b, 0xb3, 0x4e, 0x64, 0x3b, 0x0f, 0x7a, 0x8b, 0x3b, 0x1c, 0x12, 0x8d, 0x3b, 0x2d, 0xbc, 0xa2, 0x3b, 0x12, 0x00, 0x00, 0x00, 0x74, 0x66, 0x6c, 0x2e, 0x70, 0x73, 0x65, 0x75, 0x64, 0x6f, 0x5f, 0x71, 0x63, 0x6f, 0x6e, 0x73, 0x74, 0x39, 0x00, 0x00, 0x04, 0x00, 0x00, 0x00, 0x01, 0x00, 0x00, 0x00, 0x03, 0x00, 0x00, 0x00, 0x03, 0x00, 0x00, 0x00, 0x10, 0x00, 0x00, 0x00, 0xc2, 0xef, 0xff, 0xff, 0x00, 0x00, 0x00, 0x01, 0x14, 0x00, 0x00, 0x00, 0xe4, 0x00, 0x00, 0x00, 0x0b, 0x00, 0x00, 0x00, 0x00, 0x00, 0x00, 0x02, 0xf0, 0x00, 0x00, 0x00, 0x3c, 0xef, 0xff, 0xff, 0x08, 0x00, 0x00, 0x00, 0x88, 0x00, 0x00, 0x00, 0x10, 0x00, 0x00, 0x00, 0x00, 0x00, 0x00, 0x00, 0x00, 0x00, 0x00, 0x00, 0x00, 0x00, 0x00, 0x00, 0x00, 0x00, 0x00, 0x00, 0x00, 0x00, 0x00, 0x00, 0x00, 0x00, 0x00, 0x00, 0x00, 0x00, 0x00, 0x00, 0x00, 0x00, 0x00, 0x00, 0x00, 0x00, 0x00, 0x00, 0x00, 0x00, 0x00, 0x00, 0x00, 0x00, 0x00, 0x00, 0x00, 0x00, 0x00, 0x00, 0x00, 0x00, 0x00, 0x00, 0x00, 0x00, 0x00, 0x00, 0x00, 0x00, 0x00, 0x00, 0x00, 0x00, 0x00, 0x00, 0x00, 0x00, 0x00, 0x00, 0x00, 0x00, 0x00, 0x00, 0x00, 0x00, 0x00, 0x00, 0x00, 0x00, 0x00, 0x00, 0x00, 0x00, 0x00, 0x00, 0x00, 0x00, 0x00, 0x00, 0x00, 0x00, 0x00, 0x00, 0x00, 0x00, 0x00, 0x00, 0x00, 0x00, 0x00, 0x00, 0x00, 0x00, 0x00, 0x00, 0x00, 0x00, 0x00, 0x00, 0x00, 0x00, 0x00, 0x00, 0x00, 0x00, 0x00, 0x00, 0x00, 0x00, 0x00, 0x00, 0x00, 0x00, 0x00, 0x00, 0x00, 0x00, 0x00, 0x00, 0x10, 0x00, 0x00, 0x00, 0xf4, 0xc9, 0x39, 0x39, 0x2d, 0xa7, 0x42, 0x39, 0xab, 0x6d, 0x35, 0x39, 0xca, 0xe4, 0x6e, 0x39, 0x9a, 0x30, 0x61, 0x39, 0xa3, 0xd0, 0x6e, 0x39, 0xb4, 0xb8, 0x6b, 0x39, 0x7a, 0x5e, 0x47, 0x39, 0x6f, 0xcf, 0x27, 0x39, 0xea, 0x83, 0x1d, 0x39, 0x2f, 0x6f, 0x1e, 0x39, 0x51, 0x93, 0x60, 0x39, 0xdb, 0x40, 0x31, 0x39, 0xf3, 0x92, 0x58, 0x39, 0x8e, 0x0c, 0x5b, 0x39, 0x44, 0xb0, 0x7c, 0x39, 0x12, 0x00, 0x00, 0x00, 0x74, 0x66, 0x6c, 0x2e, 0x70, 0x73, 0x65, 0x75, 0x64, 0x6f, 0x5f, 0x71, 0x63, 0x6f, 0x6e, 0x73, 0x74, 0x38, 0x00, 0x00, 0x01, 0x00, 0x00, 0x00, 0x10, 0x00, 0x00, 0x00, 0xd2, 0xf0, 0xff, 0xff, 0x00, 0x00, 0x00, 0x01, 0x14, 0x00, 0x00, 0x00, 0xa8, 0x01, 0x00, 0x00, 0x0a, 0x00, 0x00, 0x00, 0x00, 0x00, 0x00, 0x09, 0xb4, 0x01, 0x00, 0x00, 0x4c, 0xf0, 0xff, 0xff, 0x08, 0x00, 0x00, 0x00, 0x0c, 0x01, 0x00, 0x00, 0x20, 0x00, 0x00, 0x00, 0x00, 0x00, 0x00, 0x00, 0x00, 0x00, 0x00, 0x00, 0x00, 0x00, 0x00, 0x00, 0x00, 0x00, 0x00, 0x00, 0x00, 0x00, 0x00, 0x00, 0x00, 0x00, 0x00, 0x00, 0x00, 0x00, 0x00, 0x00, 0x00, 0x00, 0x00, 0x00, 0x00, 0x00, 0x00, 0x00, 0x00, 0x00, 0x00, 0x00, 0x00, 0x00, 0x00, 0x00, 0x00, 0x00, 0x00, 0x00, 0x00, 0x00, 0x00, 0x00, 0x00, 0x00, 0x00, 0x00, 0x00, 0x00, 0x00, 0x00, 0x00, 0x00, 0x00, 0x00, 0x00, 0x00, 0x00, 0x00, 0x00, 0x00, 0x00, 0x00, 0x00, 0x00, 0x00, 0x00, 0x00, 0x00, 0x00, 0x00, 0x00, 0x00, 0x00, 0x00, 0x00, 0x00, 0x00, 0x00, 0x00, 0x00, 0x00, 0x00, 0x00, 0x00, 0x00, 0x00, 0x00, 0x00, 0x00, 0x00, 0x00, 0x00, 0x00, 0x00, 0x00, 0x00, 0x00, 0x00, 0x00, 0x00, 0x00, 0x00, 0x00, 0x00, 0x00, 0x00, 0x00, 0x00, 0x00, 0x00, 0x00, 0x00, 0x00, 0x00, 0x00, 0x00, 0x00, 0x00, 0x00, 0x00, 0x00, 0x00, 0x00, 0x00, 0x00, 0x00, 0x00, 0x00, 0x00, 0x00, 0x00, 0x00, 0x00, 0x00, 0x00, 0x00, 0x00, 0x00, 0x00, 0x00, 0x00, 0x00, 0x00, 0x00, 0x00, 0x00, 0x00, 0x00, 0x00, 0x00, 0x00, 0x00, 0x00, 0x00, 0x00, 0x00, 0x00, 0x00, 0x00, 0x00, 0x00, 0x00, 0x00, 0x00, 0x00, 0x00, 0x00, 0x00, 0x00, 0x00, 0x00, 0x00, 0x00, 0x00, 0x00, 0x00, 0x00, 0x00, 0x00, 0x00, 0x00, 0x00, 0x00, 0x00, 0x00, 0x00, 0x00, 0x00, 0x00, 0x00, 0x00, 0x00, 0x00, 0x00, 0x00, 0x00, 0x00, 0x00, 0x00, 0x00, 0x00, 0x00, 0x00, 0x00, 0x00, 0x00, 0x00, 0x00, 0x00, 0x00, 0x00, 0x00, 0x00, 0x00, 0x00, 0x00, 0x00, 0x00, 0x00, 0x00, 0x00, 0x00, 0x00, 0x00, 0x00, 0x00, 0x00, 0x00, 0x00, 0x00, 0x00, 0x00, 0x00, 0x00, 0x00, 0x00, 0x00, 0x00, 0x00, 0x00, 0x00, 0x00, 0x00, 0x00, 0x00, 0x00, 0x00, 0x00, 0x00, 0x00, 0x20, 0x00, 0x00, 0x00, 0x09, 0xdd, 0xa3, 0x3b, 0x8c, 0xa4, 0x85, 0x3b, 0xe0, 0x9c, 0xb5, 0x3b, 0x2f, 0x8d, 0x93, 0x3b, 0x28, 0xbd, 0x8c, 0x3b, 0xc4, 0x45, 0x9c, 0x3b, 0x53, 0xed, 0x68, 0x3b, 0x5a, 0x51, 0xa7, 0x3b, 0xa3, 0x92, 0xc0, 0x3b, 0x12, 0xd5, 0xb0, 0x3b, 0x5b, 0xda, 0xc1, 0x3b, 0x53, 0x76, 0x9d, 0x3b, 0x92, 0x44, 0x88, 0x3b, 0xea, 0xbd, 0xd8, 0x3b, 0x78, 0x78, 0x9c, 0x3b, 0xcf, 0x80, 0xda, 0x3b, 0xac, 0x01, 0x8d, 0x3b, 0x87, 0xab, 0x9e, 0x3b, 0x54, 0x4b, 0xd5, 0x3b, 0x70, 0xeb, 0xd2, 0x3b, 0xff, 0x02, 0xa2, 0x3b, 0x6e, 0xa7, 0x9a, 0x3b, 0x51, 0x56, 0x9e, 0x3b, 0x44, 0xfd, 0xa0, 0x3b, 0xc1, 0x07, 0x83, 0x3b, 0x83, 0x7b, 0x61, 0x3b, 0xbd, 0x41, 0x8c, 0x3b, 0x79, 0xf9, 0x93, 0x3b, 0xf3, 0x71, 0x9f, 0x3b, 0x60, 0x57, 0xa3, 0x3b, 0x59, 0x64, 0xe0, 0x3b, 0xe6, 0x93, 0x93, 0x3b, 0x12, 0x00, 0x00, 0x00, 0x74, 0x66, 0x6c, 0x2e, 0x70, 0x73, 0x65, 0x75, 0x64, 0x6f, 0x5f, 0x71, 0x63, 0x6f, 0x6e, 0x73, 0x74, 0x37, 0x00, 0x00, 0x04, 0x00, 0x00, 0x00, 0x20, 0x00, 0x00, 0x00, 0x01, 0x00, 0x00, 0x00, 0x01, 0x00, 0x00, 0x00, 0x10, 0x00, 0x00, 0x00, 0xb2, 0xf2, 0xff, 0xff, 0x00, 0x00, 0x00, 0x01, 0x14, 0x00, 0x00, 0x00, 0xa4, 0x01, 0x00, 0x00, 0x09, 0x00, 0x00, 0x00, 0x00, 0x00, 0x00, 0x02, 0xb0, 0x01, 0x00, 0x00, 0x2c, 0xf2, 0xff, 0xff, 0x08, 0x00, 0x00, 0x00, 0x08, 0x01, 0x00, 0x00, 0x20, 0x00, 0x00, 0x00, 0x00, 0x00, 0x00, 0x00, 0x00, 0x00, 0x00, 0x00, 0x00, 0x00, 0x00, 0x00, 0x00, 0x00, 0x00, 0x00, 0x00, 0x00, 0x00, 0x00, 0x00, 0x00, 0x00, 0x00, 0x00, 0x00, 0x00, 0x00, 0x00, 0x00, 0x00, 0x00, 0x00, 0x00, 0x00, 0x00, 0x00, 0x00, 0x00, 0x00, 0x00, 0x00, 0x00, 0x00, 0x00, 0x00, 0x00, 0x00, 0x00, 0x00, 0x00, 0x00, 0x00, 0x00, 0x00, 0x00, 0x00, 0x00, 0x00, 0x00, 0x00, 0x00, 0x00, 0x00, 0x00, 0x00, 0x00, 0x00, 0x00, 0x00, 0x00, 0x00, 0x00, 0x00, 0x00, 0x00, 0x00, 0x00, 0x00, 0x00, 0x00, 0x00, 0x00, 0x00, 0x00, 0x00, 0x00, 0x00, 0x00, 0x00, 0x00, 0x00, 0x00, 0x00, 0x00, 0x00, 0x00, 0x00, 0x00, 0x00, 0x00, 0x00, 0x00, 0x00, 0x00, 0x00, 0x00, 0x00, 0x00, 0x00, 0x00, 0x00, 0x00, 0x00, 0x00, 0x00, 0x00, 0x00, 0x00, 0x00, 0x00, 0x00, 0x00, 0x00, 0x00, 0x00, 0x00, 0x00, 0x00, 0x00, 0x00, 0x00, 0x00, 0x00, 0x00, 0x00, 0x00, 0x00, 0x00, 0x00, 0x00, 0x00, 0x00, 0x00, 0x00, 0x00, 0x00, 0x00, 0x00, 0x00, 0x00, 0x00, 0x00, 0x00, 0x00, 0x00, 0x00, 0x00, 0x00, 0x00, 0x00, 0x00, 0x00, 0x00, 0x00, 0x00, 0x00, 0x00, 0x00, 0x00, 0x00, 0x00, 0x00, 0x00, 0x00, 0x00, 0x00, 0x00, 0x00, 0x00, 0x00, 0x00, 0x00, 0x00, 0x00, 0x00, 0x00, 0x00, 0x00, 0x00, 0x00, 0x00, 0x00, 0x00, 0x00, 0x00, 0x00, 0x00, 0x00, 0x00, 0x00, 0x00, 0x00, 0x00, 0x00, 0x00, 0x00, 0x00, 0x00, 0x00, 0x00, 0x00, 0x00, 0x00, 0x00, 0x00, 0x00, 0x00, 0x00, 0x00, 0x00, 0x00, 0x00, 0x00, 0x00, 0x00, 0x00, 0x00, 0x00, 0x00, 0x00, 0x00, 0x00, 0x00, 0x00, 0x00, 0x00, 0x00, 0x00, 0x00, 0x00, 0x00, 0x00, 0x00, 0x00, 0x00, 0x00, 0x00, 0x00, 0x00, 0x00, 0x00, 0x00, 0x00, 0x00, 0x00, 0x20, 0x00, 0x00, 0x00, 0x26, 0x4a, 0xf2, 0x38, 0xec, 0x9a, 0xc5, 0x38, 0x5a, 0x44, 0x06, 0x39, 0xb4, 0x2b, 0xda, 0x38, 0xf9, 0x18, 0xd0, 0x38, 0xd1, 0x10, 0xe7, 0x38, 0x2d, 0x34, 0xac, 0x38, 0xb5, 0x65, 0xf7, 0x38, 0xa9, 0x5e, 0x0e, 0x39, 0x97, 0xbb, 0x02, 0x39, 0xf2, 0x50, 0x0f, 0x39, 0x24, 0xd3, 0xe8, 0x38, 0x95, 0x7c, 0xc9, 0x38, 0xf0, 0x3c, 0x20, 0x39, 0xc9, 0x5b, 0xe7, 0x38, 0x49, 0x8a, 0x21, 0x39, 0x48, 0x7e, 0xd0, 0x38, 0x54, 0x9c, 0xea, 0x38, 0x71, 0xb0, 0x1d, 0x39, 0x06, 0xef, 0x1b, 0x39, 0x3b, 0x8d, 0xef, 0x38, 0x2d, 0xac, 0xe4, 0x38, 0x56, 0x1e, 0xea, 0x38, 0x3c, 0x0a, 0xee, 0x38, 0x0a, 0xbe, 0xc1, 0x38, 0x34, 0xb3, 0xa6, 0x38, 0x7d, 0x62, 0xcf, 0x38, 0xd2, 0xcb, 0xda, 0x38, 0xb8, 0xc1, 0xeb, 0x38, 0x85, 0x84, 0xf1, 0x38, 0xd1, 0xe4, 0x25, 0x39, 0xa2, 0x35, 0xda, 0x38, 0x12, 0x00, 0x00, 0x00, 0x74, 0x66, 0x6c, 0x2e, 0x70, 0x73, 0x65, 0x75, 0x64, 0x6f, 0x5f, 0x71, 0x63, 0x6f, 0x6e, 0x73, 0x74, 0x36, 0x00, 0x00, 0x01, 0x00, 0x00, 0x00, 0x20, 0x00, 0x00, 0x00, 0x00, 0x00, 0x16, 0x00, 0x1e, 0x00, 0x18, 0x00, 0x17, 0x00, 0x10, 0x00, 0x0c, 0x00, 0x08, 0x00, 0x00, 0x00, 0x00, 0x00, 0x00, 0x00, 0x07, 0x00, 0x16, 0x00, 0x00, 0x00, 0x00, 0x00, 0x00, 0x01, 0x28, 0x00, 0x00, 0x00, 0xc0, 0x01, 0x00, 0x00, 0x08, 0x00, 0x00, 0x00, 0x00, 0x00, 0x00, 0x09, 0xcc, 0x01, 0x00, 0x00, 0x00, 0x00, 0x12, 0x00, 0x10, 0x00, 0x00, 0x00, 0x00, 0x00, 0x0c, 0x00, 0x08, 0x00, 0x00, 0x00, 0x00, 0x00, 0x04, 0x00, 0x12, 0x00, 0x00, 0x00, 0x03, 0x00, 0x00, 0x00, 0x08, 0x00, 0x00, 0x00, 0x0c, 0x01, 0x00, 0x00, 0x20, 0x00, 0x00, 0x00, 0x00, 0x00, 0x00, 0x00, 0x00, 0x00, 0x00, 0x00, 0x00, 0x00, 0x00, 0x00, 0x00, 0x00, 0x00, 0x00, 0x00, 0x00, 0x00, 0x00, 0x00, 0x00, 0x00, 0x00, 0x00, 0x00, 0x00, 0x00, 0x00, 0x00, 0x00, 0x00, 0x00, 0x00, 0x00, 0x00, 0x00, 0x00, 0x00, 0x00, 0x00, 0x00, 0x00, 0x00, 0x00, 0x00, 0x00, 0x00, 0x00, 0x00, 0x00, 0x00, 0x00, 0x00, 0x00, 0x00, 0x00, 0x00, 0x00, 0x00, 0x00, 0x00, 0x00, 0x00, 0x00, 0x00, 0x00, 0x00, 0x00, 0x00, 0x00, 0x00, 0x00, 0x00, 0x00, 0x00, 0x00, 0x00, 0x00, 0x00, 0x00, 0x00, 0x00, 0x00, 0x00, 0x00, 0x00, 0x00, 0x00, 0x00, 0x00, 0x00, 0x00, 0x00, 0x00, 0x00, 0x00, 0x00, 0x00, 0x00, 0x00, 0x00, 0x00, 0x00, 0x00, 0x00, 0x00, 0x00, 0x00, 0x00, 0x00, 0x00, 0x00, 0x00, 0x00, 0x00, 0x00, 0x00, 0x00, 0x00, 0x00, 0x00, 0x00, 0x00, 0x00, 0x00, 0x00, 0x00, 0x00, 0x00, 0x00, 0x00, 0x00, 0x00, 0x00, 0x00, 0x00, 0x00, 0x00, 0x00, 0x00, 0x00, 0x00, 0x00, 0x00, 0x00, 0x00, 0x00, 0x00, 0x00, 0x00, 0x00, 0x00, 0x00, 0x00, 0x00, 0x00, 0x00, 0x00, 0x00, 0x00, 0x00, 0x00, 0x00, 0x00, 0x00, 0x00, 0x00, 0x00, 0x00, 0x00, 0x00, 0x00, 0x00, 0x00, 0x00, 0x00, 0x00, 0x00, 0x00, 0x00, 0x00, 0x00, 0x00, 0x00, 0x00, 0x00, 0x00, 0x00, 0x00, 0x00, 0x00, 0x00, 0x00, 0x00, 0x00, 0x00, 0x00, 0x00, 0x00, 0x00, 0x00, 0x00, 0x00, 0x00, 0x00, 0x00, 0x00, 0x00, 0x00, 0x00, 0x00, 0x00, 0x00, 0x00, 0x00, 0x00, 0x00, 0x00, 0x00, 0x00, 0x00, 0x00, 0x00, 0x00, 0x00, 0x00, 0x00, 0x00, 0x00, 0x00, 0x00, 0x00, 0x00, 0x00, 0x00, 0x00, 0x00, 0x00, 0x00, 0x00, 0x00, 0x00, 0x00, 0x00, 0x00, 0x00, 0x00, 0x00, 0x00, 0x00, 0x00, 0x00, 0x00, 0x00, 0x00, 0x00, 0x00, 0x00, 0x00, 0x20, 0x00, 0x00, 0x00, 0xa0, 0x02, 0x4f, 0x3b, 0x45, 0x57, 0x35, 0x3b, 0x06, 0x85, 0x39, 0x3b, 0x17, 0xeb, 0x27, 0x3b, 0x83, 0xf1, 0x66, 0x3b, 0xee, 0x87, 0x3a, 0x3b, 0x80, 0x1e, 0x39, 0x3b, 0xdd, 0xf8, 0x09, 0x3b, 0xb1, 0x28, 0x60, 0x3b, 0x4e, 0x58, 0x38, 0x3b, 0xc3, 0xf1, 0x55, 0x3b, 0xee, 0xdd, 0x1e, 0x3b, 0xd9, 0x5b, 0x57, 0x3b, 0x23, 0x1f, 0x09, 0x3b, 0x86, 0x69, 0x44, 0x3b, 0xba, 0x0b, 0x83, 0x3b, 0x26, 0xc6, 0x39, 0x3b, 0x3d, 0x31, 0x13, 0x3b, 0x2d, 0x61, 0x80, 0x3b, 0x51, 0x28, 0x3e, 0x3b, 0x93, 0x89, 0x48, 0x3b, 0x86, 0x06, 0x75, 0x3b, 0xfc, 0x7b, 0x37, 0x3b, 0x3a, 0x26, 0x64, 0x3b, 0xb2, 0x56, 0x03, 0x3b, 0x0d, 0xc6, 0x7b, 0x3b, 0x7c, 0x57, 0x48, 0x3b, 0xb5, 0xa5, 0x3b, 0x3b, 0xe5, 0x85, 0x54, 0x3b, 0x83, 0x66, 0x3a, 0x3b, 0x0f, 0x54, 0x69, 0x3b, 0xb3, 0x2c, 0x52, 0x3b, 0x12, 0x00, 0x00, 0x00, 0x74, 0x66, 0x6c, 0x2e, 0x70, 0x73, 0x65, 0x75, 0x64, 0x6f, 0x5f, 0x71, 0x63, 0x6f, 0x6e, 0x73, 0x74, 0x35, 0x00, 0x00, 0x04, 0x00, 0x00, 0x00, 0x01, 0x00, 0x00, 0x00, 0x03, 0x00, 0x00, 0x00, 0x03, 0x00, 0x00, 0x00, 0x20, 0x00, 0x00, 0x00, 0x92, 0xf6, 0xff, 0xff, 0x00, 0x00, 0x00, 0x01, 0x14, 0x00, 0x00, 0x00, 0xa4, 0x01, 0x00, 0x00, 0x07, 0x00, 0x00, 0x00, 0x00, 0x00, 0x00, 0x02, 0xb0, 0x01, 0x00, 0x00, 0x0c, 0xf6, 0xff, 0xff, 0x08, 0x00, 0x00, 0x00, 0x08, 0x01, 0x00, 0x00, 0x20, 0x00, 0x00, 0x00, 0x00, 0x00, 0x00, 0x00, 0x00, 0x00, 0x00, 0x00, 0x00, 0x00, 0x00, 0x00, 0x00, 0x00, 0x00, 0x00, 0x00, 0x00, 0x00, 0x00, 0x00, 0x00, 0x00, 0x00, 0x00, 0x00, 0x00, 0x00, 0x00, 0x00, 0x00, 0x00, 0x00, 0x00, 0x00, 0x00, 0x00, 0x00, 0x00, 0x00, 0x00, 0x00, 0x00, 0x00, 0x00, 0x00, 0x00, 0x00, 0x00, 0x00, 0x00, 0x00, 0x00, 0x00, 0x00, 0x00, 0x00, 0x00, 0x00, 0x00, 0x00, 0x00, 0x00, 0x00, 0x00, 0x00, 0x00, 0x00, 0x00, 0x00, 0x00, 0x00, 0x00, 0x00, 0x00, 0x00, 0x00, 0x00, 0x00, 0x00, 0x00, 0x00, 0x00, 0x00, 0x00, 0x00, 0x00, 0x00, 0x00, 0x00, 0x00, 0x00, 0x00, 0x00, 0x00, 0x00, 0x00, 0x00, 0x00, 0x00, 0x00, 0x00, 0x00, 0x00, 0x00, 0x00, 0x00, 0x00, 0x00, 0x00, 0x00, 0x00, 0x00, 0x00, 0x00, 0x00, 0x00, 0x00, 0x00, 0x00, 0x00, 0x00, 0x00, 0x00, 0x00, 0x00, 0x00, 0x00, 0x00, 0x00, 0x00, 0x00, 0x00, 0x00, 0x00, 0x00, 0x00, 0x00, 0x00, 0x00, 0x00, 0x00, 0x00, 0x00, 0x00, 0x00, 0x00, 0x00, 0x00, 0x00, 0x00, 0x00, 0x00, 0x00, 0x00, 0x00, 0x00, 0x00, 0x00, 0x00, 0x00, 0x00, 0x00, 0x00, 0x00, 0x00, 0x00, 0x00, 0x00, 0x00, 0x00, 0x00, 0x00, 0x00, 0x00, 0x00, 0x00, 0x00, 0x00, 0x00, 0x00, 0x00, 0x00, 0x00, 0x00, 0x00, 0x00, 0x00, 0x00, 0x00, 0x00, 0x00, 0x00, 0x00, 0x00, 0x00, 0x00, 0x00, 0x00, 0x00, 0x00, 0x00, 0x00, 0x00, 0x00, 0x00, 0x00, 0x00, 0x00, 0x00, 0x00, 0x00, 0x00, 0x00, 0x00, 0x00, 0x00, 0x00, 0x00, 0x00, 0x00, 0x00, 0x00, 0x00, 0x00, 0x00, 0x00, 0x00, 0x00, 0x00, 0x00, 0x00, 0x00, 0x00, 0x00, 0x00, 0x00, 0x00, 0x00, 0x00, 0x00, 0x00, 0x00, 0x00, 0x00, 0x00, 0x00, 0x00, 0x00, 0x00, 0x00, 0x00, 0x00, 0x00, 0x00, 0x00, 0x20, 0x00, 0x00, 0x00, 0x11, 0x7d, 0x78, 0x38, 0x05, 0xad, 0x59, 0x38, 0x1e, 0xb1, 0x5e, 0x38, 0x57, 0x90, 0x49, 0x38, 0xcb, 0x9b, 0x8a, 0x38, 0xe7, 0xe7, 0x5f, 0x38, 0x0e, 0x36, 0x5e, 0x38, 0x0b, 0x9e, 0x25, 0x38, 0x62, 0x89, 0x86, 0x38, 0x25, 0x48, 0x5d, 0x38, 0xf1, 0x67, 0x80, 0x38, 0xe5, 0xb2, 0x3e, 0x38, 0x43, 0x41, 0x81, 0x38, 0xb1, 0x98, 0x24, 0x38, 0x59, 0xc4, 0x6b, 0x38, 0xa1, 0x4d, 0x9d, 0x38, 0x4b, 0xff, 0x5e, 0x38, 0x5d, 0xaf, 0x30, 0x38, 0x51, 0x1a, 0x9a, 0x38, 0x4f, 0x42, 0x64, 0x38, 0xff, 0xb7, 0x70, 0x38, 0x77, 0x0f, 0x93, 0x38, 0xae, 0x3f, 0x5c, 0x38, 0x7e, 0xee, 0x88, 0x38, 0x9e, 0xa7, 0x1d, 0x38, 0x4d, 0x1c, 0x97, 0x38, 0xdf, 0x7b, 0x70, 0x38, 0xf1, 0x3e, 0x61, 0x38, 0x1c, 0x1b, 0x7f, 0x38, 0xca, 0xbf, 0x5f, 0x38, 0x3c, 0x0a, 0x8c, 0x38, 0x74, 0x49, 0x7c, 0x38, 0x12, 0x00, 0x00, 0x00, 0x74, 0x66, 0x6c, 0x2e, 0x70, 0x73, 0x65, 0x75, 0x64, 0x6f, 0x5f, 0x71, 0x63, 0x6f, 0x6e, 0x73, 0x74, 0x34, 0x00, 0x00, 0x01, 0x00, 0x00, 0x00, 0x20, 0x00, 0x00, 0x00, 0x62, 0xf8, 0xff, 0xff, 0x00, 0x00, 0x00, 0x01, 0x14, 0x00, 0x00, 0x00, 0x28, 0x03, 0x00, 0x00, 0x06, 0x00, 0x00, 0x00, 0x00, 0x00, 0x00, 0x09, 0x34, 0x03, 0x00, 0x00, 0xdc, 0xf7, 0xff, 0xff, 0x08, 0x00, 0x00, 0x00, 0x0c, 0x02, 0x00, 0x00, 0x40, 0x00, 0x00, 0x00, 0x00, 0x00, 0x00, 0x00, 0x00, 0x00, 0x00, 0x00, 0x00, 0x00, 0x00, 0x00, 0x00, 0x00, 0x00, 0x00, 0x00, 0x00, 0x00, 0x00, 0x00, 0x00, 0x00, 0x00, 0x00, 0x00, 0x00, 0x00, 0x00, 0x00, 0x00, 0x00, 0x00, 0x00, 0x00, 0x00, 0x00, 0x00, 0x00, 0x00, 0x00, 0x00, 0x00, 0x00, 0x00, 0x00, 0x00, 0x00, 0x00, 0x00, 0x00, 0x00, 0x00, 0x00, 0x00, 0x00, 0x00, 0x00, 0x00, 0x00, 0x00, 0x00, 0x00, 0x00, 0x00, 0x00, 0x00, 0x00, 0x00, 0x00, 0x00, 0x00, 0x00, 0x00, 0x00, 0x00, 0x00, 0x00, 0x00, 0x00, 0x00, 0x00, 0x00, 0x00, 0x00, 0x00, 0x00, 0x00, 0x00, 0x00, 0x00, 0x00, 0x00, 0x00, 0x00, 0x00, 0x00, 0x00, 0x00, 0x00, 0x00, 0x00, 0x00, 0x00, 0x00, 0x00, 0x00, 0x00, 0x00, 0x00, 0x00, 0x00, 0x00, 0x00, 0x00, 0x00, 0x00, 0x00, 0x00, 0x00, 0x00, 0x00, 0x00, 0x00, 0x00, 0x00, 0x00, 0x00, 0x00, 0x00, 0x00, 0x00, 0x00, 0x00, 0x00, 0x00, 0x00, 0x00, 0x00, 0x00, 0x00, 0x00, 0x00, 0x00, 0x00, 0x00, 0x00, 0x00, 0x00, 0x00, 0x00, 0x00, 0x00, 0x00, 0x00, 0x00, 0x00, 0x00, 0x00, 0x00, 0x00, 0x00, 0x00, 0x00, 0x00, 0x00, 0x00, 0x00, 0x00, 0x00, 0x00, 0x00, 0x00, 0x00, 0x00, 0x00, 0x00, 0x00, 0x00, 0x00, 0x00, 0x00, 0x00, 0x00, 0x00, 0x00, 0x00, 0x00, 0x00, 0x00, 0x00, 0x00, 0x00, 0x00, 0x00, 0x00, 0x00, 0x00, 0x00, 0x00, 0x00, 0x00, 0x00, 0x00, 0x00, 0x00, 0x00, 0x00, 0x00, 0x00, 0x00, 0x00, 0x00, 0x00, 0x00, 0x00, 0x00, 0x00, 0x00, 0x00, 0x00, 0x00, 0x00, 0x00, 0x00, 0x00, 0x00, 0x00, 0x00, 0x00, 0x00, 0x00, 0x00, 0x00, 0x00, 0x00, 0x00, 0x00, 0x00, 0x00, 0x00, 0x00, 0x00, 0x00, 0x00, 0x00, 0x00, 0x00, 0x00, 0x00, 0x00, 0x00, 0x00, 0x00, 0x00, 0x00, 0x00, 0x00, 0x00, 0x00, 0x00, 0x00, 0x00, 0x00, 0x00, 0x00, 0x00, 0x00, 0x00, 0x00, 0x00, 0x00, 0x00, 0x00, 0x00, 0x00, 0x00, 0x00, 0x00, 0x00, 0x00, 0x00, 0x00, 0x00, 0x00, 0x00, 0x00, 0x00, 0x00, 0x00, 0x00, 0x00, 0x00, 0x00, 0x00, 0x00, 0x00, 0x00, 0x00, 0x00, 0x00, 0x00, 0x00, 0x00, 0x00, 0x00, 0x00, 0x00, 0x00, 0x00, 0x00, 0x00, 0x00, 0x00, 0x00, 0x00, 0x00, 0x00, 0x00, 0x00, 0x00, 0x00, 0x00, 0x00, 0x00, 0x00, 0x00, 0x00, 0x00, 0x00, 0x00, 0x00, 0x00, 0x00, 0x00, 0x00, 0x00, 0x00, 0x00, 0x00, 0x00, 0x00, 0x00, 0x00, 0x00, 0x00, 0x00, 0x00, 0x00, 0x00, 0x00, 0x00, 0x00, 0x00, 0x00, 0x00, 0x00, 0x00, 0x00, 0x00, 0x00, 0x00, 0x00, 0x00, 0x00, 0x00, 0x00, 0x00, 0x00, 0x00, 0x00, 0x00, 0x00, 0x00, 0x00, 0x00, 0x00, 0x00, 0x00, 0x00, 0x00, 0x00, 0x00, 0x00, 0x00, 0x00, 0x00, 0x00, 0x00, 0x00, 0x00, 0x00, 0x00, 0x00, 0x00, 0x00, 0x00, 0x00, 0x00, 0x00, 0x00, 0x00, 0x00, 0x00, 0x00, 0x00, 0x00, 0x00, 0x00, 0x00, 0x00, 0x00, 0x00, 0x00, 0x00, 0x00, 0x00, 0x00, 0x00, 0x00, 0x00, 0x00, 0x00, 0x00, 0x00, 0x00, 0x00, 0x00, 0x00, 0x00, 0x00, 0x00, 0x00, 0x00, 0x00, 0x00, 0x00, 0x00, 0x00, 0x00, 0x00, 0x00, 0x00, 0x00, 0x00, 0x00, 0x00, 0x00, 0x00, 0x00, 0x00, 0x00, 0x00, 0x00, 0x00, 0x00, 0x00, 0x00, 0x00, 0x00, 0x00, 0x00, 0x00, 0x00, 0x00, 0x00, 0x00, 0x00, 0x00, 0x00, 0x00, 0x00, 0x00, 0x00, 0x00, 0x00, 0x00, 0x00, 0x00, 0x00, 0x00, 0x00, 0x00, 0x00, 0x00, 0x00, 0x00, 0x00, 0x00, 0x00, 0x00, 0x00, 0x00, 0x00, 0x00, 0x00, 0x00, 0x00, 0x00, 0x00, 0x00, 0x00, 0x00, 0x00, 0x00, 0x00, 0x00, 0x00, 0x00, 0x00, 0x00, 0x00, 0x00, 0x00, 0x00, 0x00, 0x40, 0x00, 0x00, 0x00, 0xf4, 0xcc, 0x93, 0x3b, 0x51, 0x6f, 0xa2, 0x3b, 0x84, 0xea, 0x8e, 0x3b, 0x16, 0x36, 0x84, 0x3b, 0xaa, 0xae, 0x73, 0x3b, 0x71, 0xe4, 0x8c, 0x3b, 0x9f, 0x11, 0x5c, 0x3b, 0x37, 0x69, 0xa9, 0x3b, 0xca, 0x2a, 0x73, 0x3b, 0xad, 0x9e, 0xaa, 0x3b, 0x8d, 0xea, 0x70, 0x3b, 0xdd, 0x7b, 0x7f, 0x3b, 0xa7, 0xf9, 0x5d, 0x3b, 0x8a, 0x53, 0x85, 0x3b, 0xc1, 0xed, 0x83, 0x3b, 0x6c, 0x17, 0x7e, 0x3b, 0x98, 0x0d, 0xa5, 0x3b, 0x34, 0x4c, 0x9a, 0x3b, 0xdb, 0xe4, 0x97, 0x3b, 0xbe, 0xc0, 0x8d, 0x3b, 0xbe, 0x84, 0x81, 0x3b, 0x8b, 0x08, 0x6d, 0x3b, 0xd3, 0x72, 0x8f, 0x3b, 0x76, 0x60, 0x63, 0x3b, 0x0a, 0x30, 0xab, 0x3b, 0x7d, 0x38, 0x9b, 0x3b, 0xfa, 0xf8, 0x90, 0x3b, 0x1d, 0xab, 0x6f, 0x3b, 0xba, 0x38, 0x89, 0x3b, 0x3a, 0xea, 0x61, 0x3b, 0xe3, 0xa8, 0x84, 0x3b, 0x41, 0xf8, 0x67, 0x3b, 0x25, 0x36, 0x8a, 0x3b, 0x6e, 0x7e, 0x94, 0x3b, 0x73, 0x1d, 0x80, 0x3b, 0x47, 0xcf, 0x74, 0x3b, 0x87, 0x0d, 0x55, 0x3b, 0xc7, 0x64, 0x75, 0x3b, 0x1c, 0xdc, 0x91, 0x3b, 0xcd, 0xcf, 0x87, 0x3b, 0x0a, 0x53, 0xa6, 0x3b, 0x4f, 0xe1, 0x93, 0x3b, 0xa7, 0x39, 0xd0, 0x3b, 0xbd, 0x0e, 0xb9, 0x3b, 0x98, 0xdc, 0x73, 0x3b, 0x28, 0x31, 0x84, 0x3b, 0x84, 0x27, 0x8b, 0x3b, 0x80, 0xda, 0x7b, 0x3b, 0x7b, 0x95, 0xae, 0x3b, 0xad, 0x11, 0x83, 0x3b, 0xde, 0xf1, 0x76, 0x3b, 0x8e, 0xc7, 0x8d, 0x3b, 0x93, 0x6b, 0x8b, 0x3b, 0x10, 0xc3, 0x90, 0x3b, 0xd7, 0x60, 0x7d, 0x3b, 0x32, 0xfb, 0x7e, 0x3b, 0xc4, 0xe4, 0x7f, 0x3b, 0xd3, 0x20, 0x78, 0x3b, 0x99, 0x3e, 0xb2, 0x3b, 0xe1, 0xed, 0x7e, 0x3b, 0x5d, 0x26, 0x93, 0x3b, 0x54, 0xf5, 0x93, 0x3b, 0xda, 0x2a, 0xa4, 0x3b, 0x44, 0x28, 0x7c, 0x3b, 0x12, 0x00, 0x00, 0x00, 0x74, 0x66, 0x6c, 0x2e, 0x70, 0x73, 0x65, 0x75, 0x64, 0x6f, 0x5f, 0x71, 0x63, 0x6f, 0x6e, 0x73, 0x74, 0x33, 0x00, 0x00, 0x04, 0x00, 0x00, 0x00, 0x40, 0x00, 0x00, 0x00, 0x01, 0x00, 0x00, 0x00, 0x01, 0x00, 0x00, 0x00, 0x20, 0x00, 0x00, 0x00, 0xc2, 0xfb, 0xff, 0xff, 0x00, 0x00, 0x00, 0x01, 0x14, 0x00, 0x00, 0x00, 0x24, 0x03, 0x00, 0x00, 0x05, 0x00, 0x00, 0x00, 0x00, 0x00, 0x00, 0x02, 0x30, 0x03, 0x00, 0x00, 0x3c, 0xfb, 0xff, 0xff, 0x08, 0x00, 0x00, 0x00, 0x08, 0x02, 0x00, 0x00, 0x40, 0x00, 0x00, 0x00, 0x00, 0x00, 0x00, 0x00, 0x00, 0x00, 0x00, 0x00, 0x00, 0x00, 0x00, 0x00, 0x00, 0x00, 0x00, 0x00, 0x00, 0x00, 0x00, 0x00, 0x00, 0x00, 0x00, 0x00, 0x00, 0x00, 0x00, 0x00, 0x00, 0x00, 0x00, 0x00, 0x00, 0x00, 0x00, 0x00, 0x00, 0x00, 0x00, 0x00, 0x00, 0x00, 0x00, 0x00, 0x00, 0x00, 0x00, 0x00, 0x00, 0x00, 0x00, 0x00, 0x00, 0x00, 0x00, 0x00, 0x00, 0x00, 0x00, 0x00, 0x00, 0x00, 0x00, 0x00, 0x00, 0x00, 0x00, 0x00, 0x00, 0x00, 0x00, 0x00, 0x00, 0x00, 0x00, 0x00, 0x00, 0x00, 0x00, 0x00, 0x00, 0x00, 0x00, 0x00, 0x00, 0x00, 0x00, 0x00, 0x00, 0x00, 0x00, 0x00, 0x00, 0x00, 0x00, 0x00, 0x00, 0x00, 0x00, 0x00, 0x00, 0x00, 0x00, 0x00, 0x00, 0x00, 0x00, 0x00, 0x00, 0x00, 0x00, 0x00, 0x00, 0x00, 0x00, 0x00, 0x00, 0x00, 0x00, 0x00, 0x00, 0x00, 0x00, 0x00, 0x00, 0x00, 0x00, 0x00, 0x00, 0x00, 0x00, 0x00, 0x00, 0x00, 0x00, 0x00, 0x00, 0x00, 0x00, 0x00, 0x00, 0x00, 0x00, 0x00, 0x00, 0x00, 0x00, 0x00, 0x00, 0x00, 0x00, 0x00, 0x00, 0x00, 0x00, 0x00, 0x00, 0x00, 0x00, 0x00, 0x00, 0x00, 0x00, 0x00, 0x00, 0x00, 0x00, 0x00, 0x00, 0x00, 0x00, 0x00, 0x00, 0x00, 0x00, 0x00, 0x00, 0x00, 0x00, 0x00, 0x00, 0x00, 0x00, 0x00, 0x00, 0x00, 0x00, 0x00, 0x00, 0x00, 0x00, 0x00, 0x00, 0x00, 0x00, 0x00, 0x00, 0x00, 0x00, 0x00, 0x00, 0x00, 0x00, 0x00, 0x00, 0x00, 0x00, 0x00, 0x00, 0x00, 0x00, 0x00, 0x00, 0x00, 0x00, 0x00, 0x00, 0x00, 0x00, 0x00, 0x00, 0x00, 0x00, 0x00, 0x00, 0x00, 0x00, 0x00, 0x00, 0x00, 0x00, 0x00, 0x00, 0x00, 0x00, 0x00, 0x00, 0x00, 0x00, 0x00, 0x00, 0x00, 0x00, 0x00, 0x00, 0x00, 0x00, 0x00, 0x00, 0x00, 0x00, 0x00, 0x00, 0x00, 0x00, 0x00, 0x00, 0x00, 0x00, 0x00, 0x00, 0x00, 0x00, 0x00, 0x00, 0x00, 0x00, 0x00, 0x00, 0x00, 0x00, 0x00, 0x00, 0x00, 0x00, 0x00, 0x00, 0x00, 0x00, 0x00, 0x00, 0x00, 0x00, 0x00, 0x00, 0x00, 0x00, 0x00, 0x00, 0x00, 0x00, 0x00, 0x00, 0x00, 0x00, 0x00, 0x00, 0x00, 0x00, 0x00, 0x00, 0x00, 0x00, 0x00, 0x00, 0x00, 0x00, 0x00, 0x00, 0x00, 0x00, 0x00, 0x00, 0x00, 0x00, 0x00, 0x00, 0x00, 0x00, 0x00, 0x00, 0x00, 0x00, 0x00, 0x00, 0x00, 0x00, 0x00, 0x00, 0x00, 0x00, 0x00, 0x00, 0x00, 0x00, 0x00, 0x00, 0x00, 0x00, 0x00, 0x00, 0x00, 0x00, 0x00, 0x00, 0x00, 0x00, 0x00, 0x00, 0x00, 0x00, 0x00, 0x00, 0x00, 0x00, 0x00, 0x00, 0x00, 0x00, 0x00, 0x00, 0x00, 0x00, 0x00, 0x00, 0x00, 0x00, 0x00, 0x00, 0x00, 0x00, 0x00, 0x00, 0x00, 0x00, 0x00, 0x00, 0x00, 0x00, 0x00, 0x00, 0x00, 0x00, 0x00, 0x00, 0x00, 0x00, 0x00, 0x00, 0x00, 0x00, 0x00, 0x00, 0x00, 0x00, 0x00, 0x00, 0x00, 0x00, 0x00, 0x00, 0x00, 0x00, 0x00, 0x00, 0x00, 0x00, 0x00, 0x00, 0x00, 0x00, 0x00, 0x00, 0x00, 0x00, 0x00, 0x00, 0x00, 0x00, 0x00, 0x00, 0x00, 0x00, 0x00, 0x00, 0x00, 0x00, 0x00, 0x00, 0x00, 0x00, 0x00, 0x00, 0x00, 0x00, 0x00, 0x00, 0x00, 0x00, 0x00, 0x00, 0x00, 0x00, 0x00, 0x00, 0x00, 0x00, 0x00, 0x00, 0x00, 0x00, 0x00, 0x00, 0x00, 0x00, 0x00, 0x00, 0x00, 0x00, 0x00, 0x00, 0x00, 0x00, 0x00, 0x00, 0x00, 0x00, 0x00, 0x00, 0x00, 0x00, 0x00, 0x00, 0x00, 0x00, 0x00, 0x00, 0x00, 0x00, 0x00, 0x00, 0x00, 0x00, 0x00, 0x00, 0x00, 0x00, 0x00, 0x00, 0x00, 0x00, 0x00, 0x00, 0x00, 0x00, 0x00, 0x00, 0x00, 0x00, 0x00, 0x00, 0x00, 0x00, 0x00, 0x00, 0x00, 0x00, 0x00, 0x00, 0x00, 0x00, 0x00, 0x40, 0x00, 0x00, 0x00, 0xc5, 0xdc, 0x45, 0x38, 0x12, 0x74, 0x59, 0x38, 0xcb, 0x52, 0x3f, 0x38, 0x26, 0xfe, 0x30, 0x38, 0x33, 0x1c, 0x23, 0x38, 0x3e, 0x9d, 0x3c, 0x38, 0xea, 0x4d, 0x13, 0x38, 0xdf, 0xca, 0x62, 0x38, 0xed, 0xc3, 0x22, 0x38, 0x27, 0x69, 0x64, 0x38, 0x38, 0x42, 0x21, 0x38, 0x75, 0x02, 0x2b, 0x38, 0x95, 0x94, 0x14, 0x38, 0x4a, 0x7c, 0x32, 0x38, 0x51, 0x9d, 0x30, 0x38, 0xdf, 0x13, 0x2a, 0x38, 0x60, 0xf5, 0x5c, 0x38, 0x62, 0x8f, 0x4e, 0x38, 0x9c, 0x57, 0x4b, 0x38, 0x29, 0xc4, 0x3d, 0x38, 0x51, 0x63, 0x2d, 0x38, 0xe0, 0xa8, 0x1e, 0x38, 0x45, 0x09, 0x40, 0x38, 0x2c, 0x32, 0x18, 0x38, 0xc0, 0x2b, 0x65, 0x38, 0xb3, 0xcb, 0x4f, 0x38, 0x93, 0x13, 0x42, 0x38, 0x67, 0x6c, 0x20, 0x38, 0x3c, 0xb3, 0x37, 0x38, 0xad, 0x37, 0x17, 0x38, 0xd5, 0x97, 0x31, 0x38, 0x32, 0x45, 0x1b, 0x38, 0x7d, 0x06, 0x39, 0x38, 0x5c, 0xca, 0x46, 0x38, 0x54, 0x82, 0x2b, 0x38, 0x62, 0xdd, 0x23, 0x38, 0xb0, 0x9b, 0x0e, 0x38, 0x74, 0x41, 0x24, 0x38, 0xa3, 0x43, 0x43, 0x38, 0x0f, 0xd0, 0x35, 0x38, 0x0e, 0xa9, 0x5e, 0x38, 0x05, 0xf8, 0x45, 0x38, 0x73, 0x60, 0x8b, 0x38, 0x1d, 0xbd, 0x77, 0x38, 0xf1, 0x3a, 0x23, 0x38, 0x8d, 0xf7, 0x30, 0x38, 0x9d, 0x49, 0x3a, 0x38, 0x62, 0x94, 0x28, 0x38, 0xae, 0xb7, 0x69, 0x38, 0xb2, 0x76, 0x2f, 0x38, 0x3f, 0x4b, 0x25, 0x38, 0x48, 0xcd, 0x3d, 0x38, 0xba, 0xa4, 0x3a, 0x38, 0x66, 0xcb, 0x41, 0x38, 0xa8, 0x99, 0x29, 0x38, 0x55, 0xac, 0x2a, 0x38, 0xac, 0x48, 0x2b, 0x38, 0x08, 0x16, 0x26, 0x38, 0x36, 0x9e, 0x6e, 0x38, 0x6b, 0xa3, 0x2a, 0x38, 0xc1, 0xfd, 0x44, 0x38, 0xd2, 0x12, 0x46, 0x38, 0xd6, 0xc5, 0x5b, 0x38, 0x6f, 0xc8, 0x28, 0x38, 0x12, 0x00, 0x00, 0x00, 0x74, 0x66, 0x6c, 0x2e, 0x70, 0x73, 0x65, 0x75, 0x64, 0x6f, 0x5f, 0x71, 0x63, 0x6f, 0x6e, 0x73, 0x74, 0x32, 0x00, 0x00, 0x01, 0x00, 0x00, 0x00, 0x40, 0x00, 0x00, 0x00, 0x12, 0xff, 0xff, 0xff, 0x00, 0x00, 0x00, 0x01, 0x14, 0x00, 0x00, 0x00, 0x48, 0x00, 0x00, 0x00, 0x04, 0x00, 0x00, 0x00, 0x00, 0x00, 0x00, 0x09, 0x54, 0x00, 0x00, 0x00, 0x8c, 0xfe, 0xff, 0xff, 0x08, 0x00, 0x00, 0x00, 0x20, 0x00, 0x00, 0x00, 0x03, 0x00, 0x00, 0x00, 0x00, 0x00, 0x00, 0x00, 0x00, 0x00, 0x00, 0x00, 0x00, 0x00, 0x00, 0x00, 0x00, 0x00, 0x00, 0x00, 0x00, 0x00, 0x00, 0x00, 0x00, 0x00, 0x00, 0x00, 0x03, 0x00, 0x00, 0x00, 0x12, 0x22, 0x37, 0x3b, 0x0d, 0xf3, 0x40, 0x3b, 0x85, 0xaf, 0x50, 0x3b, 0x12, 0x00, 0x00, 0x00, 0x74, 0x66, 0x6c, 0x2e, 0x70, 0x73, 0x65, 0x75, 0x64, 0x6f, 0x5f, 0x71, 0x63, 0x6f, 0x6e, 0x73, 0x74, 0x31, 0x00, 0x00, 0x02, 0x00, 0x00, 0x00, 0x03, 0x00, 0x00, 0x00, 0x40, 0x00, 0x00, 0x00, 0x8a, 0xff, 0xff, 0xff, 0x00, 0x00, 0x00, 0x01, 0x14, 0x00, 0x00, 0x00, 0x48, 0x00, 0x00, 0x00, 0x03, 0x00, 0x00, 0x00, 0x00, 0x00, 0x00, 0x02, 0x54, 0x00, 0x00, 0x00, 0x04, 0xff, 0xff, 0xff, 0x08, 0x00, 0x00, 0x00, 0x20, 0x00, 0x00, 0x00, 0x03, 0x00, 0x00, 0x00, 0x00, 0x00, 0x00, 0x00, 0x00, 0x00, 0x00, 0x00, 0x00, 0x00, 0x00, 0x00, 0x00, 0x00, 0x00, 0x00, 0x00, 0x00, 0x00, 0x00, 0x00, 0x00, 0x00, 0x00, 0x03, 0x00, 0x00, 0x00, 0x02, 0x11, 0x39, 0x37, 0x84, 0xfc, 0x42, 0x37, 0x84, 0xe3, 0x52, 0x37, 0x11, 0x00, 0x00, 0x00, 0x74, 0x66, 0x6c, 0x2e, 0x70, 0x73, 0x65, 0x75, 0x64, 0x6f, 0x5f, 0x71, 0x63, 0x6f, 0x6e, 0x73, 0x74, 0x00, 0x00, 0x00, 0x01, 0x00, 0x00, 0x00, 0x03, 0x00, 0x00, 0x00, 0x00, 0x00, 0x16, 0x00, 0x1c, 0x00, 0x18, 0x00, 0x17, 0x00, 0x10, 0x00, 0x0c, 0x00, 0x08, 0x00, 0x00, 0x00, 0x00, 0x00, 0x00, 0x00, 0x07, 0x00, 0x16, 0x00, 0x00, 0x00, 0x00, 0x00, 0x00, 0x01, 0x18, 0x00, 0x00, 0x00, 0x18, 0x00, 0x00, 0x00, 0x02, 0x00, 0x00, 0x00, 0x00, 0x00, 0x00, 0x02, 0x20, 0x00, 0x00, 0x00, 0x04, 0x00, 0x04, 0x00, 0x04, 0x00, 0x00, 0x00, 0x0e, 0x00, 0x00, 0x00, 0x61, 0x72, 0x69, 0x74, 0x68, 0x2e, 0x63, 0x6f, 0x6e, 0x73, 0x74, 0x61, 0x6e, 0x74, 0x00, 0x00, 0x01, 0x00, 0x00, 0x00, 0x02, 0x00, 0x00, 0x00, 0x00, 0x00, 0x16, 0x00, 0x20, 0x00, 0x1c, 0x00, 0x1b, 0x00, 0x14, 0x00, 0x10, 0x00, 0x0c, 0x00, 0x00, 0x00, 0x00, 0x00, 0x08, 0x00, 0x07, 0x00, 0x16, 0x00, 0x00, 0x00, 0x00, 0x00, 0x00, 0x01, 0x18, 0x00, 0x00, 0x00, 0x34, 0x00, 0x00, 0x00, 0x50, 0x00, 0x00, 0x00, 0x01, 0x00, 0x00, 0x00, 0x00, 0x00, 0x00, 0x09, 0x68, 0x00, 0x00, 0x00, 0x04, 0x00, 0x00, 0x00, 0xff, 0xff, 0xff, 0xff, 0x40, 0x00, 0x00, 0x00, 0x3f, 0x00, 0x00, 0x00, 0x01, 0x00, 0x00, 0x00, 0x0c, 0x00, 0x0c, 0x00, 0x00, 0x00, 0x00, 0x00, 0x08, 0x00, 0x04, 0x00, 0x0c, 0x00, 0x00, 0x00, 0x08, 0x00, 0x00, 0x00, 0x10, 0x00, 0x00, 0x00, 0x01, 0x00, 0x00, 0x00, 0x7f, 0x00, 0x00, 0x00, 0x00, 0x00, 0x00, 0x00, 0x01, 0x00, 0x00, 0x00, 0xa1, 0xa0, 0xa0, 0x3e, 0x1d, 0x00, 0x00, 0x00, 0x73, 0x65, 0x72, 0x76, 0x69, 0x6e, 0x67, 0x5f, 0x64, 0x65, 0x66, 0x61, 0x75, 0x6c, 0x74, 0x5f, 0x69, 0x6e, 0x70, 0x75, 0x74, 0x5f, 0x6c, 0x61, 0x79, 0x65, 0x72, 0x3a, 0x30, 0x00, 0x00, 0x00, 0x04, 0x00, 0x00, 0x00, 0x01, 0x00, 0x00, 0x00, 0x40, 0x00, 0x00, 0x00, 0x3f, 0x00, 0x00, 0x00, 0x01, 0x00, 0x00, 0x00, 0x06, 0x00, 0x00, 0x00, 0x74, 0x00, 0x00, 0x00, 0x54, 0x00, 0x00, 0x00, 0x40, 0x00, 0x00, 0x00, 0x2c, 0x00, 0x00, 0x00, 0x18, 0x00, 0x00, 0x00, 0x04, 0x00, 0x00, 0x00, 0xb0, 0xff, 0xff, 0xff, 0x19, 0x00, 0x00, 0x00, 0x02, 0x00, 0x00, 0x00, 0x00, 0x00, 0x00, 0x19, 0xc0, 0xff, 0xff, 0xff, 0x09, 0x00, 0x00, 0x00, 0x04, 0x00, 0x00, 0x00, 0x00, 0x00, 0x00, 0x09, 0xd0, 0xff, 0xff, 0xff, 0x28, 0x00, 0x00, 0x00, 0x02, 0x00, 0x00, 0x00, 0x00, 0x00, 0x00, 0x28, 0xe0, 0xff, 0xff, 0xff, 0x04, 0x00, 0x00, 0x00, 0x03, 0x00, 0x00, 0x00, 0x00, 0x00, 0x00, 0x04, 0xf0, 0xff, 0xff, 0xff, 0x11, 0x00, 0x00, 0x00, 0x02, 0x00, 0x00, 0x00, 0x00, 0x00, 0x00, 0x11, 0x0c, 0x00, 0x10, 0x00, 0x0f, 0x00, 0x00, 0x00, 0x08, 0x00, 0x04, 0x00, 0x0c, 0x00, 0x00, 0x00, 0x03, 0x00, 0x00, 0x00, 0x03, 0x00, 0x00, 0x00, 0x00, 0x00, 0x00, 0x03
};

const unsigned int g_model_len = 13400;
