
#include <cstdint>

// TFLite Model Data
// Length: 13400 bytes
alignas(16) const unsigned char g_model[] = {
    0x20, 0x00, 0x00, 0x00, 0x54, 0x46, 0x4c, 0x33, 0x00, 0x00, 0x00, 0x00, 0x14, 0x00, 0x20, 0x00, 0x1c, 0x00, 0x18, 0x00, 0x14, 0x00, 0x10, 0x00, 0x0c, 0x00, 0x00, 0x00, 0x08, 0x00, 0x04, 0x00, 0x14, 0x00, 0x00, 0x00, 0x1c, 0x00, 0x00, 0x00, 0x94, 0x00, 0x00, 0x00, 0xec, 0x00, 0x00, 0x00, 0x40, 0x12, 0x00, 0x00, 0x50, 0x12, 0x00, 0x00, 0x98, 0x33, 0x00, 0x00, 0x03, 0x00, 0x00, 0x00, 0x01, 0x00, 0x00, 0x00, 0x10, 0x00, 0x00, 0x00, 0x00, 0x00, 0x0a, 0x00, 0x10, 0x00, 0x0c, 0x00, 0x08, 0x00, 0x04, 0x00, 0x0a, 0x00, 0x00, 0x00, 0x0c, 0x00, 0x00, 0x00, 0x1c, 0x00, 0x00, 0x00, 0x3c, 0x00, 0x00, 0x00, 0x0f, 0x00, 0x00, 0x00, 0x73, 0x65, 0x72, 0x76, 0x69, 0x6e, 0x67, 0x5f, 0x64, 0x65, 0x66, 0x61, 0x75, 0x6c, 0x74, 0x00, 0x01, 0x00, 0x00, 0x00, 0x04, 0x00, 0x00, 0x00, 0x94, 0xff, 0xff, 0xff, 0x17, 0x00, 0x00, 0x00, 0x04, 0x00, 0x00, 0x00, 0x08, 0x00, 0x00, 0x00, 0x6f, 0x75, 0x74, 0x70, 0x75, 0x74, 0x5f, 0x30, 0x00, 0x00, 0x00, 0x00, 0x01, 0x00, 0x00, 0x00, 0x04, 0x00, 0x00, 0x00, 0x9e, 0xed, 0xff, 0xff, 0x04, 0x00, 0x00, 0x00, 0x0b, 0x00, 0x00, 0x00, 0x69, 0x6e, 0x70, 0x75, 0x74, 0x5f, 0x6c, 0x61, 0x79, 0x65, 0x72, 0x00, 0x02, 0x00, 0x00, 0x00, 0x34, 0x00, 0x00, 0x00, 0x04, 0x00, 0x00, 0x00, 0xdc, 0xff, 0xff, 0xff, 0x1a, 0x00, 0x00, 0x00, 0x04, 0x00, 0x00, 0x00, 0x13, 0x00, 0x00, 0x00, 0x43, 0x4f, 0x4e, 0x56, 0x45, 0x52, 0x53, 0x49, 0x4f, 0x4e, 0x5f, 0x4d, 0x45, 0x54, 0x41, 0x44, 0x41, 0x54, 0x41, 0x00, 0x08, 0x00, 0x0c, 0x00, 0x08, 0x00, 0x04, 0x00, 0x08, 0x00, 0x00, 0x00, 0x19, 0x00, 0x00, 0x00, 0x04, 0x00, 0x00, 0x00, 0x13, 0x00, 0x00, 0x00, 0x6d, 0x69, 0x6e, 0x5f, 0x72, 0x75, 0x6e, 0x74, 0x69, 0x6d, 0x65, 0x5f, 0x76, 0x65, 0x72, 0x73, 0x69, 0x6f, 0x6e, 0x00, 0x1b, 0x00, 0x00, 0x00, 0x50, 0x11, 0x00, 0x00, 0x48, 0x11, 0x00, 0x00, 0x30, 0x11, 0x00, 0x00, 0x14, 0x11, 0x00, 0x00, 0x44, 0x10, 0x00, 0x00, 0x34, 0x0f, 0x00, 0x00, 0x24, 0x07, 0x00, 0x00, 0x94, 0x06, 0x00, 0x00, 0x64, 0x05, 0x00, 0x00, 0xd4, 0x04, 0x00, 0x00, 0xc4, 0x02, 0x00, 0x00, 0x74, 0x02, 0x00, 0x00, 0xd4, 0x01, 0x00, 0x00, 0x84, 0x01, 0x00, 0x00, 0xe4, 0x00, 0x00, 0x00, 0xdc, 0x00, 0x00, 0x00, 0xd4, 0x00, 0x00, 0x00, 0xcc, 0x00, 0x00, 0x00, 0xc4, 0x00, 0x00, 0x00, 0xbc, 0x00, 0x00, 0x00, 0xb4, 0x00, 0x00, 0x00, 0xac, 0x00, 0x00, 0x00, 0xa4, 0x00, 0x00, 0x00, 0x9c, 0x00, 0x00, 0x00, 0x94, 0x00, 0x00, 0x00, 0x74, 0x00, 0x00, 0x00, 0x04, 0x00, 0x00, 0x00, 0x82, 0xee, 0xff, 0xff, 0x04, 0x00, 0x00, 0x00, 0x60, 0x00, 0x00, 0x00, 0x0c, 0x00, 0x00, 0x00, 0x08, 0x00, 0x0e, 0x00, 0x08, 0x00, 0x04, 0x00, 0x08, 0x00, 0x00, 0x00, 0x10, 0x00, 0x00, 0x00, 0x28, 0x00, 0x00, 0x00, 0x00, 0x00, 0x06, 0x00, 0x08, 0x00, 0x04, 0x00, 0x06, 0x00, 0x00, 0x00, 0x04, 0x00, 0x00, 0x00, 0x01, 0x00, 0x00, 0x00, 0xeb, 0x03, 0x00, 0x00, 0x0c, 0x00, 0x18, 0x00, 0x14, 0x00, 0x10, 0x00, 0x0c, 0x00, 0x04, 0x00, 0x0c, 0x00, 0x00, 0x00, 0xfb, 0xa5, 0x61, 0xb7, 0x49, 0x12, 0x68, 0xfe, 0x02, 0x00, 0x00, 0x00, 0x02, 0x00, 0x00, 0x00, 0x04, 0x00, 0x00, 0x00, 0x06, 0x00, 0x00, 0x00, 0x32, 0x2e, 0x32, 0x30, 0x2e, 0x30, 0x00, 0x00, 0xee, 0xee, 0xff, 0xff, 0x04, 0x00, 0x00, 0x00, 0x10, 0x00, 0x00, 0x00, 0x31, 0x2e, 0x31, 0x34, 0x2e, 0x30, 0x00, 0x00, 0x00, 0x00, 0x00, 0x00, 0x00, 0x00, 0x00, 0x00, 0x14, 0xcf, 0xff, 0xff, 0x18, 0xcf, 0xff, 0xff, 0x1c, 0xcf, 0xff, 0xff, 0x20, 0xcf, 0xff, 0xff, 0x24, 0xcf, 0xff, 0xff, 0x28, 0xcf, 0xff, 0xff, 0x2c, 0xcf, 0xff, 0xff, 0x30, 0xcf, 0xff, 0xff, 0x34, 0xcf, 0xff, 0xff, 0x38, 0xcf, 0xff, 0xff, 0x32, 0xef, 0xff, 0xff, 0x04, 0x00, 0x00, 0x00, 0x90, 0x00, 0x00, 0x00, 0xe6, 0x8c, 0xe3, 0x10, 0xcb, 0x61, 0xba, 0x23, 0x7f, 0x5b, 0x7f, 0x06, 0xb3, 0xf4, 0xa6, 0x11, 0x9b, 0xe5, 0x5b, 0x81, 0xa8, 0xf3, 0xbb, 0xe7, 0x9c, 0xe6, 0x38, 0xf6, 0xc0, 0x2f, 0xfe, 0x13, 0x51, 0x95, 0x7f, 0xc7, 0x12, 0x81, 0x9a, 0xaa, 0x16, 0x77, 0x22, 0xac, 0xef, 0x22, 0x4c, 0x7f, 0x89, 0xf7, 0xd8, 0x67, 0xa1, 0x0e, 0x3a, 0x08, 0x1d, 0x9d, 0x42, 0x37, 0x29, 0x81, 0x31, 0x50, 0xa0, 0x45, 0xa5, 0xed, 0xd4, 0x81, 0xcc, 0xfe, 0x4a, 0x84, 0xc4, 0x10, 0xf8, 0x7f, 0xe5, 0xfe, 0x2c, 0xd1, 0x53, 0xbd, 0x17, 0x1d, 0x7f, 0xa0, 0xd8, 0x2a, 0x2a, 0xa6, 0x85, 0xe5, 0x0e, 0x0f, 0x01, 0xff, 0x81, 0x7f, 0xbe, 0xd8, 0xcb, 0x3d, 0x62, 0xdf, 0xf3, 0xd7, 0xfc, 0x81, 0x00, 0x59, 0x01, 0x6a, 0x20, 0x29, 0x09, 0x77, 0xda, 0x7f, 0xe5, 0xd3, 0xee, 0xb0, 0x67, 0xde, 0x56, 0xf7, 0x7f, 0x40, 0xea, 0xb2, 0x0b, 0x16, 0x70, 0x7f, 0x2b, 0x24, 0xb0, 0x9c, 0xac, 0x05, 0xb2, 0xce, 0xce, 0xef, 0xff, 0xff, 0x04, 0x00, 0x00, 0x00, 0x40, 0x00, 0x00, 0x00, 0x1f, 0xff, 0xff, 0xff, 0xcd, 0xf2, 0xff, 0xff, 0xa4, 0xd3, 0xff, 0xff, 0x7b, 0x03, 0x00, 0x00, 0x44, 0xe0, 0xff, 0xff, 0x66, 0x0d, 0x00, 0x00, 0x77, 0x11, 0x00, 0x00, 0xae, 0xd7, 0xff, 0xff, 0xb2, 0x04, 0x00, 0x00, 0xb7, 0x0f, 0x00, 0x00, 0xe4, 0xd4, 0xff, 0xff, 0xa7, 0x06, 0x00, 0x00, 0x3a, 0x19, 0x00, 0x00, 0x43, 0x0d, 0x00, 0x00, 0x9d, 0x34, 0x00, 0x00, 0x58, 0xe0, 0xff, 0xff, 0x1a, 0xf0, 0xff, 0xff, 0x04, 0x00, 0x00, 0x00, 0x90, 0x00, 0x00, 0x00, 0x00, 0x5b, 0xfd, 0xf5, 0xa2, 0xe5, 0x0f, 0x55, 0x88, 0x32, 0xd2, 0xff, 0x15, 0x72, 0xd0, 0xba, 0xd6, 0xfb, 0xde, 0x31, 0x81, 0x29, 0x99, 0x8f, 0x56, 0xa5, 0xd4, 0x07, 0x08, 0xc5, 0x2b, 0x91, 0x24, 0x6f, 0x11, 0xc6, 0x9c, 0x6c, 0x1b, 0x8f, 0xce, 0x0b, 0x7f, 0x2b, 0x84, 0xa7, 0xa1, 0x12, 0x7e, 0xa3, 0xf7, 0xbf, 0xb7, 0x66, 0x5b, 0xbe, 0x12, 0xe5, 0x7a, 0x7f, 0xe7, 0xc9, 0x0e, 0x6d, 0xff, 0x81, 0x9e, 0xf1, 0x6a, 0xbc, 0x7f, 0x4c, 0x94, 0xb4, 0x01, 0x1e, 0x83, 0x38, 0x13, 0x7f, 0xc2, 0x37, 0x81, 0x9c, 0x18, 0x81, 0xa6, 0xf6, 0x08, 0xbb, 0x7c, 0xf8, 0x81, 0x7f, 0x07, 0x86, 0x81, 0xdc, 0x0a, 0x79, 0x91, 0x64, 0xaa, 0x81, 0x0d, 0x06, 0x4c, 0x91, 0x5d, 0xe1, 0x19, 0xde, 0x67, 0x81, 0xc3, 0x7f, 0x37, 0xed, 0xfb, 0x6c, 0x7f, 0x7f, 0xb0, 0x88, 0xf5, 0xd6, 0x81, 0x4b, 0x2f, 0x4f, 0xa5, 0x9f, 0x53, 0xcf, 0x88, 0xb2, 0xb9, 0x2d, 0xc9, 0x41, 0x49, 0x87, 0x39, 0xef, 0xb6, 0xf0, 0xff, 0xff, 0x04, 0x00, 0x00, 0x00, 0x40, 0x00, 0x00, 0x00, 0xc7, 0xfe, 0xff, 0xff, 0x7c, 0x02, 0x00, 0x00, 0x65, 0x05, 0x00, 0x00, 0x13, 0x01, 0x00, 0x00, 0xbf, 0x03, 0x00, 0x00, 0xea, 0xfe, 0xff, 0xff, 0xaa, 0x02, 0x00, 0x00, 0xc1, 0x02, 0x00, 0x00, 0x02, 0x00, 0x00, 0x00, 0x63, 0x00, 0x00, 0x00, 0x97, 0xfe, 0xff, 0xff, 0x30, 0xfe, 0xff, 0xff, 0xb2, 0x01, 0x00, 0x00, 0xda, 0x01, 0x00, 0x00, 0x37, 0x01, 0x00, 0x00, 0x81, 0x00, 0x00, 0x00, 0x02, 0xf1, 0xff, 0xff, 0x04, 0x00, 0x00, 0x00, 0x00, 0x02, 0x00, 0x00, 0x7d, 0x31, 0x56, 0x4c, 0x9b, 0xfc, 0x47, 0x9f, 0xd7, 0xe3, 0x6b, 0xe6, 0x7f, 0x60, 0x79, 0x2f, 0xd3, 0x40, 0x5d, 0x10, 0xaf, 0xb4, 0xf3, 0x6c, 0x05, 0x08, 0x7f, 0x3c, 0xa6, 0x96, 0x06, 0xe5, 0xca, 0x9a, 0x81, 0xcc, 0x83, 0x26, 0x98, 0xc1, 0x0e, 0xd9, 0xf0, 0x66, 0x16, 0xf7, 0xff, 0xb6, 0x28, 0x46, 0xdd, 0xdb, 0x60, 0xea, 0x7f, 0x09, 0xdd, 0x20, 0xf7, 0xa7, 0x87, 0xde, 0xd6, 0xf3, 0xd1, 0x51, 0x99, 0x62, 0x1e, 0xd5, 0x10, 0x7f, 0x67, 0x0e, 0xc0, 0x25, 0xe5, 0x5c, 0xfc, 0x88, 0x21, 0xc5, 0x97, 0x81, 0x91, 0x71, 0x10, 0x97, 0x4f, 0xe3, 0x93, 0xf3, 0x54, 0xb4, 0xcc, 0x48, 0x66, 0x83, 0x93, 0xa0, 0x76, 0xfd, 0xab, 0x11, 0x98, 0x40, 0x40, 0x41, 0xfa, 0xc6, 0x81, 0xe2, 0xdb, 0x28, 0x0f, 0x09, 0x38, 0xc2, 0x08, 0x16, 0xd8, 0x28, 0x50, 0x49, 0xe7, 0x7f, 0x12, 0x76, 0x88, 0xf8, 0x9a, 0x33, 0x3e, 0x55, 0x89, 0x60, 0x19, 0x9f, 0x34, 0xea, 0xfb, 0x7f, 0xfc, 0x33, 0xb6, 0xde, 0xec, 0x7b, 0x0b, 0x86, 0x7f, 0x8b, 0x9a, 0x76, 0x90, 0x91, 0x0a, 0x1c, 0x0e, 0xa5, 0x46, 0xe7, 0x7f, 0xe6, 0x57, 0x71, 0x3f, 0xa8, 0x05, 0xf0, 0x15, 0x7f, 0x68, 0x16, 0x5c, 0xd4, 0x66, 0x59, 0x68, 0xb7, 0x87, 0xb5, 0xf3, 0x36, 0x76, 0x7d, 0x5e, 0xa7, 0x46, 0x7d, 0x7f, 0x65, 0x23, 0xd9, 0xa2, 0xf6, 0xda, 0x45, 0xac, 0x7f, 0xba, 0xc2, 0x31, 0x4b, 0x99, 0x46, 0xd2, 0x95, 0x81, 0x1f, 0x2e, 0x6f, 0xbf, 0xd7, 0x53, 0x41, 0xd4, 0x86, 0x75, 0xac, 0xf0, 0xe5, 0x11, 0xae, 0xec, 0x92, 0x34, 0x6c, 0x0e, 0xc9, 0x67, 0xe9, 0xbb, 0x82, 0x7f, 0x8f, 0x31, 0x8d, 0xcf, 0x66, 0x6a, 0x64, 0x69, 0x3f, 0x67, 0xb5, 0xae, 0x4a, 0x81, 0xf7, 0xe0, 0xcf, 0x62, 0x61, 0x50, 0x75, 0x1b, 0x1f, 0xf6, 0x11, 0xeb, 0x7f, 0x3e, 0x6a, 0x44, 0x2b, 0x91, 0x8b, 0x7f, 0x15, 0xdc, 0xfd, 0x10, 0x0b, 0xc9, 0x5b, 0x4b, 0x78, 0x7f, 0x25, 0x9a, 0x45, 0x34, 0xcb, 0xcc, 0x18, 0x65, 0x39, 0xe4, 0x26, 0x0a, 0x43, 0x22, 0xdb, 0x66, 0xd3, 0xac, 0x00, 0x7f, 0x56, 0x4b, 0x47, 0xc1, 0x89, 0x6a, 0x33, 0xf4, 0x21, 0xc0, 0x41, 0x08, 0x64, 0x9b, 0x2f, 0x7d, 0x8b, 0x6e, 0x7f, 0x2f, 0x5e, 0x75, 0x81, 0xff, 0xf6, 0xb5, 0x54, 0x73, 0x9a, 0x89, 0x4d, 0x70, 0x00, 0xc1, 0xb0, 0x37, 0x83, 0x04, 0x97, 0xe9, 0x3b, 0x9d, 0xd0, 0x92, 0xa5, 0x02, 0x72, 0xf2, 0x7f, 0x5f, 0x25, 0x6b, 0xfd, 0xff, 0xb4, 0x68, 0xe1, 0x74, 0x3e, 0x65, 0x0d, 0xcd, 0x87, 0x1d, 0x12, 0x62, 0x81, 0xf0, 0x3d, 0x81, 0xbf, 0x6a, 0x8b, 0x0b, 0x21, 0x3c, 0xd7, 0xba, 0x2e, 0xbe, 0x03, 0xc0, 0xbc, 0x2c, 0xff, 0xfe, 0x33, 0xf7, 0xa7, 0xa5, 0xc1, 0xda, 0x74, 0x56, 0xc9, 0x56, 0x08, 0xe3, 0xfd, 0x7f, 0xbb, 0x37, 0xd7, 0x1f, 0x19, 0x13, 0x5f, 0x1a, 0x81, 0xba, 0x93, 0x76, 0x8c, 0x97, 0x7f, 0x21, 0x52, 0x08, 0x45, 0x31, 0xed, 0x31, 0x5c, 0x55, 0x37, 0x60, 0x7f, 0x35, 0x10, 0x8e, 0x4d, 0x52, 0xd3, 0xe5, 0x6e, 0x5d, 0x6c, 0x72, 0x40, 0x00, 0xff, 0xaa, 0x1b, 0x7f, 0x79, 0x02, 0xac, 0x2e, 0x02, 0x49, 0x61, 0x48, 0xe2, 0x3e, 0x95, 0x16, 0xca, 0x29, 0x3c, 0x7f, 0xe4, 0x75, 0x25, 0xbf, 0x15, 0x85, 0x19, 0x3e, 0x4c, 0xb2, 0xfa, 0x7f, 0x89, 0xab, 0xc7, 0x3f, 0x3f, 0x87, 0x19, 0xf3, 0x87, 0x4d, 0x81, 0x28, 0x3b, 0xf4, 0x99, 0x68, 0x1c, 0xdd, 0x02, 0x32, 0x35, 0xe4, 0xef, 0xed, 0xba, 0x08, 0xea, 0xcf, 0x7f, 0x40, 0x47, 0xed, 0x20, 0x1a, 0x30, 0x27, 0xd5, 0xb2, 0x44, 0xcb, 0xb6, 0x0e, 0xf3, 0xff, 0xff, 0x04, 0x00, 0x00, 0x00, 0x80, 0x00, 0x00, 0x00, 0xbc, 0xeb, 0xff, 0xff, 0x72, 0xfd, 0xff, 0xff, 0x9d, 0x14, 0x00, 0x00, 0x06, 0x02, 0x00, 0x00, 0xa1, 0xfc, 0xff, 0xff, 0x70, 0x0d, 0x00, 0x00, 0x7a, 0x09, 0x00, 0x00, 0x26, 0xf4, 0xff, 0xff, 0xf6, 0xfe, 0xff, 0xff, 0xc7, 0x0a, 0x00, 0x00, 0x29, 0xeb, 0xff, 0xff, 0x17, 0xe7, 0xff, 0xff, 0xf5, 0x08, 0x00, 0x00, 0x51, 0x01, 0x00, 0x00, 0x58, 0x03, 0x00, 0x00, 0x3a, 0xec, 0xff, 0xff, 0x81, 0xf4, 0xff, 0xff, 0x88, 0xee, 0xff, 0xff, 0x58, 0xf6, 0xff, 0xff, 0x4a, 0xec, 0xff, 0xff, 0xec, 0x02, 0x00, 0x00, 0xa7, 0x00, 0x00, 0x00, 0xe0, 0xf6, 0xff, 0xff, 0xeb, 0x07, 0x00, 0x00, 0x0e, 0xfd, 0xff, 0xff, 0xd9, 0xfd, 0xff, 0xff, 0x04, 0xed, 0xff, 0xff, 0x1e, 0xeb, 0xff, 0xff, 0x05, 0xf3, 0xff, 0xff, 0x04, 0x0a, 0x00, 0x00, 0x5e, 0xfe, 0xff, 0xff, 0x47, 0xfa, 0xff, 0xff, 0x9a, 0xf3, 0xff, 0xff, 0x04, 0x00, 0x00, 0x00, 0x20, 0x01, 0x00, 0x00, 0xef, 0x74, 0x7f, 0xa9, 0x0b, 0x95, 0x6c, 0x81, 0x8f, 0x0e, 0x22, 0xa6, 0x28, 0xd9, 0xa8, 0x3b, 0x6b, 0xed, 0x54, 0x8c, 0xfe, 0xd1, 0x19, 0x9c, 0x5d, 0x69, 0xd8, 0xa6, 0xb6, 0x4b, 0xb9, 0xe0, 0x31, 0x06, 0xf2, 0x06, 0xc0, 0x1d, 0x35, 0x0f, 0x75, 0xca, 0x6a, 0x81, 0x83, 0x31, 0x81, 0x9a, 0x54, 0xf9, 0x17, 0x0a, 0x3c, 0x12, 0xf4, 0x8d, 0xbd, 0x7f, 0x92, 0xeb, 0x7f, 0x60, 0x9d, 0x18, 0x86, 0x7f, 0x0f, 0x7f, 0xb0, 0x7f, 0x77, 0xe7, 0xc2, 0x2d, 0x3e, 0xac, 0x17, 0xce, 0x92, 0xff, 0x59, 0xbc, 0xf6, 0x2f, 0x6e, 0x71, 0xe1, 0x81, 0x75, 0x15, 0x81, 0x15, 0x7d, 0x9b, 0x81, 0xbc, 0xae, 0xab, 0x0b, 0x3c, 0x00, 0xcc, 0xa4, 0x47, 0xe4, 0xc0, 0xed, 0x8e, 0x6d, 0x81, 0x67, 0x7f, 0x81, 0x75, 0xa6, 0x04, 0x99, 0x70, 0x04, 0x1b, 0x81, 0xf6, 0x15, 0x25, 0xb1, 0xa6, 0x8b, 0x4e, 0x7f, 0x88, 0xd5, 0x09, 0x94, 0xad, 0x6f, 0x88, 0x04, 0x7f, 0x9a, 0xbf, 0x3c, 0x2c, 0x33, 0x54, 0x18, 0x48, 0x1b, 0xd8, 0x45, 0xd9, 0x7f, 0x3a, 0x5a, 0xb4, 0xe1, 0xf9, 0x2f, 0xc4, 0xd0, 0x7a, 0x1b, 0xcf, 0xf7, 0xf6, 0x24, 0x09, 0x81, 0xfd, 0x61, 0xea, 0x7f, 0xd7, 0x81, 0x41, 0x62, 0xb9, 0xfd, 0x7f, 0x7f, 0x3e, 0xcc, 0xbd, 0x2e, 0x35, 0xc5, 0xed, 0x07, 0xfa, 0x76, 0x7f, 0xd0, 0x03, 0x47, 0x13, 0x67, 0x4e, 0x61, 0x01, 0xd5, 0x3b, 0x7c, 0xa4, 0x1f, 0xf7, 0x94, 0xe4, 0xbf, 0xc1, 0xd6, 0x6e, 0x33, 0x44, 0x7f, 0x81, 0xea, 0xb3, 0x57, 0x55, 0x8e, 0x33, 0xb5, 0x8b, 0x22, 0x7f, 0x97, 0xcd, 0x13, 0xfa, 0x81, 0xc9, 0x47, 0xa9, 0x81, 0x57, 0xc5, 0xa1, 0x3e, 0xb4, 0xd0, 0xb7, 0xaa, 0xe8, 0x38, 0x81, 0xdd, 0x78, 0x18, 0x88, 0x02, 0x35, 0x05, 0x13, 0x2c, 0x5b, 0xe1, 0xad, 0x21, 0xb9, 0x31, 0xf8, 0x2f, 0x64, 0xb0, 0x3c, 0x18, 0x5a, 0x02, 0x22, 0xa1, 0xdc, 0xae, 0x11, 0x16, 0x4f, 0x3f, 0xe1, 0x03, 0x29, 0x15, 0xbc, 0x6d, 0x77, 0x43, 0x7f, 0x0e, 0xfb, 0xe6, 0xbb, 0xc6, 0xf4, 0xff, 0xff, 0x04, 0x00, 0x00, 0x00, 0x80, 0x00, 0x00, 0x00, 0xae, 0xfa, 0xff, 0xff, 0x4b, 0x14, 0x00, 0x00, 0x5f, 0xdd, 0xff, 0xff, 0x0e, 0xf3, 0xff, 0xff, 0xa0, 0x16, 0x00, 0x00, 0xea, 0xf1, 0xff, 0xff, 0xda, 0xf2, 0xff, 0xff, 0xf0, 0x10, 0x00, 0x00, 0x8d, 0xf4, 0xff, 0xff, 0xb7, 0xde, 0xff, 0xff, 0xc3, 0xf8, 0xff, 0xff, 0x31, 0x43, 0x00, 0x00, 0x0f, 0x11, 0x00, 0x00, 0x2f, 0x05, 0x00, 0x00, 0x76, 0x16, 0x00, 0x00, 0x14, 0xfb, 0xff, 0xff, 0xfe, 0xf1, 0xff, 0xff, 0x14, 0xe8, 0xff, 0xff, 0x97, 0xef, 0xff, 0xff, 0x92, 0xfc, 0xff, 0xff, 0xf1, 0xf5, 0xff, 0xff, 0x31, 0xf7, 0xff, 0xff, 0x7d, 0xf8, 0xff, 0xff, 0xad, 0x2e, 0x00, 0x00, 0x7e, 0xfa, 0xff, 0xff, 0x0e, 0xe1, 0xff, 0xff, 0xb5, 0x26, 0x00, 0x00, 0xe3, 0xf0, 0xff, 0xff, 0xb1, 0xfa, 0xff, 0xff, 0x8a, 0xeb, 0xff, 0xff, 0x1d, 0x2c, 0x00, 0x00, 0x5e, 0xf8, 0xff, 0xff, 0x52, 0xf5, 0xff, 0xff, 0x04, 0x00, 0x00, 0x00, 0x00, 0x08, 0x00, 0x00, 0x29, 0xff, 0xa0, 0x57, 0x9e, 0x7f, 0x16, 0x6f, 0xa4, 0x7b, 0xb2, 0x6f, 0x63, 0xf8, 0x26, 0x27, 0x31, 0x7c, 0x7f, 0xa3, 0x0c, 0xfb, 0x97, 0x41, 0x46, 0x08, 0x0e, 0xaa, 0xe0, 0x33, 0xab, 0xca, 0x8e, 0x2b, 0x7d, 0x9b, 0xf2, 0xb9, 0x04, 0x01, 0xa7, 0x1b, 0x02, 0xb1, 0x00, 0xbe, 0x7f, 0xaa, 0xf1, 0x03, 0xb5, 0xa0, 0x17, 0x56, 0xfa, 0xfb, 0x05, 0x5d, 0xd6, 0x60, 0xf9, 0xde, 0x3a, 0xcf, 0x25, 0xcc, 0x5d, 0xc6, 0x5d, 0x7f, 0x2f, 0x95, 0xe1, 0xc1, 0x2c, 0x3d, 0xd4, 0x23, 0xb4, 0xae, 0x8a, 0x75, 0x3b, 0xb2, 0x7b, 0x07, 0xc6, 0x60, 0xef, 0xa4, 0xa2, 0x42, 0x3e, 0xb7, 0x99, 0xbd, 0x64, 0x64, 0x69, 0x5d, 0xb1, 0x12, 0xf9, 0x9a, 0xaa, 0xab, 0x4e, 0x2f, 0x81, 0xc6, 0x31, 0x2a, 0xab, 0xd8, 0x1e, 0x4c, 0x4f, 0xd9, 0xee, 0xc5, 0xa8, 0xe4, 0x21, 0xad, 0xca, 0x38, 0xb6, 0x0f, 0x5b, 0xd5, 0x22, 0xf8, 0x28, 0xbe, 0x9a, 0x57, 0xbc, 0xa2, 0xa0, 0xa4, 0x37, 0xe7, 0x21, 0xaa, 0x41, 0x6b, 0x2d, 0x00, 0x58, 0xd8, 0x09, 0xc0, 0xc2, 0xaf, 0x96, 0x7f, 0x52, 0x61, 0xe7, 0xcb, 0xd3, 0xaa, 0x5e, 0xae, 0xc6, 0xee, 0x10, 0xb2, 0xc9, 0xfc, 0x43, 0x08, 0x5f, 0x30, 0x74, 0xa1, 0xb3, 0x7f, 0xcf, 0xea, 0x66, 0xa1, 0xb7, 0xd0, 0x10, 0x32, 0x51, 0x58, 0x1f, 0xcb, 0xf6, 0x44, 0x49, 0xf3, 0xd5, 0x07, 0xda, 0x6a, 0x08, 0x4b, 0xe6, 0x09, 0x5f, 0x46, 0xb7, 0xcb, 0xdd, 0xe2, 0xde, 0xce, 0x1a, 0x45, 0x21, 0xb4, 0xd3, 0x64, 0x30, 0x10, 0xb6, 0xe6, 0x35, 0x0f, 0x7d, 0x81, 0xa6, 0xea, 0x9c, 0x64, 0xf9, 0xf2, 0xf7, 0x96, 0x66, 0xc1, 0x41, 0x36, 0xcd, 0xb4, 0x53, 0x92, 0x20, 0x03, 0x2f, 0x2e, 0x72, 0x6a, 0x1a, 0x46, 0x34, 0x22, 0xd6, 0x57, 0xc0, 0x7f, 0x28, 0x0a, 0x9f, 0x8d, 0x09, 0xc1, 0x62, 0x09, 0x1b, 0x27, 0x29, 0x0f, 0x53, 0xbd, 0x4b, 0xc1, 0x0c, 0x2c, 0xb9, 0x37, 0xfd, 0x72, 0x22, 0x08, 0xd9, 0x45, 0x81, 0x0b, 0x18, 0x26, 0x39, 0x9a, 0xc8, 0xc4, 0x71, 0x69, 0x1a, 0xd2, 0xca, 0xdf, 0xe1, 0x02, 0xf0, 0x3d, 0xe2, 0x20, 0xf0, 0xb4, 0x9e, 0xac, 0x1e, 0x7f, 0xdc, 0xa9, 0x53, 0x2c, 0x38, 0xc0, 0xbe, 0xac, 0x81, 0xb6, 0x31, 0xf4, 0x36, 0x4b, 0xeb, 0x63, 0x47, 0xee, 0x6c, 0xc5, 0x0a, 0xed, 0xf3, 0x41, 0x63, 0x6f, 0xdf, 0xcf, 0x7f, 0xf4, 0x25, 0x17, 0xbe, 0x9f, 0xc0, 0x56, 0x61, 0x3a, 0x4f, 0xc6, 0x3a, 0x58, 0x35, 0x4d, 0x2a, 0xdc, 0x36, 0x26, 0x10, 0xdf, 0x69, 0xd3, 0x5e, 0x0f, 0x26, 0x46, 0xb0, 0x14, 0xf2, 0x9f, 0xda, 0x45, 0x2d, 0x25, 0xdc, 0x51, 0xa2, 0xdb, 0xb5, 0x41, 0x4d, 0x7c, 0x82, 0xee, 0xf3, 0x6d, 0x57, 0x7f, 0x6d, 0x4e, 0xb3, 0x81, 0x9b, 0x03, 0xa0, 0x97, 0xdd, 0x32, 0x4f, 0x9c, 0xfe, 0xa6, 0x74, 0x1b, 0xed, 0x31, 0xea, 0x58, 0x41, 0xa0, 0xc3, 0x50, 0xa0, 0x50, 0xe7, 0xb2, 0x89, 0xff, 0xff, 0x8d, 0x1b, 0x54, 0x81, 0xeb, 0x59, 0xd5, 0xe8, 0xde, 0x14, 0xed, 0x5e, 0xd7, 0xdb, 0x0a, 0xd1, 0x14, 0x29, 0xe5, 0x98, 0x18, 0xa7, 0xe5, 0x3a, 0x27, 0x36, 0x35, 0x42, 0x57, 0x24, 0xc6, 0x10, 0x47, 0xf7, 0x17, 0xf5, 0x07, 0xc0, 0x6e, 0xff, 0xcc, 0x62, 0x67, 0x10, 0x66, 0xe4, 0x14, 0x5f, 0xe3, 0x7d, 0x7f, 0xd6, 0xd3, 0xbf, 0x6b, 0x2d, 0x6f, 0x44, 0x2d, 0x12, 0x9e, 0xf4, 0x2e, 0x48, 0x0f, 0x04, 0x7f, 0x14, 0xb9, 0x0a, 0xac, 0x60, 0x9d, 0xb4, 0x13, 0x96, 0x4d, 0x5d, 0x0a, 0x9c, 0x1d, 0xd6, 0xbc, 0xbe, 0xd4, 0x5e, 0x63, 0x25, 0xd8, 0x89, 0x14, 0xa4, 0xe8, 0x21, 0x75, 0x1e, 0x51, 0x8b, 0x34, 0x55, 0x90, 0x2c, 0xfe, 0x9b, 0x1b, 0x0d, 0xd8, 0xa3, 0x11, 0x4c, 0x0e, 0xcd, 0x9a, 0xde, 0x4d, 0x7f, 0xc6, 0xcd, 0x50, 0xda, 0x95, 0x11, 0x09, 0x4e, 0xee, 0x3a, 0x26, 0xf5, 0x28, 0x41, 0x40, 0xb7, 0x86, 0x26, 0x5b, 0x11, 0x14, 0x9b, 0x5d, 0xcf, 0x0f, 0xda, 0xeb, 0x01, 0x09, 0xf4, 0xc1, 0x52, 0x9f, 0x86, 0x81, 0xe7, 0xd9, 0xce, 0xc1, 0x1f, 0xe3, 0x02, 0x3c, 0x75, 0xc5, 0xcf, 0x1d, 0xd2, 0xcc, 0x81, 0xc1, 0xd6, 0x98, 0xc8, 0x03, 0x87, 0x33, 0x1b, 0x43, 0xd2, 0x21, 0x2c, 0xed, 0xe7, 0xa3, 0x02, 0xc9, 0x09, 0xae, 0x6c, 0x37, 0x52, 0x59, 0x3a, 0xba, 0x50, 0xe1, 0x44, 0xc0, 0xa9, 0xcf, 0xaf, 0xb4, 0xc5, 0xae, 0x7a, 0xbf, 0xa0, 0x10, 0x7e, 0xbf, 0x35, 0x2a, 0x17, 0xde, 0x7f, 0xa9, 0x11, 0x55, 0x3f, 0xe0, 0x7b, 0xf3, 0xfb, 0xea, 0xb0, 0xfa, 0xee, 0x23, 0x53, 0xd5, 0x41, 0x7f, 0x35, 0xd7, 0x08, 0x1b, 0x74, 0x4b, 0x53, 0xb9, 0xc4, 0xef, 0x67, 0xb7, 0x59, 0xa3, 0x69, 0x14, 0x85, 0xb9, 0xf4, 0xb9, 0x61, 0xa1, 0xbf, 0x40, 0xd9, 0x84, 0x1d, 0xbf, 0xc9, 0x62, 0x8f, 0x16, 0x8b, 0xe9, 0x5b, 0x98, 0x2e, 0xcf, 0xfe, 0xf6, 0x2b, 0x5d, 0x38, 0x92, 0xde, 0xdb, 0x97, 0x1f, 0x11, 0xac, 0x0f, 0xa2, 0x10, 0x0b, 0x6c, 0x33, 0x96, 0x14, 0xc0, 0x81, 0x67, 0x1d, 0x42, 0x7f, 0xbf, 0xf9, 0x18, 0x13, 0xb1, 0xd8, 0xc2, 0x1c, 0xcd, 0xcc, 0x53, 0xfd, 0xea, 0x73, 0xd5, 0x39, 0x36, 0xe4, 0xa9, 0xcb, 0xc3, 0x5e, 0x33, 0xab, 0xba, 0x3d, 0x86, 0x02, 0xc1, 0xec, 0x0f, 0x57, 0xed, 0xa5, 0xd2, 0xa0, 0xda, 0x05, 0x7f, 0xe1, 0x99, 0x18, 0x1d, 0xd8, 0xaa, 0x3f, 0x8a, 0x27, 0x71, 0x2d, 0x2a, 0x47, 0xca, 0xdf, 0xe1, 0x16, 0x55, 0x05, 0x16, 0x1a, 0x92, 0x76, 0x51, 0xf4, 0x38, 0xbe, 0x1e, 0xfd, 0x88, 0xf3, 0x25, 0xb3, 0xb3, 0xab, 0xc4, 0xa4, 0xff, 0x9d, 0xe9, 0xe2, 0xf7, 0xf1, 0xd7, 0x68, 0x43, 0x73, 0xf4, 0x65, 0xa6, 0x81, 0x9a, 0xa5, 0x44, 0x95, 0x23, 0x1d, 0xdf, 0x48, 0x38, 0x27, 0xab, 0x69, 0x15, 0xb7, 0x19, 0xd7, 0xe4, 0x22, 0x4f, 0xa4, 0xce, 0x58, 0x4e, 0x4a, 0xb9, 0x5c, 0x3a, 0x78, 0xec, 0x4e, 0x7f, 0x2f, 0x24, 0x52, 0x32, 0xab, 0xfd, 0xa2, 0xb3, 0x47, 0xff, 0x96, 0x2b, 0x9d, 0x64, 0xbb, 0x6b, 0x60, 0x04, 0x9a, 0xb3, 0x31, 0x4c, 0xf2, 0x99, 0x51, 0x51, 0xce, 0x1e, 0x4d, 0x81, 0x17, 0x9d, 0x23, 0x99, 0xd1, 0x31, 0x22, 0x70, 0x53, 0x01, 0x77, 0xf7, 0x93, 0xa0, 0x35, 0x10, 0xec, 0xb0, 0xb8, 0x0a, 0x4d, 0x24, 0xb8, 0x98, 0xd3, 0x0f, 0xbb, 0x2c, 0x76, 0x23, 0x11, 0xb7, 0xb6, 0x81, 0xac, 0xee, 0x99, 0xd8, 0x4f, 0x44, 0x8f, 0x1b, 0xb5, 0x4e, 0x69, 0x67, 0xa2, 0xa8, 0x71, 0x29, 0x81, 0x06, 0x46, 0xb9, 0xec, 0x86, 0xea, 0xd4, 0x0e, 0x37, 0xd5, 0x9b, 0x9b, 0xc3, 0x4a, 0x5f, 0x94, 0x60, 0x36, 0x2b, 0xf6, 0xba, 0x17, 0x59, 0x7f, 0x3c, 0x05, 0x24, 0xbc, 0xdf, 0xff, 0x6e, 0x35, 0x20, 0xa1, 0x32, 0x32, 0xd8, 0x7d, 0xce, 0x28, 0xac, 0x50, 0x5b, 0x76, 0xf2, 0x0b, 0xa4, 0xd0, 0xde, 0x73, 0x39, 0x1e, 0x56, 0x23, 0xc0, 0x94, 0xf0, 0x6b, 0x6b, 0xa4, 0xf0, 0xdf, 0x7f, 0xf4, 0x18, 0x47, 0xa9, 0x6f, 0xde, 0x4f, 0xf1, 0x4f, 0x36, 0x18, 0xd1, 0x28, 0xcc, 0x27, 0xf6, 0x62, 0x27, 0x2e, 0x62, 0xa6, 0xde, 0xa9, 0x36, 0xfc, 0x92, 0x4e, 0x0f, 0x9c, 0x9b, 0x08, 0xc8, 0x92, 0x27, 0x3c, 0xab, 0xd1, 0x42, 0xfa, 0xd8, 0x69, 0x81, 0xb0, 0x1d, 0x38, 0xc9, 0xee, 0x21, 0x30, 0x0a, 0xb3, 0xb8, 0x56, 0x1a, 0x49, 0xc8, 0x08, 0x36, 0x3b, 0x23, 0xb0, 0xb3, 0xe1, 0x8c, 0x50, 0x79, 0xbe, 0x7f, 0x8c, 0xf9, 0xb6, 0x2f, 0x64, 0x70, 0xbd, 0xea, 0xad, 0x34, 0xbd, 0x3a, 0xf8, 0xc9, 0xb4, 0xa1, 0x9c, 0x56, 0xb6, 0xd8, 0x4c, 0x37, 0xbb, 0xea, 0xc6, 0xc0, 0x98, 0xb4, 0x4d, 0xaa, 0x2f, 0x7f, 0x19, 0x42, 0x9b, 0xc3, 0xa3, 0x05, 0x1a, 0xd3, 0x27, 0x28, 0x2f, 0x75, 0x3f, 0x64, 0xb8, 0x2c, 0xa6, 0xaf, 0x08, 0x3d, 0xa9, 0x0f, 0xcb, 0xcc, 0xc1, 0x61, 0xeb, 0xc4, 0x41, 0x12, 0x56, 0x4e, 0xc0, 0x60, 0x7f, 0xff, 0x4d, 0x61, 0xef, 0xb1, 0x2d, 0xc2, 0x0f, 0x39, 0xbb, 0xe5, 0x20, 0x50, 0x0f, 0x86, 0x55, 0xa7, 0xa0, 0x57, 0x4e, 0xfe, 0xd9, 0xa3, 0x3d, 0x94, 0xa2, 0x30, 0xce, 0x2f, 0x37, 0x23, 0x83, 0x4f, 0xf8, 0x63, 0xfc, 0x91, 0x81, 0x4d, 0x90, 0x37, 0x03, 0xc8, 0x93, 0x4a, 0x43, 0x41, 0xb9, 0x2e, 0x95, 0x20, 0x4f, 0x0e, 0xa8, 0xed, 0xd0, 0xae, 0x62, 0xd1, 0x15, 0x3c, 0x26, 0xff, 0xb7, 0x25, 0x2c, 0x3e, 0x83, 0xd0, 0x03, 0x69, 0x3c, 0xfe, 0x56, 0x7f, 0x85, 0x49, 0x28, 0x17, 0x27, 0x2f, 0xc1, 0xda, 0x2e, 0xd1, 0xd7, 0xef, 0x1f, 0xf1, 0x4f, 0xf7, 0x28, 0xdb, 0x11, 0xdf, 0xb8, 0xd3, 0x34, 0xb6, 0x1a, 0x79, 0x7f, 0xad, 0x6f, 0xee, 0xf9, 0x23, 0xbf, 0x52, 0x49, 0x03, 0xfa, 0x0a, 0x34, 0x7d, 0xf1, 0x4d, 0xa9, 0x7a, 0x44, 0x1c, 0x41, 0x5f, 0x22, 0x48, 0xce, 0xe7, 0xca, 0x1c, 0xd0, 0x7f, 0xe0, 0xc0, 0x5e, 0xa1, 0xa3, 0xf7, 0x16, 0xea, 0xec, 0x91, 0x8c, 0x69, 0x12, 0x21, 0x3d, 0xdb, 0x7f, 0x1a, 0x17, 0xea, 0xdb, 0xaf, 0xb7, 0xd6, 0x1a, 0x70, 0x26, 0x98, 0x7a, 0x6a, 0xfb, 0x4d, 0xa4, 0x49, 0x34, 0xcc, 0x38, 0xfc, 0x47, 0xf6, 0xbf, 0xc3, 0xb2, 0x38, 0x97, 0xed, 0x63, 0x07, 0x04, 0x13, 0x7d, 0x3b, 0x0c, 0x10, 0x38, 0x16, 0xe2, 0x29, 0x7f, 0x73, 0x64, 0x08, 0xa2, 0x17, 0xc9, 0x28, 0x42, 0xde, 0xb4, 0x49, 0x1f, 0x44, 0x5b, 0x07, 0xf8, 0x4d, 0xc7, 0x2a, 0x19, 0x56, 0x98, 0x09, 0x8f, 0x32, 0xde, 0x53, 0xf6, 0x70, 0x0d, 0xdb, 0xe0, 0xda, 0x81, 0x88, 0x4c, 0x8f, 0xeb, 0x29, 0x15, 0x73, 0xe4, 0xd1, 0x31, 0x6d, 0x35, 0x2d, 0x8b, 0xdd, 0xa3, 0x9b, 0xcb, 0x2d, 0x62, 0xee, 0x02, 0x88, 0xbe, 0xbf, 0x2e, 0xa6, 0xbb, 0x60, 0x90, 0x28, 0xc5, 0xa1, 0xc0, 0xa2, 0xa3, 0x67, 0x81, 0x56, 0xd4, 0x8d, 0xb7, 0x12, 0x43, 0xce, 0x5e, 0x03, 0xa4, 0x79, 0xff, 0xbb, 0xc3, 0x23, 0x57, 0x27, 0xd1, 0x7b, 0x12, 0x99, 0xeb, 0x7f, 0x27, 0xe9, 0x72, 0x63, 0xdd, 0xd0, 0x1b, 0xa6, 0x93, 0x74, 0x8e, 0x70, 0xeb, 0x6f, 0xa9, 0x01, 0xca, 0xf5, 0x00, 0xdb, 0x95, 0xb9, 0xed, 0xe8, 0xfb, 0xf9, 0xcb, 0x33, 0xfa, 0x8f, 0xe3, 0x0a, 0x36, 0x7f, 0xcf, 0xdf, 0x2f, 0xaf, 0x76, 0x57, 0xa2, 0x01, 0x67, 0x2a, 0x26, 0xc8, 0x93, 0xde, 0xea, 0x7d, 0xef, 0x03, 0xa7, 0x79, 0x26, 0x78, 0x39, 0xbe, 0xc8, 0x00, 0x77, 0x98, 0x89, 0x70, 0xe2, 0x9b, 0x43, 0x3b, 0x27, 0x00, 0x81, 0x57, 0xa1, 0x40, 0x0c, 0x0c, 0x26, 0xa1, 0xce, 0x14, 0xdb, 0x29, 0x0b, 0xfb, 0x26, 0xc5, 0xa3, 0x5a, 0xbf, 0x9a, 0xba, 0x2d, 0x10, 0xb3, 0xdb, 0xda, 0x9e, 0x70, 0x9c, 0x6c, 0x0d, 0xec, 0xff, 0x0c, 0xc1, 0xca, 0xda, 0x0d, 0xa4, 0x31, 0x7f, 0xfb, 0xc3, 0x66, 0xe4, 0x9b, 0xd1, 0xe7, 0x3b, 0xc7, 0x3b, 0x4b, 0xe0, 0xc5, 0x4f, 0x60, 0x1c, 0x09, 0xa3, 0x81, 0xf5, 0x54, 0xcd, 0xd5, 0x0d, 0x0a, 0xdc, 0xea, 0x4b, 0xf0, 0xd8, 0x6f, 0x6b, 0x95, 0xbe, 0xcd, 0x14, 0xc2, 0x7d, 0x1f, 0x07, 0xb6, 0x68, 0xda, 0x88, 0xbd, 0xd8, 0x1f, 0xdc, 0xe2, 0x02, 0x33, 0xd0, 0x7f, 0xed, 0x3c, 0xe5, 0x1b, 0xe2, 0x21, 0x26, 0x17, 0xca, 0xb5, 0x02, 0x74, 0x32, 0xce, 0x8d, 0xe6, 0xe3, 0xa1, 0x96, 0x91, 0xbf, 0x56, 0x20, 0x14, 0xa6, 0x39, 0x81, 0xf6, 0x11, 0x0e, 0x4c, 0x4b, 0xa6, 0x71, 0xd1, 0xef, 0xb5, 0x6a, 0x86, 0x00, 0x4d, 0x00, 0xd4, 0x74, 0x98, 0x23, 0x9a, 0x71, 0x20, 0xc2, 0x4c, 0xa6, 0x8a, 0x5e, 0xbe, 0x46, 0x4b, 0xe2, 0x50, 0x17, 0x39, 0x02, 0xce, 0x0d, 0x69, 0xd3, 0x7f, 0x3e, 0x6d, 0x1f, 0xd3, 0x30, 0xff, 0xe0, 0x0c, 0xa1, 0xe4, 0xfc, 0x24, 0xc5, 0xe8, 0x50, 0x1b, 0x2a, 0xbc, 0x2a, 0x65, 0xd3, 0xcf, 0xd5, 0xad, 0xeb, 0xaf, 0xc3, 0xd3, 0x81, 0x9d, 0xa0, 0xa3, 0xc9, 0xd1, 0x48, 0xce, 0xef, 0x02, 0x5f, 0x1d, 0x61, 0x5e, 0xed, 0x32, 0xb2, 0xb8, 0xd1, 0xdd, 0xfc, 0x69, 0x51, 0xe4, 0xf4, 0x40, 0xd6, 0xcf, 0x82, 0x9a, 0x8a, 0x0f, 0xaf, 0xec, 0xd9, 0x32, 0xdc, 0x31, 0xe9, 0xe0, 0x00, 0x84, 0x14, 0x81, 0xce, 0xd0, 0x5c, 0x8d, 0x07, 0xea, 0xca, 0x59, 0x47, 0x02, 0x9d, 0x17, 0xbb, 0x14, 0xd7, 0xd6, 0x85, 0xfd, 0x7f, 0xe8, 0x64, 0x2b, 0x0d, 0x0f, 0x94, 0xfa, 0xf1, 0x95, 0xab, 0x2e, 0x71, 0xae, 0x93, 0xc5, 0x4e, 0x53, 0x0b, 0xd1, 0x12, 0xcd, 0xc9, 0x18, 0xcc, 0x05, 0x84, 0x43, 0xc1, 0x1c, 0x42, 0x44, 0x9a, 0x97, 0xb4, 0x48, 0xc7, 0xe6, 0x81, 0xef, 0x9d, 0xfd, 0xc6, 0x41, 0x33, 0x0f, 0x1f, 0x37, 0x50, 0xef, 0xa0, 0x9b, 0xbf, 0x19, 0x7f, 0xd2, 0x24, 0xef, 0x9a, 0xe6, 0x03, 0x85, 0x22, 0x7c, 0x0c, 0x7a, 0xc3, 0xf0, 0x16, 0x36, 0x93, 0x32, 0xb1, 0x6b, 0xdf, 0x5f, 0xa0, 0x19, 0x35, 0x66, 0xa6, 0x1c, 0xff, 0x2d, 0xdd, 0x87, 0x2e, 0xdc, 0x1b, 0x52, 0x71, 0x52, 0x76, 0x46, 0x1f, 0xdc, 0xb1, 0xfc, 0xc1, 0x13, 0x70, 0x2b, 0xa9, 0xcc, 0x9b, 0x07, 0x7d, 0x7f, 0xc9, 0x63, 0x34, 0x12, 0x7b, 0x17, 0xce, 0xda, 0xd8, 0x34, 0x7f, 0x3f, 0xef, 0x28, 0x1a, 0xbf, 0x70, 0x45, 0x48, 0xc3, 0x67, 0x60, 0x39, 0xf2, 0x6f, 0xd4, 0x18, 0x41, 0xea, 0x08, 0x46, 0xa3, 0x67, 0xa1, 0x87, 0xed, 0xed, 0x79, 0xcf, 0xd4, 0x20, 0x55, 0xc4, 0x13, 0x53, 0xdd, 0xf2, 0x56, 0x66, 0x31, 0xef, 0x47, 0xce, 0x59, 0x63, 0x22, 0xe1, 0xaf, 0xe6, 0x8c, 0x81, 0x3e, 0xf1, 0xd9, 0x8b, 0xd1, 0x5f, 0x49, 0xf1, 0xb1, 0xf7, 0x85, 0x74, 0x50, 0x5c, 0xdb, 0x9b, 0x24, 0xa5, 0x43, 0x01, 0x1e, 0xc3, 0xec, 0x81, 0x26, 0x5f, 0x5e, 0x6e, 0x86, 0xcd, 0xe2, 0xd6, 0xbb, 0x4e, 0x83, 0x4a, 0x87, 0x2b, 0x7f, 0x35, 0x87, 0x17, 0x34, 0xd6, 0x6d, 0x46, 0xf4, 0x91, 0xe5, 0x79, 0x9c, 0x71, 0xbf, 0x2b, 0xb7, 0x56, 0xf0, 0xd4, 0xfe, 0x00, 0xa0, 0xdd, 0xeb, 0x0c, 0x31, 0x3d, 0xd1, 0xd6, 0xd9, 0xab, 0xfb, 0x49, 0x7f, 0x0f, 0xd5, 0x3c, 0xce, 0x93, 0x6d, 0xe8, 0x96, 0xdf, 0x5c, 0x4b, 0xf7, 0x3f, 0x6d, 0x3f, 0xba, 0x9f, 0x20, 0x73, 0x18, 0x99, 0xa5, 0xa4, 0x79, 0xf1, 0xb7, 0x04, 0x52, 0x24, 0xe9, 0xd8, 0xc3, 0x49, 0x22, 0x45, 0x29, 0x02, 0x69, 0xf1, 0x89, 0x91, 0xac, 0xbd, 0x7f, 0xba, 0xba, 0x30, 0xae, 0xb1, 0xfe, 0x8a, 0x43, 0xd0, 0xfa, 0xc0, 0xd4, 0x63, 0xa1, 0x30, 0xf7, 0x0a, 0xde, 0xcf, 0xad, 0x57, 0x4c, 0x41, 0x58, 0xb4, 0x1d, 0x84, 0x56, 0x39, 0x67, 0xf0, 0xbb, 0xea, 0x3a, 0xa4, 0xdf, 0xf4, 0x93, 0x5f, 0x1a, 0x81, 0xaf, 0xab, 0x1e, 0x47, 0xd5, 0x64, 0xeb, 0x5e, 0xfd, 0xff, 0xff, 0x04, 0x00, 0x00, 0x00, 0x00, 0x01, 0x00, 0x00, 0xe6, 0xb3, 0xff, 0xff, 0x99, 0x16, 0x00, 0x00, 0x7a, 0x12, 0x00, 0x00, 0x84, 0x1d, 0x00, 0x00, 0x56, 0x1e, 0x00, 0x00, 0x95, 0xf4, 0xff, 0xff, 0x2b, 0xd8, 0xff, 0xff, 0x30, 0xb9, 0xff, 0xff, 0x27, 0xfe, 0xff, 0xff, 0xd8, 0x20, 0x00, 0x00, 0xe7, 0x6c, 0xff, 0xff, 0xaa, 0xad, 0xff, 0xff, 0x4d, 0x51, 0x00, 0x00, 0xc6, 0xdf, 0xff, 0xff, 0x35, 0x6a, 0xff, 0xff, 0xa6, 0xfd, 0xff, 0xff, 0x1f, 0x06, 0x00, 0x00, 0x30, 0x44, 0x00, 0x00, 0x7c, 0x30, 0x00, 0x00, 0x05, 0x0e, 0x00, 0x00, 0x05, 0xfb, 0xff, 0xff, 0x95, 0x59, 0x00, 0x00, 0x96, 0x0b, 0x00, 0x00, 0xe3, 0xfd, 0xff, 0xff, 0xe4, 0x55, 0x00, 0x00, 0x6f, 0x8a, 0xff, 0xff, 0x0c, 0x32, 0x00, 0x00, 0x2c, 0x24, 0x00, 0x00, 0x1c, 0x13, 0x00, 0x00, 0x46, 0xa4, 0xff, 0xff, 0xf0, 0x92, 0xff, 0xff, 0x3a, 0x5e, 0x00, 0x00, 0x11, 0x10, 0x00, 0x00, 0xfb, 0x23, 0x00, 0x00, 0x50, 0xed, 0xff, 0xff, 0xe2, 0x4f, 0x00, 0x00, 0xbc, 0xde, 0xff, 0xff, 0xe9, 0xd7, 0xff, 0xff, 0x0e, 0xae, 0xff, 0xff, 0x93, 0xeb, 0xff, 0xff, 0x2d, 0x96, 0xff, 0xff, 0x2c, 0xef, 0xff, 0xff, 0xd6, 0xba, 0x00, 0x00, 0xf5, 0xd7, 0xff, 0xff, 0x98, 0x25, 0x00, 0x00, 0x9d, 0xff, 0xff, 0xff, 0x26, 0x2b, 0x00, 0x00, 0x8f, 0xf4, 0xff, 0xff, 0x20, 0x2d, 0x00, 0x00, 0x7c, 0x3b, 0x00, 0x00, 0xc1, 0xb7, 0xff, 0xff, 0xb5, 0x80, 0x00, 0x00, 0x73, 0x51, 0x00, 0x00, 0x73, 0x2d, 0x00, 0x00, 0xe4, 0x56, 0x00, 0x00, 0x8c, 0x05, 0x00, 0x00, 0x33, 0xa3, 0xff, 0xff, 0x1f, 0x71, 0xff, 0xff, 0x9c, 0x12, 0x00, 0x00, 0xe9, 0x25, 0x00, 0x00, 0x56, 0xf0, 0xff, 0xff, 0xcc, 0xdd, 0xff, 0xff, 0xc8, 0x53, 0x00, 0x00, 0x00, 0x0b, 0x00, 0x00, 0x6a, 0xfe, 0xff, 0xff, 0x04, 0x00, 0x00, 0x00, 0xc0, 0x00, 0x00, 0x00, 0x2b, 0x1e, 0xc3, 0x2d, 0xde, 0xd1, 0xed, 0xdc, 0x0e, 0xaf, 0x9a, 0xd3, 0x04, 0x39, 0x15, 0xbb, 0x24, 0x40, 0x93, 0x95, 0xba, 0x39, 0xaa, 0x89, 0x69, 0xcb, 0xb5, 0x4b, 0x6d, 0x9f, 0xbc, 0x63, 0xb0, 0xc9, 0xc2, 0x23, 0x2f, 0xbe, 0xc7, 0xb6, 0x16, 0x24, 0x5e, 0xfc, 0x53, 0x62, 0xa4, 0xdb, 0x09, 0x5e, 0x8b, 0x5d, 0x4d, 0x70, 0x09, 0xab, 0x8b, 0xa1, 0xe0, 0x54, 0x17, 0xc2, 0xbb, 0x7f, 0x29, 0xc2, 0x67, 0x03, 0xbd, 0x26, 0xee, 0x35, 0x5d, 0x75, 0x1f, 0x3b, 0xfe, 0xba, 0xd3, 0x6d, 0x81, 0xe3, 0x1a, 0xc7, 0x79, 0x01, 0xf4, 0x44, 0x9a, 0x96, 0x6a, 0x0d, 0x2d, 0xc8, 0xbb, 0xeb, 0x75, 0xe0, 0x08, 0x48, 0x25, 0xf9, 0x58, 0xe9, 0x94, 0xfb, 0xc3, 0x8a, 0xf1, 0x74, 0x8d, 0xbb, 0x01, 0x46, 0x9b, 0x01, 0x11, 0xad, 0xa2, 0x18, 0x1b, 0x56, 0x6b, 0x49, 0xaf, 0x69, 0x39, 0xc1, 0x43, 0xc3, 0x69, 0x9f, 0x44, 0x02, 0xc4, 0x3c, 0xd1, 0x63, 0x8d, 0x58, 0xf0, 0xe1, 0x2e, 0x2d, 0xe9, 0xae, 0xbf, 0x1a, 0xb2, 0x97, 0x13, 0xe1, 0xd3, 0x2d, 0x26, 0x2b, 0x1e, 0x05, 0xc7, 0x3c, 0xe2, 0x0b, 0x1c, 0xd0, 0xd6, 0x53, 0xd7, 0xec, 0x42, 0xd0, 0x81, 0x17, 0x43, 0x14, 0xf1, 0x9e, 0x6c, 0x1e, 0xec, 0x28, 0x17, 0x37, 0x96, 0x1e, 0xd4, 0x05, 0xef, 0xe3, 0xc0, 0x5a, 0x45, 0xc2, 0x36, 0xff, 0xff, 0xff, 0x04, 0x00, 0x00, 0x00, 0x0c, 0x00, 0x00, 0x00, 0x22, 0x1f, 0x00, 0x00, 0x85, 0xf2, 0xff, 0xff, 0x82, 0xdc, 0xff, 0xff, 0x4e, 0xff, 0xff, 0xff, 0x04, 0x00, 0x00, 0x00, 0x08, 0x00, 0x00, 0x00, 0x01, 0x00, 0x00, 0x00, 0x02, 0x00, 0x00, 0x00, 0x6c, 0xdf, 0xff, 0xff, 0x70, 0xdf, 0xff, 0xff, 0x0f, 0x00, 0x00, 0x00, 0x4d, 0x4c, 0x49, 0x52, 0x20, 0x43, 0x6f, 0x6e, 0x76, 0x65, 0x72, 0x74, 0x65, 0x64, 0x2e, 0x00, 0x01, 0x00, 0x00, 0x00, 0x14, 0x00, 0x00, 0x00, 0x00, 0x00, 0x0e, 0x00, 0x18, 0x00, 0x14, 0x00, 0x10, 0x00, 0x0c, 0x00, 0x08, 0x00, 0x04, 0x00, 0x0e, 0x00, 0x00, 0x00, 0x14, 0x00, 0x00, 0x00, 0x1c, 0x00, 0x00, 0x00, 0xf8, 0x02, 0x00, 0x00, 0xfc, 0x02, 0x00, 0x00, 0x00, 0x03, 0x00, 0x00, 0x04, 0x00, 0x00, 0x00, 0x6d, 0x61, 0x69, 0x6e, 0x00, 0x00, 0x00, 0x00, 0x0a, 0x00, 0x00, 0x00, 0x94, 0x02, 0x00, 0x00, 0x30, 0x02, 0x00, 0x00, 0xc8, 0x01, 0x00, 0x00, 0x88, 0x01, 0x00, 0x00, 0x44, 0x01, 0x00, 0x00, 0xec, 0x00, 0x00, 0x00, 0xac, 0x00, 0x00, 0x00, 0x78, 0x00, 0x00, 0x00, 0x40, 0x00, 0x00, 0x00, 0x04, 0x00, 0x00, 0x00, 0x02, 0xfe, 0xff, 0xff, 0x1c, 0x00, 0x00, 0x00, 0x00, 0x00, 0x00, 0x09, 0x1c, 0x00, 0x00, 0x00, 0x20, 0x00, 0x00, 0x00, 0x05, 0x00, 0x00, 0x00, 0x00, 0x00, 0x06, 0x00, 0x08, 0x00, 0x04, 0x00, 0x06, 0x00, 0x00, 0x00, 0x00, 0x00, 0x80, 0x3f, 0x01, 0x00, 0x00, 0x00, 0x17, 0x00, 0x00, 0x00, 0x01, 0x00, 0x00, 0x00, 0x16, 0x00, 0x00, 0x00, 0x1a, 0xff, 0xff, 0xff, 0x14, 0x00, 0x00, 0x00, 0x00, 0x00, 0x00, 0x08, 0x10, 0x00, 0x00, 0x00, 0x14, 0x00, 0x00, 0x00, 0x04, 0x00, 0x00, 0x00, 0x40, 0xe0, 0xff, 0xff, 0x01, 0x00, 0x00, 0x00, 0x16, 0x00, 0x00, 0x00, 0x03, 0x00, 0x00, 0x00, 0x15, 0x00, 0x00, 0x00, 0x03, 0x00, 0x00, 0x00, 0x02, 0x00, 0x00, 0x00, 0x4e, 0xff, 0xff, 0xff, 0x14, 0x00, 0x00, 0x00, 0x00, 0x00, 0x00, 0x1b, 0x10, 0x00, 0x00, 0x00, 0x14, 0x00, 0x00, 0x00, 0x03, 0x00, 0x00, 0x00, 0x74, 0xe0, 0xff, 0xff, 0x01, 0x00, 0x00, 0x00, 0x15, 0x00, 0x00, 0x00, 0x02, 0x00, 0x00, 0x00, 0x14, 0x00, 0x00, 0x00, 0x01, 0x00, 0x00, 0x00, 0x3e, 0xfe, 0xff, 0xff, 0x10, 0x00, 0x00, 0x00, 0x00, 0x00, 0x00, 0x01, 0x18, 0x00, 0x00, 0x00, 0x1c, 0x00, 0x00, 0x00, 0x30, 0xfe, 0xff, 0xff, 0x00, 0x00, 0x00, 0x01, 0x01, 0x00, 0x00, 0x00, 0x01, 0x00, 0x00, 0x00, 0x01, 0x00, 0x00, 0x00, 0x14, 0x00, 0x00, 0x00, 0x03, 0x00, 0x00, 0x00, 0x13, 0x00, 0x00, 0x00, 0x05, 0x00, 0x00, 0x00, 0x04, 0x00, 0x00, 0x00, 0xba, 0xff, 0xff, 0xff, 0x14, 0x00, 0x00, 0x00, 0x00, 0x00, 0x00, 0x02, 0x20, 0x00, 0x00, 0x00, 0x24, 0x00, 0x00, 0x00, 0x02, 0x00, 0x00, 0x00, 0x2e, 0xff, 0xff, 0xff, 0x00, 0x00, 0x00, 0x01, 0x01, 0x00, 0x00, 0x00, 0x01, 0x00, 0x00, 0x00, 0x01, 0x00, 0x00, 0x00, 0x01, 0x00, 0x00, 0x00, 0x13, 0x00, 0x00, 0x00, 0x03, 0x00, 0x00, 0x00, 0x12, 0x00, 0x00, 0x00, 0x07, 0x00, 0x00, 0x00, 0x06, 0x00, 0x00, 0x00, 0x00, 0x00, 0x0e, 0x00, 0x18, 0x00, 0x14, 0x00, 0x10, 0x00, 0x0c, 0x00, 0x0b, 0x00, 0x04, 0x00, 0x0e, 0x00, 0x00, 0x00, 0x14, 0x00, 0x00, 0x00, 0x00, 0x00, 0x00, 0x05, 0x24, 0x00, 0x00, 0x00, 0x28, 0x00, 0x00, 0x00, 0x01, 0x00, 0x00, 0x00, 0x1e, 0xff, 0xff, 0xff, 0x02, 0x00, 0x00, 0x00, 0x02, 0x00, 0x00, 0x00, 0x02, 0x00, 0x00, 0x00, 0x02, 0x00, 0x00, 0x00, 0x00, 0x00, 0x00, 0x01, 0x01, 0x00, 0x00, 0x00, 0x12, 0x00, 0x00, 0x00, 0x01, 0x00, 0x00, 0x00, 0x11, 0x00, 0x00, 0x00, 0x0e, 0xff, 0xff, 0xff, 0x10, 0x00, 0x00, 0x00, 0x00, 0x00, 0x00, 0x01, 0x18, 0x00, 0x00, 0x00, 0x1c, 0x00, 0x00, 0x00, 0x00, 0xff, 0xff, 0xff, 0x00, 0x00, 0x00, 0x01, 0x01, 0x00, 0x00, 0x00, 0x01, 0x00, 0x00, 0x00, 0x01, 0x00, 0x00, 0x00, 0x11, 0x00, 0x00, 0x00, 0x03, 0x00, 0x00, 0x00, 0x10, 0x00, 0x00, 0x00, 0x09, 0x00, 0x00, 0x00, 0x08, 0x00, 0x00, 0x00, 0xaa, 0xff, 0xff, 0xff, 0x24, 0x00, 0x00, 0x00, 0x00, 0x00, 0x00, 0x02, 0x30, 0x00, 0x00, 0x00, 0x34, 0x00, 0x00, 0x00, 0x02, 0x00, 0x00, 0x00, 0x00, 0x00, 0x0e, 0x00, 0x14, 0x00, 0x00, 0x00, 0x10, 0x00, 0x0c, 0x00, 0x08, 0x00, 0x07, 0x00, 0x0e, 0x00, 0x00, 0x00, 0x00, 0x00, 0x00, 0x01, 0x01, 0x00, 0x00, 0x00, 0x01, 0x00, 0x00, 0x00, 0x01, 0x00, 0x00, 0x00, 0x01, 0x00, 0x00, 0x00, 0x10, 0x00, 0x00, 0x00, 0x03, 0x00, 0x00, 0x00, 0x0f, 0x00, 0x00, 0x00, 0x0b, 0x00, 0x00, 0x00, 0x0a, 0x00, 0x00, 0x00, 0x00, 0x00, 0x0e, 0x00, 0x1a, 0x00, 0x14, 0x00, 0x10, 0x00, 0x0c, 0x00, 0x0b, 0x00, 0x04, 0x00, 0x0e, 0x00, 0x00, 0x00, 0x24, 0x00, 0x00, 0x00, 0x00, 0x00, 0x00, 0x05, 0x34, 0x00, 0x00, 0x00, 0x38, 0x00, 0x00, 0x00, 0x01, 0x00, 0x00, 0x00, 0x00, 0x00, 0x0e, 0x00, 0x18, 0x00, 0x17, 0x00, 0x10, 0x00, 0x0c, 0x00, 0x08, 0x00, 0x04, 0x00, 0x0e, 0x00, 0x00, 0x00, 0x02, 0x00, 0x00, 0x00, 0x02, 0x00, 0x00, 0x00, 0x02, 0x00, 0x00, 0x00, 0x02, 0x00, 0x00, 0x00, 0x00, 0x00, 0x00, 0x01, 0x01, 0x00, 0x00, 0x00, 0x0f, 0x00, 0x00, 0x00, 0x01, 0x00, 0x00, 0x00, 0x0e, 0x00, 0x00, 0x00, 0x00, 0x00, 0x0e, 0x00, 0x14, 0x00, 0x00, 0x00, 0x10, 0x00, 0x0c, 0x00, 0x0b, 0x00, 0x04, 0x00, 0x0e, 0x00, 0x00, 0x00, 0x1c, 0x00, 0x00, 0x00, 0x00, 0x00, 0x00, 0x01, 0x24, 0x00, 0x00, 0x00, 0x28, 0x00, 0x00, 0x00, 0x0c, 0x00, 0x10, 0x00, 0x00, 0x00, 0x0c, 0x00, 0x08, 0x00, 0x07, 0x00, 0x0c, 0x00, 0x00, 0x00, 0x00, 0x00, 0x00, 0x01, 0x01, 0x00, 0x00, 0x00, 0x01, 0x00, 0x00, 0x00, 0x01, 0x00, 0x00, 0x00, 0x0e, 0x00, 0x00, 0x00, 0x03, 0x00, 0x00, 0x00, 0x00, 0x00, 0x00, 0x00, 0x0d, 0x00, 0x00, 0x00, 0x0c, 0x00, 0x00, 0x00, 0x01, 0x00, 0x00, 0x00, 0x17, 0x00, 0x00, 0x00, 0x01, 0x00, 0x00, 0x00, 0x00, 0x00, 0x00, 0x00, 0x18, 0x00, 0x00, 0x00, 0x84, 0x1d, 0x00, 0x00, 0x28, 0x1d, 0x00, 0x00, 0x98, 0x1c, 0x00, 0x00, 0x1c, 0x1c, 0x00, 0x00, 0xc8, 0x18, 0x00, 0x00, 0x64, 0x15, 0x00, 0x00, 0x90, 0x13, 0x00, 0x00, 0x94, 0x11, 0x00, 0x00, 0xa8, 0x0f, 0x00, 0x00, 0xc4, 0x0d, 0x00, 0x00, 0xb0, 0x0c, 0x00, 0x00, 0x88, 0x0b, 0x00, 0x00, 0x70, 0x0a, 0x00, 0x00, 0x4c, 0x09, 0x00, 0x00, 0x38, 0x08, 0x00, 0x00, 0x9c, 0x07, 0x00, 0x00, 0x10, 0x06, 0x00, 0x00, 0xf4, 0x04, 0x00, 0x00, 0x58, 0x04, 0x00, 0x00, 0xcc, 0x02, 0x00, 0x00, 0xb0, 0x01, 0x00, 0x00, 0x1c, 0x01, 0x00, 0x00, 0x80, 0x00, 0x00, 0x00, 0x04, 0x00, 0x00, 0x00, 0xf2, 0xe2, 0xff, 0xff, 0x00, 0x00, 0x00, 0x01, 0x18, 0x00, 0x00, 0x00, 0x20, 0x00, 0x00, 0x00, 0x3c, 0x00, 0x00, 0x00, 0x18, 0x00, 0x00, 0x00, 0x00, 0x00, 0x00, 0x09, 0x50, 0x00, 0x00, 0x00, 0x02, 0x00, 0x00, 0x00, 0xff, 0xff, 0xff, 0xff, 0x03, 0x00, 0x00, 0x00, 0xd4, 0xe2, 0xff, 0xff, 0x08, 0x00, 0x00, 0x00, 0x10, 0x00, 0x00, 0x00, 0x01, 0x00, 0x00, 0x00, 0x80, 0xff, 0xff, 0xff, 0xff, 0xff, 0xff, 0xff, 0x01, 0x00, 0x00, 0x00, 0x00, 0x00, 0x80, 0x3b, 0x1b, 0x00, 0x00, 0x00, 0x53, 0x74, 0x61, 0x74, 0x65, 0x66, 0x75, 0x6c, 0x50, 0x61, 0x72, 0x74, 0x69, 0x74, 0x69, 0x6f, 0x6e, 0x65, 0x64, 0x43, 0x61, 0x6c, 0x6c, 0x5f, 0x31, 0x3a, 0x30, 0x00, 0x02, 0x00, 0x00, 0x00, 0x01, 0x00, 0x00, 0x00, 0x03, 0x00, 0x00, 0x00, 0x6a, 0xe3, 0xff, 0xff, 0x00, 0x00, 0x00, 0x01, 0x18, 0x00, 0x00, 0x00, 0x20, 0x00, 0x00, 0x00, 0x3c, 0x00, 0x00, 0x00, 0x17, 0x00, 0x00, 0x00, 0x00, 0x00, 0x00, 0x09, 0x70, 0x00, 0x00, 0x00, 0x02, 0x00, 0x00, 0x00, 0xff, 0xff, 0xff, 0xff, 0x03, 0x00, 0x00, 0x00, 0x4c, 0xe3, 0xff, 0xff, 0x08, 0x00, 0x00, 0x00, 0x10, 0x00, 0x00, 0x00, 0x01, 0x00, 0x00, 0x00, 0xd4, 0xff, 0xff, 0xff, 0xff, 0xff, 0xff, 0xff, 0x01, 0x00, 0x00, 0x00, 0xc3, 0x5a, 0x31, 0x3b, 0x38, 0x00, 0x00, 0x00, 0x73, 0x65, 0x71, 0x75, 0x65, 0x6e, 0x74, 0x69, 0x61, 0x6c, 0x5f, 0x31, 0x2f, 0x64, 0x65, 0x6e, 0x73, 0x65, 0x5f, 0x31, 0x2f, 0x4d, 0x61, 0x74, 0x4d, 0x75, 0x6c, 0x3b, 0x73, 0x65, 0x71, 0x75, 0x65, 0x6e, 0x74, 0x69, 0x61, 0x6c, 0x5f, 0x31, 0x2f, 0x64, 0x65, 0x6e, 0x73, 0x65, 0x5f, 0x31, 0x2f, 0x42, 0x69, 0x61, 0x73, 0x41, 0x64, 0x64, 0x00, 0x00, 0x00, 0x00, 0x02, 0x00, 0x00, 0x00, 0x01, 0x00, 0x00, 0x00, 0x03, 0x00, 0x00, 0x00, 0x02, 0xe4, 0xff, 0xff, 0x00, 0x00, 0x00, 0x01, 0x18, 0x00, 0x00, 0x00, 0x20, 0x00, 0x00, 0x00, 0x40, 0x00, 0x00, 0x00, 0x16, 0x00, 0x00, 0x00, 0x00, 0x00, 0x00, 0x09, 0x68, 0x00, 0x00, 0x00, 0x02, 0x00, 0x00, 0x00, 0xff, 0xff, 0xff, 0xff, 0x40, 0x00, 0x00, 0x00, 0xe4, 0xe3, 0xff, 0xff, 0x08, 0x00, 0x00, 0x00, 0x14, 0x00, 0x00, 0x00, 0x01, 0x00, 0x00, 0x00, 0x80, 0xff, 0xff, 0xff, 0xff, 0xff, 0xff, 0xff, 0x00, 0x00, 0x00, 0x00, 0x01, 0x00, 0x00, 0x00, 0xf4, 0xf7, 0xaf, 0x3a, 0x2c, 0x00, 0x00, 0x00, 0x73, 0x65, 0x71, 0x75, 0x65, 0x6e, 0x74, 0x69, 0x61, 0x6c, 0x5f, 0x31, 0x2f, 0x67, 0x6c, 0x6f, 0x62, 0x61, 0x6c, 0x5f, 0x61, 0x76, 0x65, 0x72, 0x61, 0x67, 0x65, 0x5f, 0x70, 0x6f, 0x6f, 0x6c, 0x69, 0x6e, 0x67, 0x32, 0x64, 0x5f, 0x31, 0x2f, 0x4d, 0x65, 0x61, 0x6e, 0x00, 0x00, 0x00, 0x00, 0x02, 0x00, 0x00, 0x00, 0x01, 0x00, 0x00, 0x00, 0x40, 0x00, 0x00, 0x00, 0x92, 0xe4, 0xff, 0xff, 0x00, 0x00, 0x00, 0x01, 0x18, 0x00, 0x00, 0x00, 0x28, 0x00, 0x00, 0x00, 0x48, 0x00, 0x00, 0x00, 0x15, 0x00, 0x00, 0x00, 0x00, 0x00, 0x00, 0x09, 0xe8, 0x00, 0x00, 0x00, 0x04, 0x00, 0x00, 0x00, 0xff, 0xff, 0xff, 0xff, 0x10, 0x00, 0x00, 0x00, 0x0f, 0x00, 0x00, 0x00, 0x40, 0x00, 0x00, 0x00, 0x7c, 0xe4, 0xff, 0xff, 0x08, 0x00, 0x00, 0x00, 0x14, 0x00, 0x00, 0x00, 0x01, 0x00, 0x00, 0x00, 0x80, 0xff, 0xff, 0xff, 0xff, 0xff, 0xff, 0xff, 0x00, 0x00, 0x00, 0x00, 0x01, 0x00, 0x00, 0x00, 0x78, 0x84, 0xee, 0x3a, 0xa7, 0x00, 0x00, 0x00, 0x73, 0x65, 0x71, 0x75, 0x65, 0x6e, 0x74, 0x69, 0x61, 0x6c, 0x5f, 0x31, 0x2f, 0x72, 0x65, 0x5f, 0x6c, 0x75, 0x5f, 0x34, 0x5f, 0x31, 0x2f, 0x52, 0x65, 0x6c, 0x75, 0x3b, 0x73, 0x65, 0x71, 0x75, 0x65, 0x6e, 0x74, 0x69, 0x61, 0x6c, 0x5f, 0x31, 0x2f, 0x62, 0x61, 0x74, 0x63, 0x68, 0x5f, 0x6e, 0x6f, 0x72, 0x6d, 0x61, 0x6c, 0x69, 0x7a, 0x61, 0x74, 0x69, 0x6f, 0x6e, 0x5f, 0x34, 0x5f, 0x31, 0x2f, 0x62, 0x61, 0x74, 0x63, 0x68, 0x6e, 0x6f, 0x72, 0x6d, 0x2f, 0x61, 0x64, 0x64, 0x5f, 0x31, 0x3b, 0x73, 0x65, 0x71, 0x75, 0x65, 0x6e, 0x74, 0x69, 0x61, 0x6c, 0x5f, 0x31, 0x2f, 0x63, 0x6f, 0x6e, 0x76, 0x32, 0x64, 0x5f, 0x32, 0x5f, 0x31, 0x2f, 0x63, 0x6f, 0x6e, 0x76, 0x6f, 0x6c, 0x75, 0x74, 0x69, 0x6f, 0x6e, 0x3b, 0x73, 0x65, 0x71, 0x75, 0x65, 0x6e, 0x74, 0x69, 0x61, 0x6c, 0x5f, 0x31, 0x2f, 0x62, 0x61, 0x74, 0x63, 0x68, 0x5f, 0x6e, 0x6f, 0x72, 0x6d, 0x61, 0x6c, 0x69, 0x7a, 0x61, 0x74, 0x69, 0x6f, 0x6e, 0x5f, 0x34, 0x5f, 0x31, 0x2f, 0x62, 0x61, 0x74, 0x63, 0x68, 0x6e, 0x6f, 0x72, 0x6d, 0x2f, 0x73, 0x75, 0x62, 0x00, 0x04, 0x00, 0x00, 0x00, 0x01, 0x00, 0x00, 0x00, 0x10, 0x00, 0x00, 0x00, 0x0f, 0x00, 0x00, 0x00, 0x40, 0x00, 0x00, 0x00, 0xaa, 0xe5, 0xff, 0xff, 0x00, 0x00, 0x00, 0x01, 0x18, 0x00, 0x00, 0x00, 0x28, 0x00, 0x00, 0x00, 0x48, 0x00, 0x00, 0x00, 0x14, 0x00, 0x00, 0x00, 0x00, 0x00, 0x00, 0x09, 0x58, 0x01, 0x00, 0x00, 0x04, 0x00, 0x00, 0x00, 0xff, 0xff, 0xff, 0xff, 0x10, 0x00, 0x00, 0x00, 0x0f, 0x00, 0x00, 0x00, 0x20, 0x00, 0x00, 0x00, 0x94, 0xe5, 0xff, 0xff, 0x08, 0x00, 0x00, 0x00, 0x14, 0x00, 0x00, 0x00, 0x01, 0x00, 0x00, 0x00, 0x80, 0xff, 0xff, 0xff, 0xff, 0xff, 0xff, 0xff, 0x00, 0x00, 0x00, 0x00, 0x01, 0x00, 0x00, 0x00, 0x4c, 0x96, 0x5b, 0x3b, 0x17, 0x01, 0x00, 0x00, 0x73, 0x65, 0x71, 0x75, 0x65, 0x6e, 0x74, 0x69, 0x61, 0x6c, 0x5f, 0x31, 0x2f, 0x72, 0x65, 0x5f, 0x6c, 0x75, 0x5f, 0x33, 0x5f, 0x31, 0x2f, 0x52, 0x65, 0x6c, 0x75, 0x3b, 0x73, 0x65, 0x71, 0x75, 0x65, 0x6e, 0x74, 0x69, 0x61, 0x6c, 0x5f, 0x31, 0x2f, 0x62, 0x61, 0x74, 0x63, 0x68, 0x5f, 0x6e, 0x6f, 0x72, 0x6d, 0x61, 0x6c, 0x69, 0x7a, 0x61, 0x74, 0x69, 0x6f, 0x6e, 0x5f, 0x33, 0x5f, 0x31, 0x2f, 0x62, 0x61, 0x74, 0x63, 0x68, 0x6e, 0x6f, 0x72, 0x6d, 0x2f, 0x61, 0x64, 0x64, 0x5f, 0x31, 0x3b, 0x73, 0x65, 0x71, 0x75, 0x65, 0x6e, 0x74, 0x69, 0x61, 0x6c, 0x5f, 0x31, 0x2f, 0x62, 0x61, 0x74, 0x63, 0x68, 0x5f, 0x6e, 0x6f, 0x72, 0x6d, 0x61, 0x6c, 0x69, 0x7a, 0x61, 0x74, 0x69, 0x6f, 0x6e, 0x5f, 0x33, 0x5f, 0x31, 0x2f, 0x62, 0x61, 0x74, 0x63, 0x68, 0x6e, 0x6f, 0x72, 0x6d, 0x2f, 0x6d, 0x75, 0x6c, 0x5f, 0x31, 0x3b, 0x73, 0x65, 0x71, 0x75, 0x65, 0x6e, 0x74, 0x69, 0x61, 0x6c, 0x5f, 0x31, 0x2f, 0x64, 0x65, 0x70, 0x74, 0x68, 0x77, 0x69, 0x73, 0x65, 0x5f, 0x63, 0x6f, 0x6e, 0x76, 0x32, 0x64, 0x5f, 0x31, 0x5f, 0x32, 0x2f, 0x64, 0x65, 0x70, 0x74, 0x68, 0x77, 0x69, 0x73, 0x65, 0x3b, 0x73, 0x65, 0x71, 0x75, 0x65, 0x6e, 0x74, 0x69, 0x61, 0x6c, 0x5f, 0x31, 0x2f, 0x62, 0x61, 0x74, 0x63, 0x68, 0x5f, 0x6e, 0x6f, 0x72, 0x6d, 0x61, 0x6c, 0x69, 0x7a, 0x61, 0x74, 0x69, 0x6f, 0x6e, 0x5f, 0x33, 0x5f, 0x31, 0x2f, 0x62, 0x61, 0x74, 0x63, 0x68, 0x6e, 0x6f, 0x72, 0x6d, 0x2f, 0x6d, 0x75, 0x6c, 0x3b, 0x73, 0x65, 0x71, 0x75, 0x65, 0x6e, 0x74, 0x69, 0x61, 0x6c, 0x5f, 0x31, 0x2f, 0x62, 0x61, 0x74, 0x63, 0x68, 0x5f, 0x6e, 0x6f, 0x72, 0x6d, 0x61, 0x6c, 0x69, 0x7a, 0x61, 0x74, 0x69, 0x6f, 0x6e, 0x5f, 0x33, 0x5f, 0x31, 0x2f, 0x62, 0x61, 0x74, 0x63, 0x68, 0x6e, 0x6f, 0x72, 0x6d, 0x2f, 0x73, 0x75, 0x62, 0x00, 0x04, 0x00, 0x00, 0x00, 0x01, 0x00, 0x00, 0x00, 0x10, 0x00, 0x00, 0x00, 0x0f, 0x00, 0x00, 0x00, 0x20, 0x00, 0x00, 0x00, 0x32, 0xe7, 0xff, 0xff, 0x00, 0x00, 0x00, 0x01, 0x18, 0x00, 0x00, 0x00, 0x28, 0x00, 0x00, 0x00, 0x44, 0x00, 0x00, 0x00, 0x13, 0x00, 0x00, 0x00, 0x00, 0x00, 0x00, 0x09, 0x68, 0x00, 0x00, 0x00, 0x04, 0x00, 0x00, 0x00, 0xff, 0xff, 0xff, 0xff, 0x10, 0x00, 0x00, 0x00, 0x0f, 0x00, 0x00, 0x00, 0x20, 0x00, 0x00, 0x00, 0x1c, 0xe7, 0xff, 0xff, 0x08, 0x00, 0x00, 0x00, 0x10, 0x00, 0x00, 0x00, 0x01, 0x00, 0x00, 0x00, 0x80, 0xff, 0xff, 0xff, 0xff, 0xff, 0xff, 0xff, 0x01, 0x00, 0x00, 0x00, 0xb8, 0xf2, 0x10, 0x3c, 0x28, 0x00, 0x00, 0x00, 0x73, 0x65, 0x71, 0x75, 0x65, 0x6e, 0x74, 0x69, 0x61, 0x6c, 0x5f, 0x31, 0x2f, 0x6d, 0x61, 0x78, 0x5f, 0x70, 0x6f, 0x6f, 0x6c, 0x69, 0x6e, 0x67, 0x32, 0x64, 0x5f, 0x31, 0x5f, 0x32, 0x2f, 0x4d, 0x61, 0x78, 0x50, 0x6f, 0x6f, 0x6c, 0x32, 0x64, 0x00, 0x00, 0x00, 0x00, 0x04, 0x00, 0x00, 0x00, 0x01, 0x00, 0x00, 0x00, 0x10, 0x00, 0x00, 0x00, 0x0f, 0x00, 0x00, 0x00, 0x20, 0x00, 0x00, 0x00, 0xca, 0xe7, 0xff, 0xff, 0x00, 0x00, 0x00, 0x01, 0x18, 0x00, 0x00, 0x00, 0x28, 0x00, 0x00, 0x00, 0x48, 0x00, 0x00, 0x00, 0x12, 0x00, 0x00, 0x00, 0x00, 0x00, 0x00, 0x09, 0xe8, 0x00, 0x00, 0x00, 0x04, 0x00, 0x00, 0x00, 0xff, 0xff, 0xff, 0xff, 0x20, 0x00, 0x00, 0x00, 0x1f, 0x00, 0x00, 0x00, 0x20, 0x00, 0x00, 0x00, 0xb4, 0xe7, 0xff, 0xff, 0x08, 0x00, 0x00, 0x00, 0x14, 0x00, 0x00, 0x00, 0x01, 0x00, 0x00, 0x00, 0x80, 0xff, 0xff, 0xff, 0xff, 0xff, 0xff, 0xff, 0x00, 0x00, 0x00, 0x00, 0x01, 0x00, 0x00, 0x00, 0xb8, 0xf2, 0x10, 0x3c, 0xa7, 0x00, 0x00, 0x00, 0x73, 0x65, 0x71, 0x75, 0x65, 0x6e, 0x74, 0x69, 0x61, 0x6c, 0x5f, 0x31, 0x2f, 0x72, 0x65, 0x5f, 0x6c, 0x75, 0x5f, 0x32, 0x5f, 0x31, 0x2f, 0x52, 0x65, 0x6c, 0x75, 0x3b, 0x73, 0x65, 0x71, 0x75, 0x65, 0x6e, 0x74, 0x69, 0x61, 0x6c, 0x5f, 0x31, 0x2f, 0x62, 0x61, 0x74, 0x63, 0x68, 0x5f, 0x6e, 0x6f, 0x72, 0x6d, 0x61, 0x6c, 0x69, 0x7a, 0x61, 0x74, 0x69, 0x6f, 0x6e, 0x5f, 0x32, 0x5f, 0x31, 0x2f, 0x62, 0x61, 0x74, 0x63, 0x68, 0x6e, 0x6f, 0x72, 0x6d, 0x2f, 0x61, 0x64, 0x64, 0x5f, 0x31, 0x3b, 0x73, 0x65, 0x71, 0x75, 0x65, 0x6e, 0x74, 0x69, 0x61, 0x6c, 0x5f, 0x31, 0x2f, 0x63, 0x6f, 0x6e, 0x76, 0x32, 0x64, 0x5f, 0x31, 0x5f, 0x32, 0x2f, 0x63, 0x6f, 0x6e, 0x76, 0x6f, 0x6c, 0x75, 0x74, 0x69, 0x6f, 0x6e, 0x3b, 0x73, 0x65, 0x71, 0x75, 0x65, 0x6e, 0x74, 0x69, 0x61, 0x6c, 0x5f, 0x31, 0x2f, 0x62, 0x61, 0x74, 0x63, 0x68, 0x5f, 0x6e, 0x6f, 0x72, 0x6d, 0x61, 0x6c, 0x69, 0x7a, 0x61, 0x74, 0x69, 0x6f, 0x6e, 0x5f, 0x32, 0x5f, 0x31, 0x2f, 0x62, 0x61, 0x74, 0x63, 0x68, 0x6e, 0x6f, 0x72, 0x6d, 0x2f, 0x73, 0x75, 0x62, 0x00, 0x04, 0x00, 0x00, 0x00, 0x01, 0x00, 0x00, 0x00, 0x20, 0x00, 0x00, 0x00, 0x1f, 0x00, 0x00, 0x00, 0x20, 0x00, 0x00, 0x00, 0xe2, 0xe8, 0xff, 0xff, 0x00, 0x00, 0x00, 0x01, 0x18, 0x00, 0x00, 0x00, 0x28, 0x00, 0x00, 0x00, 0x48, 0x00, 0x00, 0x00, 0x11, 0x00, 0x00, 0x00, 0x00, 0x00, 0x00, 0x09, 0x58, 0x01, 0x00, 0x00, 0x04, 0x00, 0x00, 0x00, 0xff, 0xff, 0xff, 0xff, 0x20, 0x00, 0x00, 0x00, 0x1f, 0x00, 0x00, 0x00, 0x10, 0x00, 0x00, 0x00, 0xcc, 0xe8, 0xff, 0xff, 0x08, 0x00, 0x00, 0x00, 0x14, 0x00, 0x00, 0x00, 0x01, 0x00, 0x00, 0x00, 0x80, 0xff, 0xff, 0xff, 0xff, 0xff, 0xff, 0xff, 0x00, 0x00, 0x00, 0x00, 0x01, 0x00, 0x00, 0x00, 0x5e, 0x62, 0x8c, 0x3c, 0x15, 0x01, 0x00, 0x00, 0x73, 0x65, 0x71, 0x75, 0x65, 0x6e, 0x74, 0x69, 0x61, 0x6c, 0x5f, 0x31, 0x2f, 0x72, 0x65, 0x5f, 0x6c, 0x75, 0x5f, 0x31, 0x5f, 0x32, 0x2f, 0x52, 0x65, 0x6c, 0x75, 0x3b, 0x73, 0x65, 0x71, 0x75, 0x65, 0x6e, 0x74, 0x69, 0x61, 0x6c, 0x5f, 0x31, 0x2f, 0x62, 0x61, 0x74, 0x63, 0x68, 0x5f, 0x6e, 0x6f, 0x72, 0x6d, 0x61, 0x6c, 0x69, 0x7a, 0x61, 0x74, 0x69, 0x6f, 0x6e, 0x5f, 0x31, 0x5f, 0x32, 0x2f, 0x62, 0x61, 0x74, 0x63, 0x68, 0x6e, 0x6f, 0x72, 0x6d, 0x2f, 0x61, 0x64, 0x64, 0x5f, 0x31, 0x3b, 0x73, 0x65, 0x71, 0x75, 0x65, 0x6e, 0x74, 0x69, 0x61, 0x6c, 0x5f, 0x31, 0x2f, 0x62, 0x61, 0x74, 0x63, 0x68, 0x5f, 0x6e, 0x6f, 0x72, 0x6d, 0x61, 0x6c, 0x69, 0x7a, 0x61, 0x74, 0x69, 0x6f, 0x6e, 0x5f, 0x31, 0x5f, 0x32, 0x2f, 0x62, 0x61, 0x74, 0x63, 0x68, 0x6e, 0x6f, 0x72, 0x6d, 0x2f, 0x6d, 0x75, 0x6c, 0x5f, 0x31, 0x3b, 0x73, 0x65, 0x71, 0x75, 0x65, 0x6e, 0x74, 0x69, 0x61, 0x6c, 0x5f, 0x31, 0x2f, 0x64, 0x65, 0x70, 0x74, 0x68, 0x77, 0x69, 0x73, 0x65, 0x5f, 0x63, 0x6f, 0x6e, 0x76, 0x32, 0x64, 0x5f, 0x31, 0x2f, 0x64, 0x65, 0x70, 0x74, 0x68, 0x77, 0x69, 0x73, 0x65, 0x3b, 0x73, 0x65, 0x71, 0x75, 0x65, 0x6e, 0x74, 0x69, 0x61, 0x6c, 0x5f, 0x31, 0x2f, 0x62, 0x61, 0x74, 0x63, 0x68, 0x5f, 0x6e, 0x6f, 0x72, 0x6d, 0x61, 0x6c, 0x69, 0x7a, 0x61, 0x74, 0x69, 0x6f, 0x6e, 0x5f, 0x31, 0x5f, 0x32, 0x2f, 0x62, 0x61, 0x74, 0x63, 0x68, 0x6e, 0x6f, 0x72, 0x6d, 0x2f, 0x6d, 0x75, 0x6c, 0x3b, 0x73, 0x65, 0x71, 0x75, 0x65, 0x6e, 0x74, 0x69, 0x61, 0x6c, 0x5f, 0x31, 0x2f, 0x62, 0x61, 0x74, 0x63, 0x68, 0x5f, 0x6e, 0x6f, 0x72, 0x6d, 0x61, 0x6c, 0x69, 0x7a, 0x61, 0x74, 0x69, 0x6f, 0x6e, 0x5f, 0x31, 0x5f, 0x32, 0x2f, 0x62, 0x61, 0x74, 0x63, 0x68, 0x6e, 0x6f, 0x72, 0x6d, 0x2f, 0x73, 0x75, 0x62, 0x00, 0x00, 0x00, 0x04, 0x00, 0x00, 0x00, 0x01, 0x00, 0x00, 0x00, 0x20, 0x00, 0x00, 0x00, 0x1f, 0x00, 0x00, 0x00, 0x10, 0x00, 0x00, 0x00, 0x6a, 0xea, 0xff, 0xff, 0x00, 0x00, 0x00, 0x01, 0x18, 0x00, 0x00, 0x00, 0x28, 0x00, 0x00, 0x00, 0x48, 0x00, 0x00, 0x00, 0x10, 0x00, 0x00, 0x00, 0x00, 0x00, 0x00, 0x09, 0x68, 0x00, 0x00, 0x00, 0x04, 0x00, 0x00, 0x00, 0xff, 0xff, 0xff, 0xff, 0x20, 0x00, 0x00, 0x00, 0x1f, 0x00, 0x00, 0x00, 0x10, 0x00, 0x00, 0x00, 0x54, 0xea, 0xff, 0xff, 0x08, 0x00, 0x00, 0x00, 0x14, 0x00, 0x00, 0x00, 0x01, 0x00, 0x00, 0x00, 0x80, 0xff, 0xff, 0xff, 0xff, 0xff, 0xff, 0xff, 0x00, 0x00, 0x00, 0x00, 0x01, 0x00, 0x00, 0x00, 0xd7, 0x69, 0x63, 0x3d, 0x26, 0x00, 0x00, 0x00, 0x73, 0x65, 0x71, 0x75, 0x65, 0x6e, 0x74, 0x69, 0x61, 0x6c, 0x5f, 0x31, 0x2f, 0x6d, 0x61, 0x78, 0x5f, 0x70, 0x6f, 0x6f, 0x6c, 0x69, 0x6e, 0x67, 0x32, 0x64, 0x5f, 0x31, 0x2f, 0x4d, 0x61, 0x78, 0x50, 0x6f, 0x6f, 0x6c, 0x32, 0x64, 0x00, 0x00, 0x04, 0x00, 0x00, 0x00, 0x01, 0x00, 0x00, 0x00, 0x20, 0x00, 0x00, 0x00, 0x1f, 0x00, 0x00, 0x00, 0x10, 0x00, 0x00, 0x00, 0x02, 0xeb, 0xff, 0xff, 0x00, 0x00, 0x00, 0x01, 0x18, 0x00, 0x00, 0x00, 0x28, 0x00, 0x00, 0x00, 0x44, 0x00, 0x00, 0x00, 0x0f, 0x00, 0x00, 0x00, 0x00, 0x00, 0x00, 0x09, 0xe0, 0x00, 0x00, 0x00, 0x04, 0x00, 0x00, 0x00, 0xff, 0xff, 0xff, 0xff, 0x40, 0x00, 0x00, 0x00, 0x3f, 0x00, 0x00, 0x00, 0x10, 0x00, 0x00, 0x00, 0xec, 0xea, 0xff, 0xff, 0x08, 0x00, 0x00, 0x00, 0x10, 0x00, 0x00, 0x00, 0x01, 0x00, 0x00, 0x00, 0x80, 0xff, 0xff, 0xff, 0xff, 0xff, 0xff, 0xff, 0x01, 0x00, 0x00, 0x00, 0xd7, 0x69, 0x63, 0x3d, 0xa0, 0x00, 0x00, 0x00, 0x73, 0x65, 0x71, 0x75, 0x65, 0x6e, 0x74, 0x69, 0x61, 0x6c, 0x5f, 0x31, 0x2f, 0x72, 0x65, 0x5f, 0x6c, 0x75, 0x5f, 0x31, 0x2f, 0x52, 0x65, 0x6c, 0x75, 0x3b, 0x73, 0x65, 0x71, 0x75, 0x65, 0x6e, 0x74, 0x69, 0x61, 0x6c, 0x5f, 0x31, 0x2f, 0x62, 0x61, 0x74, 0x63, 0x68, 0x5f, 0x6e, 0x6f, 0x72, 0x6d, 0x61, 0x6c, 0x69, 0x7a, 0x61, 0x74, 0x69, 0x6f, 0x6e, 0x5f, 0x31, 0x2f, 0x62, 0x61, 0x74, 0x63, 0x68, 0x6e, 0x6f, 0x72, 0x6d, 0x2f, 0x61, 0x64, 0x64, 0x5f, 0x31, 0x3b, 0x73, 0x65, 0x71, 0x75, 0x65, 0x6e, 0x74, 0x69, 0x61, 0x6c, 0x5f, 0x31, 0x2f, 0x63, 0x6f, 0x6e, 0x76, 0x32, 0x64, 0x5f, 0x31, 0x2f, 0x63, 0x6f, 0x6e, 0x76, 0x6f, 0x6c, 0x75, 0x74, 0x69, 0x6f, 0x6e, 0x3b, 0x73, 0x65, 0x71, 0x75, 0x65, 0x6e, 0x74, 0x69, 0x61, 0x6c, 0x5f, 0x31, 0x2f, 0x62, 0x61, 0x74, 0x63, 0x68, 0x5f, 0x6e, 0x6f, 0x72, 0x6d, 0x61, 0x6c, 0x69, 0x7a, 0x61, 0x74, 0x69, 0x6f, 0x6e, 0x5f, 0x31, 0x2f, 0x62, 0x61, 0x74, 0x63, 0x68, 0x6e, 0x6f, 0x72, 0x6d, 0x2f, 0x73, 0x75, 0x62, 0x31, 0x00, 0x00, 0x00, 0x00, 0x04, 0x00, 0x00, 0x00, 0x01, 0x00, 0x00, 0x00, 0x40, 0x00, 0x00, 0x00, 0x3f, 0x00, 0x00, 0x00, 0x10, 0x00, 0x00, 0x00, 0x6a, 0xec, 0xff, 0xff, 0x00, 0x00, 0x00, 0x01, 0x14, 0x00, 0x00, 0x00, 0xe8, 0x00, 0x00, 0x00, 0x0e, 0x00, 0x00, 0x00, 0x00, 0x00, 0x00, 0x09, 0xf4, 0x00, 0x00, 0x00, 0xe4, 0xeb, 0xff, 0xff, 0x08, 0x00, 0x00, 0x00, 0x8c, 0x00, 0x00, 0x00, 0x10, 0x00, 0x00, 0x00, 0x00, 0x00, 0x00, 0x00, 0x00, 0x00, 0x00, 0x00, 0x00, 0x00, 0x00, 0x00, 0x00, 0x00, 0x00, 0x00, 0x00, 0x00, 0x00, 0x00, 0x00, 0x00, 0x00, 0x00, 0x00, 0x00, 0x00, 0x00, 0x00, 0x00, 0x00, 0x00, 0x00, 0x00, 0x00, 0x00, 0x00, 0x00, 0x00, 0x00, 0x00, 0x00, 0x00, 0x00, 0x00, 0x00, 0x00, 0x00, 0x00, 0x00, 0x00, 0x00, 0x00, 0x00, 0x00, 0x00, 0x00, 0x00, 0x00, 0x00, 0x00, 0x00, 0x00, 0x00, 0x00, 0x00, 0x00, 0x00, 0x00, 0x00, 0x00, 0x00, 0x00, 0x00, 0x00, 0x00, 0x00, 0x00, 0x00, 0x00, 0x00, 0x00, 0x00, 0x00, 0x00, 0x00, 0x00, 0x00, 0x00, 0x00, 0x00, 0x00, 0x00, 0x00, 0x00, 0x00, 0x00, 0x00, 0x00, 0x00, 0x00, 0x00, 0x00, 0x00, 0x00, 0x00, 0x00, 0x00, 0x00, 0x00, 0x00, 0x00, 0x00, 0x00, 0x00, 0x00, 0x00, 0x00, 0x00, 0x00, 0x00, 0x00, 0x00, 0x00, 0x00, 0x00, 0x00, 0x00, 0x00, 0x00, 0x00, 0x00, 0x10, 0x00, 0x00, 0x00, 0x9e, 0xe1, 0x58, 0x3a, 0x32, 0x65, 0x33, 0x3a, 0x26, 0xc0, 0xb3, 0x39, 0x0d, 0x54, 0x94, 0x3a, 0x41, 0x3a, 0xf0, 0x39, 0xfe, 0x62, 0x4b, 0x3a, 0x51, 0x13, 0x33, 0x3a, 0xcc, 0x41, 0xbe, 0x39, 0xa9, 0xf3, 0x88, 0x3a, 0xd9, 0x26, 0x20, 0x3a, 0x0f, 0xe2, 0xb5, 0x39, 0x0f, 0x18, 0x90, 0x3a, 0x81, 0x26, 0x0c, 0x3a, 0x69, 0xe6, 0x57, 0x3a, 0x20, 0x0a, 0x95, 0x39, 0x24, 0x3c, 0xf2, 0x39, 0x13, 0x00, 0x00, 0x00, 0x74, 0x66, 0x6c, 0x2e, 0x70, 0x73, 0x65, 0x75, 0x64, 0x6f, 0x5f, 0x71, 0x63, 0x6f, 0x6e, 0x73, 0x74, 0x31, 0x31, 0x00, 0x04, 0x00, 0x00, 0x00, 0x10, 0x00, 0x00, 0x00, 0x03, 0x00, 0x00, 0x00, 0x03, 0x00, 0x00, 0x00, 0x01, 0x00, 0x00, 0x00, 0x8a, 0xed, 0xff, 0xff, 0x00, 0x00, 0x00, 0x01, 0x14, 0x00, 0x00, 0x00, 0xe8, 0x00, 0x00, 0x00, 0x0d, 0x00, 0x00, 0x00, 0x00, 0x00, 0x00, 0x02, 0xf4, 0x00, 0x00, 0x00, 0x04, 0xed, 0xff, 0xff, 0x08, 0x00, 0x00, 0x00, 0x8c, 0x00, 0x00, 0x00, 0x10, 0x00, 0x00, 0x00, 0x00, 0x00, 0x00, 0x00, 0x00, 0x00, 0x00, 0x00, 0x00, 0x00, 0x00, 0x00, 0x00, 0x00, 0x00, 0x00, 0x00, 0x00, 0x00, 0x00, 0x00, 0x00, 0x00, 0x00, 0x00, 0x00, 0x00, 0x00, 0x00, 0x00, 0x00, 0x00, 0x00, 0x00, 0x00, 0x00, 0x00, 0x00, 0x00, 0x00, 0x00, 0x00, 0x00, 0x00, 0x00, 0x00, 0x00, 0x00, 0x00, 0x00, 0x00, 0x00, 0x00, 0x00, 0x00, 0x00, 0x00, 0x00, 0x00, 0x00, 0x00, 0x00, 0x00, 0x00, 0x00, 0x00, 0x00, 0x00, 0x00, 0x00, 0x00, 0x00, 0x00, 0x00, 0x00, 0x00, 0x00, 0x00, 0x00, 0x00, 0x00, 0x00, 0x00, 0x00, 0x00, 0x00, 0x00, 0x00, 0x00, 0x00, 0x00, 0x00, 0x00, 0x00, 0x00, 0x00, 0x00, 0x00, 0x00, 0x00, 0x00, 0x00, 0x00, 0x00, 0x00, 0x00, 0x00, 0x00, 0x00, 0x00, 0x00, 0x00, 0x00, 0x00, 0x00, 0x00, 0x00, 0x00, 0x00, 0x00, 0x00, 0x00, 0x00, 0x00, 0x00, 0x00, 0x00, 0x00, 0x00, 0x00, 0x00, 0x00, 0x10, 0x00, 0x00, 0x00, 0x18, 0x15, 0x88, 0x39, 0x9f, 0x1f, 0x61, 0x39, 0xc2, 0x91, 0xe1, 0x38, 0x34, 0x23, 0xba, 0x39, 0x24, 0xbb, 0x16, 0x39, 0xf9, 0x3a, 0x7f, 0x39, 0xdf, 0xb8, 0x60, 0x39, 0x01, 0xc1, 0xee, 0x38, 0x70, 0xdc, 0xab, 0x39, 0x89, 0xf9, 0x48, 0x39, 0xd2, 0x3e, 0xe4, 0x38, 0xe6, 0xd2, 0xb4, 0x39, 0x02, 0xe0, 0x2f, 0x39, 0x79, 0x77, 0x87, 0x39, 0xb0, 0x07, 0xbb, 0x38, 0x94, 0xfd, 0x17, 0x39, 0x13, 0x00, 0x00, 0x00, 0x74, 0x66, 0x6c, 0x2e, 0x70, 0x73, 0x65, 0x75, 0x64, 0x6f, 0x5f, 0x71, 0x63, 0x6f, 0x6e, 0x73, 0x74, 0x31, 0x30, 0x00, 0x01, 0x00, 0x00, 0x00, 0x10, 0x00, 0x00, 0x00, 0x9e, 0xee, 0xff, 0xff, 0x00, 0x00, 0x00, 0x01, 0x14, 0x00, 0x00, 0x00, 0xec, 0x00, 0x00, 0x00, 0x0c, 0x00, 0x00, 0x00, 0x00, 0x00, 0x00, 0x09, 0xf8, 0x00, 0x00, 0x00, 0x02, 0xfa, 0xff, 0xff, 0x03, 0x00, 0x00, 0x00, 0x08, 0x00, 0x00, 0x00, 0x8c, 0x00, 0x00, 0x00, 0x10, 0x00, 0x00, 0x00, 0x00, 0x00, 0x00, 0x00, 0x00, 0x00, 0x00, 0x00, 0x00, 0x00, 0x00, 0x00, 0x00, 0x00, 0x00, 0x00, 0x00, 0x00, 0x00, 0x00, 0x00, 0x00, 0x00, 0x00, 0x00, 0x00, 0x00, 0x00, 0x00, 0x00, 0x00, 0x00, 0x00, 0x00, 0x00, 0x00, 0x00, 0x00, 0x00, 0x00, 0x00, 0x00, 0x00, 0x00, 0x00, 0x00, 0x00, 0x00, 0x00, 0x00, 0x00, 0x00, 0x00, 0x00, 0x00, 0x00, 0x00, 0x00, 0x00, 0x00, 0x00, 0x00, 0x00, 0x00, 0x00, 0x00, 0x00, 0x00, 0x00, 0x00, 0x00, 0x00, 0x00, 0x00, 0x00, 0x00, 0x00, 0x00, 0x00, 0x00, 0x00, 0x00, 0x00, 0x00, 0x00, 0x00, 0x00, 0x00, 0x00, 0x00, 0x00, 0x00, 0x00, 0x00, 0x00, 0x00, 0x00, 0x00, 0x00, 0x00, 0x00, 0x00, 0x00, 0x00, 0x00, 0x00, 0x00, 0x00, 0x00, 0x00, 0x00, 0x00, 0x00, 0x00, 0x00, 0x00, 0x00, 0x00, 0x00, 0x00, 0x00, 0x00, 0x00, 0x00, 0x00, 0x00, 0x00, 0x00, 0x00, 0x00, 0x00, 0x00, 0x10, 0x00, 0x00, 0x00, 0xd2, 0x4b, 0xd6, 0x3a, 0xf6, 0xcf, 0xbe, 0x3a, 0x2a, 0xef, 0xed, 0x3a, 0xaf, 0xf0, 0x0f, 0x3b, 0x4c, 0x56, 0xdf, 0x3a, 0x84, 0xa5, 0x03, 0x3b, 0x10, 0x61, 0xd5, 0x3a, 0x5f, 0x0a, 0xd7, 0x3a, 0xed, 0x64, 0xe9, 0x3a, 0x8e, 0xca, 0x0d, 0x3b, 0xd9, 0x79, 0x0e, 0x3b, 0x4b, 0xb3, 0xc1, 0x3a, 0xda, 0x52, 0x01, 0x3b, 0x1c, 0xca, 0xd4, 0x3a, 0x04, 0xbe, 0xdd, 0x3a, 0x8e, 0xe6, 0xf7, 0x3a, 0x12, 0x00, 0x00, 0x00, 0x74, 0x66, 0x6c, 0x2e, 0x70, 0x73, 0x65, 0x75, 0x64, 0x6f, 0x5f, 0x71, 0x63, 0x6f, 0x6e, 0x73, 0x74, 0x39, 0x00, 0x00, 0x04, 0x00, 0x00, 0x00, 0x01, 0x00, 0x00, 0x00, 0x03, 0x00, 0x00, 0x00, 0x03, 0x00, 0x00, 0x00, 0x10, 0x00, 0x00, 0x00, 0xc2, 0xef, 0xff, 0xff, 0x00, 0x00, 0x00, 0x01, 0x14, 0x00, 0x00, 0x00, 0xe4, 0x00, 0x00, 0x00, 0x0b, 0x00, 0x00, 0x00, 0x00, 0x00, 0x00, 0x02, 0xf0, 0x00, 0x00, 0x00, 0x3c, 0xef, 0xff, 0xff, 0x08, 0x00, 0x00, 0x00, 0x88, 0x00, 0x00, 0x00, 0x10, 0x00, 0x00, 0x00, 0x00, 0x00, 0x00, 0x00, 0x00, 0x00, 0x00, 0x00, 0x00, 0x00, 0x00, 0x00, 0x00, 0x00, 0x00, 0x00, 0x00, 0x00, 0x00, 0x00, 0x00, 0x00, 0x00, 0x00, 0x00, 0x00, 0x00, 0x00, 0x00, 0x00, 0x00, 0x00, 0x00, 0x00, 0x00, 0x00, 0x00, 0x00, 0x00, 0x00, 0x00, 0x00, 0x00, 0x00, 0x00, 0x00, 0x00, 0x00, 0x00, 0x00, 0x00, 0x00, 0x00, 0x00, 0x00, 0x00, 0x00, 0x00, 0x00, 0x00, 0x00, 0x00, 0x00, 0x00, 0x00, 0x00, 0x00, 0x00, 0x00, 0x00, 0x00, 0x00, 0x00, 0x00, 0x00, 0x00, 0x00, 0x00, 0x00, 0x00, 0x00, 0x00, 0x00, 0x00, 0x00, 0x00, 0x00, 0x00, 0x00, 0x00, 0x00, 0x00, 0x00, 0x00, 0x00, 0x00, 0x00, 0x00, 0x00, 0x00, 0x00, 0x00, 0x00, 0x00, 0x00, 0x00, 0x00, 0x00, 0x00, 0x00, 0x00, 0x00, 0x00, 0x00, 0x00, 0x00, 0x00, 0x00, 0x00, 0x00, 0x00, 0x00, 0x00, 0x00, 0x00, 0x00, 0x00, 0x00, 0x10, 0x00, 0x00, 0x00, 0xd4, 0x5d, 0xbe, 0x38, 0x4b, 0x81, 0xa9, 0x38, 0x71, 0x5d, 0xd3, 0x38, 0xdc, 0xbb, 0xff, 0x38, 0xdb, 0x65, 0xc6, 0x38, 0x63, 0xe4, 0xe9, 0x38, 0x49, 0x8d, 0xbd, 0x38, 0x1a, 0x07, 0xbf, 0x38, 0xfd, 0x54, 0xcf, 0x38, 0x76, 0xea, 0xfb, 0x38, 0xe6, 0x21, 0xfd, 0x38, 0x11, 0x12, 0xac, 0x38, 0xde, 0xc3, 0xe5, 0x38, 0x30, 0x07, 0xbd, 0x38, 0x2b, 0xfb, 0xc4, 0x38, 0xee, 0x37, 0xdc, 0x38, 0x12, 0x00, 0x00, 0x00, 0x74, 0x66, 0x6c, 0x2e, 0x70, 0x73, 0x65, 0x75, 0x64, 0x6f, 0x5f, 0x71, 0x63, 0x6f, 0x6e, 0x73, 0x74, 0x38, 0x00, 0x00, 0x01, 0x00, 0x00, 0x00, 0x10, 0x00, 0x00, 0x00, 0xd2, 0xf0, 0xff, 0xff, 0x00, 0x00, 0x00, 0x01, 0x14, 0x00, 0x00, 0x00, 0xa8, 0x01, 0x00, 0x00, 0x0a, 0x00, 0x00, 0x00, 0x00, 0x00, 0x00, 0x09, 0xb4, 0x01, 0x00, 0x00, 0x4c, 0xf0, 0xff, 0xff, 0x08, 0x00, 0x00, 0x00, 0x0c, 0x01, 0x00, 0x00, 0x20, 0x00, 0x00, 0x00, 0x00, 0x00, 0x00, 0x00, 0x00, 0x00, 0x00, 0x00, 0x00, 0x00, 0x00, 0x00, 0x00, 0x00, 0x00, 0x00, 0x00, 0x00, 0x00, 0x00, 0x00, 0x00, 0x00, 0x00, 0x00, 0x00, 0x00, 0x00, 0x00, 0x00, 0x00, 0x00, 0x00, 0x00, 0x00, 0x00, 0x00, 0x00, 0x00, 0x00, 0x00, 0x00, 0x00, 0x00, 0x00, 0x00, 0x00, 0x00, 0x00, 0x00, 0x00, 0x00, 0x00, 0x00, 0x00, 0x00, 0x00, 0x00, 0x00, 0x00, 0x00, 0x00, 0x00, 0x00, 0x00, 0x00, 0x00, 0x00, 0x00, 0x00, 0x00, 0x00, 0x00, 0x00, 0x00, 0x00, 0x00, 0x00, 0x00, 0x00, 0x00, 0x00, 0x00, 0x00, 0x00, 0x00, 0x00, 0x00, 0x00, 0x00, 0x00, 0x00, 0x00, 0x00, 0x00, 0x00, 0x00, 0x00, 0x00, 0x00, 0x00, 0x00, 0x00, 0x00, 0x00, 0x00, 0x00, 0x00, 0x00, 0x00, 0x00, 0x00, 0x00, 0x00, 0x00, 0x00, 0x00, 0x00, 0x00, 0x00, 0x00, 0x00, 0x00, 0x00, 0x00, 0x00, 0x00, 0x00, 0x00, 0x00, 0x00, 0x00, 0x00, 0x00, 0x00, 0x00, 0x00, 0x00, 0x00, 0x00, 0x00, 0x00, 0x00, 0x00, 0x00, 0x00, 0x00, 0x00, 0x00, 0x00, 0x00, 0x00, 0x00, 0x00, 0x00, 0x00, 0x00, 0x00, 0x00, 0x00, 0x00, 0x00, 0x00, 0x00, 0x00, 0x00, 0x00, 0x00, 0x00, 0x00, 0x00, 0x00, 0x00, 0x00, 0x00, 0x00, 0x00, 0x00, 0x00, 0x00, 0x00, 0x00, 0x00, 0x00, 0x00, 0x00, 0x00, 0x00, 0x00, 0x00, 0x00, 0x00, 0x00, 0x00, 0x00, 0x00, 0x00, 0x00, 0x00, 0x00, 0x00, 0x00, 0x00, 0x00, 0x00, 0x00, 0x00, 0x00, 0x00, 0x00, 0x00, 0x00, 0x00, 0x00, 0x00, 0x00, 0x00, 0x00, 0x00, 0x00, 0x00, 0x00, 0x00, 0x00, 0x00, 0x00, 0x00, 0x00, 0x00, 0x00, 0x00, 0x00, 0x00, 0x00, 0x00, 0x00, 0x00, 0x00, 0x00, 0x00, 0x00, 0x00, 0x00, 0x00, 0x00, 0x00, 0x00, 0x00, 0x00, 0x00, 0x00, 0x00, 0x00, 0x00, 0x00, 0x00, 0x00, 0x00, 0x00, 0x00, 0x20, 0x00, 0x00, 0x00, 0x0d, 0xc5, 0x38, 0x3b, 0x3f, 0xb0, 0x47, 0x3b, 0x30, 0x18, 0x66, 0x3b, 0x5f, 0x99, 0x6c, 0x3b, 0xb3, 0x53, 0x61, 0x3b, 0xb2, 0x73, 0x5a, 0x3b, 0x20, 0xbf, 0x63, 0x3b, 0x8a, 0xcc, 0x59, 0x3b, 0xad, 0x5e, 0x2e, 0x3b, 0xc3, 0xd4, 0x46, 0x3b, 0xc4, 0x3a, 0x6c, 0x3b, 0x8a, 0xc8, 0x37, 0x3b, 0x4a, 0xbc, 0x59, 0x3b, 0xb6, 0xba, 0x34, 0x3b, 0x91, 0x82, 0x43, 0x3b, 0xbf, 0x62, 0x3a, 0x3b, 0xad, 0x4a, 0x45, 0x3b, 0xd4, 0xd2, 0x5b, 0x3b, 0x0f, 0xe0, 0x71, 0x3b, 0xbd, 0x74, 0x38, 0x3b, 0xb1, 0x6d, 0x46, 0x3b, 0xb6, 0x0a, 0x5b, 0x3b, 0x88, 0x21, 0x34, 0x3b, 0x60, 0xd0, 0x2e, 0x3b, 0x3e, 0x3b, 0x6a, 0x3b, 0xbd, 0xf4, 0x57, 0x3b, 0x71, 0x4d, 0x49, 0x3b, 0xa9, 0xf7, 0x1b, 0x3b, 0x45, 0xd6, 0x5d, 0x3b, 0x67, 0x31, 0x47, 0x3b, 0x7e, 0x76, 0x67, 0x3b, 0x7c, 0x4d, 0x67, 0x3b, 0x12, 0x00, 0x00, 0x00, 0x74, 0x66, 0x6c, 0x2e, 0x70, 0x73, 0x65, 0x75, 0x64, 0x6f, 0x5f, 0x71, 0x63, 0x6f, 0x6e, 0x73, 0x74, 0x37, 0x00, 0x00, 0x04, 0x00, 0x00, 0x00, 0x20, 0x00, 0x00, 0x00, 0x01, 0x00, 0x00, 0x00, 0x01, 0x00, 0x00, 0x00, 0x10, 0x00, 0x00, 0x00, 0xb2, 0xf2, 0xff, 0xff, 0x00, 0x00, 0x00, 0x01, 0x14, 0x00, 0x00, 0x00, 0xa4, 0x01, 0x00, 0x00, 0x09, 0x00, 0x00, 0x00, 0x00, 0x00, 0x00, 0x02, 0xb0, 0x01, 0x00, 0x00, 0x2c, 0xf2, 0xff, 0xff, 0x08, 0x00, 0x00, 0x00, 0x08, 0x01, 0x00, 0x00, 0x20, 0x00, 0x00, 0x00, 0x00, 0x00, 0x00, 0x00, 0x00, 0x00, 0x00, 0x00, 0x00, 0x00, 0x00, 0x00, 0x00, 0x00, 0x00, 0x00, 0x00, 0x00, 0x00, 0x00, 0x00, 0x00, 0x00, 0x00, 0x00, 0x00, 0x00, 0x00, 0x00, 0x00, 0x00, 0x00, 0x00, 0x00, 0x00, 0x00, 0x00, 0x00, 0x00, 0x00, 0x00, 0x00, 0x00, 0x00, 0x00, 0x00, 0x00, 0x00, 0x00, 0x00, 0x00, 0x00, 0x00, 0x00, 0x00, 0x00, 0x00, 0x00, 0x00, 0x00, 0x00, 0x00, 0x00, 0x00, 0x00, 0x00, 0x00, 0x00, 0x00, 0x00, 0x00, 0x00, 0x00, 0x00, 0x00, 0x00, 0x00, 0x00, 0x00, 0x00, 0x00, 0x00, 0x00, 0x00, 0x00, 0x00, 0x00, 0x00, 0x00, 0x00, 0x00, 0x00, 0x00, 0x00, 0x00, 0x00, 0x00, 0x00, 0x00, 0x00, 0x00, 0x00, 0x00, 0x00, 0x00, 0x00, 0x00, 0x00, 0x00, 0x00, 0x00, 0x00, 0x00, 0x00, 0x00, 0x00, 0x00, 0x00, 0x00, 0x00, 0x00, 0x00, 0x00, 0x00, 0x00, 0x00, 0x00, 0x00, 0x00, 0x00, 0x00, 0x00, 0x00, 0x00, 0x00, 0x00, 0x00, 0x00, 0x00, 0x00, 0x00, 0x00, 0x00, 0x00, 0x00, 0x00, 0x00, 0x00, 0x00, 0x00, 0x00, 0x00, 0x00, 0x00, 0x00, 0x00, 0x00, 0x00, 0x00, 0x00, 0x00, 0x00, 0x00, 0x00, 0x00, 0x00, 0x00, 0x00, 0x00, 0x00, 0x00, 0x00, 0x00, 0x00, 0x00, 0x00, 0x00, 0x00, 0x00, 0x00, 0x00, 0x00, 0x00, 0x00, 0x00, 0x00, 0x00, 0x00, 0x00, 0x00, 0x00, 0x00, 0x00, 0x00, 0x00, 0x00, 0x00, 0x00, 0x00, 0x00, 0x00, 0x00, 0x00, 0x00, 0x00, 0x00, 0x00, 0x00, 0x00, 0x00, 0x00, 0x00, 0x00, 0x00, 0x00, 0x00, 0x00, 0x00, 0x00, 0x00, 0x00, 0x00, 0x00, 0x00, 0x00, 0x00, 0x00, 0x00, 0x00, 0x00, 0x00, 0x00, 0x00, 0x00, 0x00, 0x00, 0x00, 0x00, 0x00, 0x00, 0x00, 0x00, 0x00, 0x00, 0x00, 0x00, 0x00, 0x00, 0x00, 0x00, 0x00, 0x00, 0x00, 0x00, 0x00, 0x00, 0x20, 0x00, 0x00, 0x00, 0x85, 0xa5, 0x4a, 0x38, 0x3a, 0x02, 0x5b, 0x38, 0x48, 0x5b, 0x7c, 0x38, 0xca, 0xbe, 0x81, 0x38, 0xb5, 0x20, 0x77, 0x38, 0x6c, 0x96, 0x6f, 0x38, 0x11, 0xc8, 0x79, 0x38, 0x17, 0xdf, 0x6e, 0x38, 0x8e, 0x3d, 0x3f, 0x38, 0x82, 0x11, 0x5a, 0x38, 0xe8, 0x8a, 0x81, 0x38, 0x93, 0x90, 0x49, 0x38, 0x45, 0xcd, 0x6e, 0x38, 0x1b, 0x37, 0x46, 0x38, 0x0e, 0x6d, 0x56, 0x38, 0x3d, 0x6b, 0x4c, 0x38, 0x4b, 0x61, 0x58, 0x38, 0x87, 0x17, 0x71, 0x38, 0x79, 0xa3, 0x84, 0x38, 0x70, 0x4d, 0x4a, 0x38, 0x77, 0xa0, 0x59, 0x38, 0x0c, 0x3c, 0x70, 0x38, 0x1b, 0x8f, 0x45, 0x38, 0x41, 0xba, 0x3f, 0x38, 0x67, 0x72, 0x80, 0x38, 0xa5, 0xd9, 0x6c, 0x38, 0x67, 0xc7, 0x5c, 0x38, 0xbd, 0x0e, 0x2b, 0x38, 0xd6, 0x4c, 0x73, 0x38, 0x1d, 0x77, 0x5a, 0x38, 0x7b, 0xdb, 0x7d, 0x38, 0x81, 0xae, 0x7d, 0x38, 0x12, 0x00, 0x00, 0x00, 0x74, 0x66, 0x6c, 0x2e, 0x70, 0x73, 0x65, 0x75, 0x64, 0x6f, 0x5f, 0x71, 0x63, 0x6f, 0x6e, 0x73, 0x74, 0x36, 0x00, 0x00, 0x01, 0x00, 0x00, 0x00, 0x20, 0x00, 0x00, 0x00, 0x00, 0x00, 0x16, 0x00, 0x1e, 0x00, 0x18, 0x00, 0x17, 0x00, 0x10, 0x00, 0x0c, 0x00, 0x08, 0x00, 0x00, 0x00, 0x00, 0x00, 0x00, 0x00, 0x07, 0x00, 0x16, 0x00, 0x00, 0x00, 0x00, 0x00, 0x00, 0x01, 0x28, 0x00, 0x00, 0x00, 0xc0, 0x01, 0x00, 0x00, 0x08, 0x00, 0x00, 0x00, 0x00, 0x00, 0x00, 0x09, 0xcc, 0x01, 0x00, 0x00, 0x00, 0x00, 0x12, 0x00, 0x10, 0x00, 0x00, 0x00, 0x00, 0x00, 0x0c, 0x00, 0x08, 0x00, 0x00, 0x00, 0x00, 0x00, 0x04, 0x00, 0x12, 0x00, 0x00, 0x00, 0x03, 0x00, 0x00, 0x00, 0x08, 0x00, 0x00, 0x00, 0x0c, 0x01, 0x00, 0x00, 0x20, 0x00, 0x00, 0x00, 0x00, 0x00, 0x00, 0x00, 0x00, 0x00, 0x00, 0x00, 0x00, 0x00, 0x00, 0x00, 0x00, 0x00, 0x00, 0x00, 0x00, 0x00, 0x00, 0x00, 0x00, 0x00, 0x00, 0x00, 0x00, 0x00, 0x00, 0x00, 0x00, 0x00, 0x00, 0x00, 0x00, 0x00, 0x00, 0x00, 0x00, 0x00, 0x00, 0x00, 0x00, 0x00, 0x00, 0x00, 0x00, 0x00, 0x00, 0x00, 0x00, 0x00, 0x00, 0x00, 0x00, 0x00, 0x00, 0x00, 0x00, 0x00, 0x00, 0x00, 0x00, 0x00, 0x00, 0x00, 0x00, 0x00, 0x00, 0x00, 0x00, 0x00, 0x00, 0x00, 0x00, 0x00, 0x00, 0x00, 0x00, 0x00, 0x00, 0x00, 0x00, 0x00, 0x00, 0x00, 0x00, 0x00, 0x00, 0x00, 0x00, 0x00, 0x00, 0x00, 0x00, 0x00, 0x00, 0x00, 0x00, 0x00, 0x00, 0x00, 0x00, 0x00, 0x00, 0x00, 0x00, 0x00, 0x00, 0x00, 0x00, 0x00, 0x00, 0x00, 0x00, 0x00, 0x00, 0x00, 0x00, 0x00, 0x00, 0x00, 0x00, 0x00, 0x00, 0x00, 0x00, 0x00, 0x00, 0x00, 0x00, 0x00, 0x00, 0x00, 0x00, 0x00, 0x00, 0x00, 0x00, 0x00, 0x00, 0x00, 0x00, 0x00, 0x00, 0x00, 0x00, 0x00, 0x00, 0x00, 0x00, 0x00, 0x00, 0x00, 0x00, 0x00, 0x00, 0x00, 0x00, 0x00, 0x00, 0x00, 0x00, 0x00, 0x00, 0x00, 0x00, 0x00, 0x00, 0x00, 0x00, 0x00, 0x00, 0x00, 0x00, 0x00, 0x00, 0x00, 0x00, 0x00, 0x00, 0x00, 0x00, 0x00, 0x00, 0x00, 0x00, 0x00, 0x00, 0x00, 0x00, 0x00, 0x00, 0x00, 0x00, 0x00, 0x00, 0x00, 0x00, 0x00, 0x00, 0x00, 0x00, 0x00, 0x00, 0x00, 0x00, 0x00, 0x00, 0x00, 0x00, 0x00, 0x00, 0x00, 0x00, 0x00, 0x00, 0x00, 0x00, 0x00, 0x00, 0x00, 0x00, 0x00, 0x00, 0x00, 0x00, 0x00, 0x00, 0x00, 0x00, 0x00, 0x00, 0x00, 0x00, 0x00, 0x00, 0x00, 0x00, 0x00, 0x00, 0x00, 0x00, 0x00, 0x00, 0x00, 0x00, 0x00, 0x00, 0x00, 0x00, 0x00, 0x00, 0x00, 0x00, 0x00, 0x00, 0x00, 0x00, 0x00, 0x00, 0x00, 0x20, 0x00, 0x00, 0x00, 0xba, 0x59, 0x93, 0x3a, 0x58, 0x98, 0xaa, 0x3a, 0xcd, 0xf5, 0xaa, 0x3a, 0x9a, 0xb1, 0xd1, 0x3a, 0x2b, 0x6d, 0xb3, 0x3a, 0x1e, 0xf1, 0x98, 0x3a, 0xa5, 0xe4, 0xa4, 0x3a, 0x36, 0x69, 0xcf, 0x3a, 0x3e, 0x6e, 0x98, 0x3a, 0x51, 0x17, 0x8b, 0x3a, 0x54, 0xbb, 0xaf, 0x3a, 0xf2, 0x23, 0xb5, 0x3a, 0xe5, 0x5f, 0xaf, 0x3a, 0x78, 0x71, 0xda, 0x3a, 0x03, 0x22, 0xc1, 0x3a, 0xfb, 0x36, 0xa0, 0x3a, 0x5f, 0x86, 0xae, 0x3a, 0xfe, 0x66, 0xd0, 0x3a, 0xc6, 0x15, 0xc8, 0x3a, 0xe0, 0x8c, 0xc8, 0x3a, 0x63, 0x2f, 0xa5, 0x3a, 0x51, 0x54, 0x92, 0x3a, 0xd7, 0x08, 0xd5, 0x3a, 0xc4, 0x6f, 0xc7, 0x3a, 0xaf, 0x8c, 0x91, 0x3a, 0x2c, 0xee, 0xb2, 0x3a, 0x56, 0xbc, 0xb2, 0x3a, 0x10, 0xb7, 0xc5, 0x3a, 0x90, 0x80, 0x93, 0x3a, 0xf2, 0xe8, 0x94, 0x3a, 0x32, 0x47, 0xc0, 0x3a, 0x03, 0x36, 0xc4, 0x3a, 0x12, 0x00, 0x00, 0x00, 0x74, 0x66, 0x6c, 0x2e, 0x70, 0x73, 0x65, 0x75, 0x64, 0x6f, 0x5f, 0x71, 0x63, 0x6f, 0x6e, 0x73, 0x74, 0x35, 0x00, 0x00, 0x04, 0x00, 0x00, 0x00, 0x01, 0x00, 0x00, 0x00, 0x03, 0x00, 0x00, 0x00, 0x03, 0x00, 0x00, 0x00, 0x20, 0x00, 0x00, 0x00, 0x92, 0xf6, 0xff, 0xff, 0x00, 0x00, 0x00, 0x01, 0x14, 0x00, 0x00, 0x00, 0xa4, 0x01, 0x00, 0x00, 0x07, 0x00, 0x00, 0x00, 0x00, 0x00, 0x00, 0x02, 0xb0, 0x01, 0x00, 0x00, 0x0c, 0xf6, 0xff, 0xff, 0x08, 0x00, 0x00, 0x00, 0x08, 0x01, 0x00, 0x00, 0x20, 0x00, 0x00, 0x00, 0x00, 0x00, 0x00, 0x00, 0x00, 0x00, 0x00, 0x00, 0x00, 0x00, 0x00, 0x00, 0x00, 0x00, 0x00, 0x00, 0x00, 0x00, 0x00, 0x00, 0x00, 0x00, 0x00, 0x00, 0x00, 0x00, 0x00, 0x00, 0x00, 0x00, 0x00, 0x00, 0x00, 0x00, 0x00, 0x00, 0x00, 0x00, 0x00, 0x00, 0x00, 0x00, 0x00, 0x00, 0x00, 0x00, 0x00, 0x00, 0x00, 0x00, 0x00, 0x00, 0x00, 0x00, 0x00, 0x00, 0x00, 0x00, 0x00, 0x00, 0x00, 0x00, 0x00, 0x00, 0x00, 0x00, 0x00, 0x00, 0x00, 0x00, 0x00, 0x00, 0x00, 0x00, 0x00, 0x00, 0x00, 0x00, 0x00, 0x00, 0x00, 0x00, 0x00, 0x00, 0x00, 0x00, 0x00, 0x00, 0x00, 0x00, 0x00, 0x00, 0x00, 0x00, 0x00, 0x00, 0x00, 0x00, 0x00, 0x00, 0x00, 0x00, 0x00, 0x00, 0x00, 0x00, 0x00, 0x00, 0x00, 0x00, 0x00, 0x00, 0x00, 0x00, 0x00, 0x00, 0x00, 0x00, 0x00, 0x00, 0x00, 0x00, 0x00, 0x00, 0x00, 0x00, 0x00, 0x00, 0x00, 0x00, 0x00, 0x00, 0x00, 0x00, 0x00, 0x00, 0x00, 0x00, 0x00, 0x00, 0x00, 0x00, 0x00, 0x00, 0x00, 0x00, 0x00, 0x00, 0x00, 0x00, 0x00, 0x00, 0x00, 0x00, 0x00, 0x00, 0x00, 0x00, 0x00, 0x00, 0x00, 0x00, 0x00, 0x00, 0x00, 0x00, 0x00, 0x00, 0x00, 0x00, 0x00, 0x00, 0x00, 0x00, 0x00, 0x00, 0x00, 0x00, 0x00, 0x00, 0x00, 0x00, 0x00, 0x00, 0x00, 0x00, 0x00, 0x00, 0x00, 0x00, 0x00, 0x00, 0x00, 0x00, 0x00, 0x00, 0x00, 0x00, 0x00, 0x00, 0x00, 0x00, 0x00, 0x00, 0x00, 0x00, 0x00, 0x00, 0x00, 0x00, 0x00, 0x00, 0x00, 0x00, 0x00, 0x00, 0x00, 0x00, 0x00, 0x00, 0x00, 0x00, 0x00, 0x00, 0x00, 0x00, 0x00, 0x00, 0x00, 0x00, 0x00, 0x00, 0x00, 0x00, 0x00, 0x00, 0x00, 0x00, 0x00, 0x00, 0x00, 0x00, 0x00, 0x00, 0x00, 0x00, 0x00, 0x00, 0x00, 0x00, 0x00, 0x00, 0x00, 0x00, 0x00, 0x00, 0x20, 0x00, 0x00, 0x00, 0x5b, 0xdc, 0x26, 0x37, 0xe0, 0x2e, 0x41, 0x37, 0xb5, 0x98, 0x41, 0x37, 0x6e, 0x75, 0x6d, 0x37, 0x0d, 0x2f, 0x4b, 0x37, 0x45, 0x31, 0x2d, 0x37, 0xe7, 0xb9, 0x3a, 0x37, 0xaa, 0xdf, 0x6a, 0x37, 0x11, 0x9d, 0x2c, 0x37, 0xfb, 0x81, 0x1d, 0x37, 0xf9, 0xff, 0x46, 0x37, 0xed, 0x1f, 0x4d, 0x37, 0x6f, 0x98, 0x46, 0x37, 0xe0, 0x5d, 0x77, 0x37, 0x7d, 0xb4, 0x5a, 0x37, 0xa9, 0x6d, 0x35, 0x37, 0x1c, 0xa2, 0x45, 0x37, 0x0c, 0xff, 0x6b, 0x37, 0xe8, 0x93, 0x62, 0x37, 0xc7, 0x1a, 0x63, 0x37, 0x8a, 0x0e, 0x3b, 0x37, 0x55, 0xb4, 0x25, 0x37, 0xe9, 0x3d, 0x71, 0x37, 0xea, 0xd7, 0x61, 0x37, 0x44, 0xd2, 0x24, 0x37, 0x3d, 0x9f, 0x4a, 0x37, 0xce, 0x66, 0x4a, 0x37, 0xdc, 0xe4, 0x5f, 0x37, 0x55, 0x08, 0x27, 0x37, 0x6f, 0xa0, 0x28, 0x37, 0xb3, 0xbc, 0x59, 0x37, 0xd4, 0x30, 0x5e, 0x37, 0x12, 0x00, 0x00, 0x00, 0x74, 0x66, 0x6c, 0x2e, 0x70, 0x73, 0x65, 0x75, 0x64, 0x6f, 0x5f, 0x71, 0x63, 0x6f, 0x6e, 0x73, 0x74, 0x34, 0x00, 0x00, 0x01, 0x00, 0x00, 0x00, 0x20, 0x00, 0x00, 0x00, 0x62, 0xf8, 0xff, 0xff, 0x00, 0x00, 0x00, 0x01, 0x14, 0x00, 0x00, 0x00, 0x28, 0x03, 0x00, 0x00, 0x06, 0x00, 0x00, 0x00, 0x00, 0x00, 0x00, 0x09, 0x34, 0x03, 0x00, 0x00, 0xdc, 0xf7, 0xff, 0xff, 0x08, 0x00, 0x00, 0x00, 0x0c, 0x02, 0x00, 0x00, 0x40, 0x00, 0x00, 0x00, 0x00, 0x00, 0x00, 0x00, 0x00, 0x00, 0x00, 0x00, 0x00, 0x00, 0x00, 0x00, 0x00, 0x00, 0x00, 0x00, 0x00, 0x00, 0x00, 0x00, 0x00, 0x00, 0x00, 0x00, 0x00, 0x00, 0x00, 0x00, 0x00, 0x00, 0x00, 0x00, 0x00, 0x00, 0x00, 0x00, 0x00, 0x00, 0x00, 0x00, 0x00, 0x00, 0x00, 0x00, 0x00, 0x00, 0x00, 0x00, 0x00, 0x00, 0x00, 0x00, 0x00, 0x00, 0x00, 0x00, 0x00, 0x00, 0x00, 0x00, 0x00, 0x00, 0x00, 0x00, 0x00, 0x00, 0x00, 0x00, 0x00, 0x00, 0x00, 0x00, 0x00, 0x00, 0x00, 0x00, 0x00, 0x00, 0x00, 0x00, 0x00, 0x00, 0x00, 0x00, 0x00, 0x00, 0x00, 0x00, 0x00, 0x00, 0x00, 0x00, 0x00, 0x00, 0x00, 0x00, 0x00, 0x00, 0x00, 0x00, 0x00, 0x00, 0x00, 0x00, 0x00, 0x00, 0x00, 0x00, 0x00, 0x00, 0x00, 0x00, 0x00, 0x00, 0x00, 0x00, 0x00, 0x00, 0x00, 0x00, 0x00, 0x00, 0x00, 0x00, 0x00, 0x00, 0x00, 0x00, 0x00, 0x00, 0x00, 0x00, 0x00, 0x00, 0x00, 0x00, 0x00, 0x00, 0x00, 0x00, 0x00, 0x00, 0x00, 0x00, 0x00, 0x00, 0x00, 0x00, 0x00, 0x00, 0x00, 0x00, 0x00, 0x00, 0x00, 0x00, 0x00, 0x00, 0x00, 0x00, 0x00, 0x00, 0x00, 0x00, 0x00, 0x00, 0x00, 0x00, 0x00, 0x00, 0x00, 0x00, 0x00, 0x00, 0x00, 0x00, 0x00, 0x00, 0x00, 0x00, 0x00, 0x00, 0x00, 0x00, 0x00, 0x00, 0x00, 0x00, 0x00, 0x00, 0x00, 0x00, 0x00, 0x00, 0x00, 0x00, 0x00, 0x00, 0x00, 0x00, 0x00, 0x00, 0x00, 0x00, 0x00, 0x00, 0x00, 0x00, 0x00, 0x00, 0x00, 0x00, 0x00, 0x00, 0x00, 0x00, 0x00, 0x00, 0x00, 0x00, 0x00, 0x00, 0x00, 0x00, 0x00, 0x00, 0x00, 0x00, 0x00, 0x00, 0x00, 0x00, 0x00, 0x00, 0x00, 0x00, 0x00, 0x00, 0x00, 0x00, 0x00, 0x00, 0x00, 0x00, 0x00, 0x00, 0x00, 0x00, 0x00, 0x00, 0x00, 0x00, 0x00, 0x00, 0x00, 0x00, 0x00, 0x00, 0x00, 0x00, 0x00, 0x00, 0x00, 0x00, 0x00, 0x00, 0x00, 0x00, 0x00, 0x00, 0x00, 0x00, 0x00, 0x00, 0x00, 0x00, 0x00, 0x00, 0x00, 0x00, 0x00, 0x00, 0x00, 0x00, 0x00, 0x00, 0x00, 0x00, 0x00, 0x00, 0x00, 0x00, 0x00, 0x00, 0x00, 0x00, 0x00, 0x00, 0x00, 0x00, 0x00, 0x00, 0x00, 0x00, 0x00, 0x00, 0x00, 0x00, 0x00, 0x00, 0x00, 0x00, 0x00, 0x00, 0x00, 0x00, 0x00, 0x00, 0x00, 0x00, 0x00, 0x00, 0x00, 0x00, 0x00, 0x00, 0x00, 0x00, 0x00, 0x00, 0x00, 0x00, 0x00, 0x00, 0x00, 0x00, 0x00, 0x00, 0x00, 0x00, 0x00, 0x00, 0x00, 0x00, 0x00, 0x00, 0x00, 0x00, 0x00, 0x00, 0x00, 0x00, 0x00, 0x00, 0x00, 0x00, 0x00, 0x00, 0x00, 0x00, 0x00, 0x00, 0x00, 0x00, 0x00, 0x00, 0x00, 0x00, 0x00, 0x00, 0x00, 0x00, 0x00, 0x00, 0x00, 0x00, 0x00, 0x00, 0x00, 0x00, 0x00, 0x00, 0x00, 0x00, 0x00, 0x00, 0x00, 0x00, 0x00, 0x00, 0x00, 0x00, 0x00, 0x00, 0x00, 0x00, 0x00, 0x00, 0x00, 0x00, 0x00, 0x00, 0x00, 0x00, 0x00, 0x00, 0x00, 0x00, 0x00, 0x00, 0x00, 0x00, 0x00, 0x00, 0x00, 0x00, 0x00, 0x00, 0x00, 0x00, 0x00, 0x00, 0x00, 0x00, 0x00, 0x00, 0x00, 0x00, 0x00, 0x00, 0x00, 0x00, 0x00, 0x00, 0x00, 0x00, 0x00, 0x00, 0x00, 0x00, 0x00, 0x00, 0x00, 0x00, 0x00, 0x00, 0x00, 0x00, 0x00, 0x00, 0x00, 0x00, 0x00, 0x00, 0x00, 0x00, 0x00, 0x00, 0x00, 0x00, 0x00, 0x00, 0x00, 0x00, 0x00, 0x00, 0x00, 0x00, 0x00, 0x00, 0x00, 0x00, 0x00, 0x00, 0x00, 0x00, 0x00, 0x00, 0x00, 0x00, 0x00, 0x00, 0x00, 0x00, 0x00, 0x00, 0x00, 0x00, 0x00, 0x00, 0x00, 0x00, 0x00, 0x00, 0x00, 0x00, 0x00, 0x00, 0x00, 0x00, 0x00, 0x00, 0x00, 0x00, 0x00, 0x00, 0x00, 0x00, 0x00, 0x00, 0x00, 0x00, 0x00, 0x00, 0x00, 0x00, 0x40, 0x00, 0x00, 0x00, 0x18, 0x57, 0x1e, 0x3b, 0x35, 0xcb, 0x1a, 0x3b, 0x2f, 0x01, 0x09, 0x3b, 0x01, 0x9d, 0x30, 0x3b, 0x5e, 0xbd, 0x27, 0x3b, 0x98, 0x86, 0x29, 0x3b, 0xe1, 0x70, 0x22, 0x3b, 0x8e, 0x39, 0x11, 0x3b, 0x56, 0xc6, 0x25, 0x3b, 0x86, 0xb7, 0x2b, 0x3b, 0xbe, 0x32, 0x1f, 0x3b, 0xb3, 0x08, 0x20, 0x3b, 0x62, 0xf3, 0x23, 0x3b, 0x45, 0xf9, 0x2e, 0x3b, 0x74, 0xd0, 0x1f, 0x3b, 0xbd, 0xf6, 0x11, 0x3b, 0x2f, 0x9e, 0x28, 0x3b, 0x78, 0x07, 0x27, 0x3b, 0xa1, 0xd8, 0x26, 0x3b, 0x2d, 0x93, 0x23, 0x3b, 0x61, 0xe3, 0x18, 0x3b, 0x88, 0x80, 0x23, 0x3b, 0xe3, 0x74, 0x20, 0x3b, 0xa3, 0x8d, 0x2e, 0x3b, 0xa8, 0x57, 0x14, 0x3b, 0xe3, 0x00, 0x15, 0x3b, 0xc6, 0xf5, 0x24, 0x3b, 0x11, 0x85, 0x16, 0x3b, 0xe2, 0xbc, 0x16, 0x3b, 0x9d, 0x57, 0x2c, 0x3b, 0x8d, 0x09, 0x22, 0x3b, 0xc9, 0x64, 0x2d, 0x3b, 0xfa, 0x0e, 0x0c, 0x3b, 0xd0, 0x2a, 0x21, 0x3b, 0xe9, 0xb7, 0x28, 0x3b, 0x9f, 0xf9, 0x1f, 0x3b, 0x4f, 0x9b, 0x2b, 0x3b, 0xb0, 0x17, 0x31, 0x3b, 0x50, 0x60, 0x20, 0x3b, 0xc4, 0x50, 0x16, 0x3b, 0xdd, 0x22, 0x1e, 0x3b, 0x03, 0xd9, 0x2c, 0x3b, 0x37, 0xbd, 0x23, 0x3b, 0x70, 0xe7, 0x1b, 0x3b, 0xda, 0xc6, 0x22, 0x3b, 0x93, 0x49, 0x1b, 0x3b, 0x12, 0x7c, 0x20, 0x3b, 0x22, 0x67, 0x1c, 0x3b, 0xfb, 0x86, 0x30, 0x3b, 0x4e, 0x27, 0x2a, 0x3b, 0xe6, 0xd8, 0x11, 0x3b, 0xf9, 0x1a, 0x1a, 0x3b, 0x82, 0x2e, 0x2b, 0x3b, 0xa3, 0xed, 0x27, 0x3b, 0xd7, 0x13, 0x23, 0x3b, 0x34, 0x4f, 0x1e, 0x3b, 0x90, 0x29, 0x10, 0x3b, 0xd7, 0x9a, 0x24, 0x3b, 0x2f, 0xf0, 0x1b, 0x3b, 0xf5, 0x1d, 0x18, 0x3b, 0x8b, 0x94, 0x1e, 0x3b, 0x0f, 0x66, 0x1d, 0x3b, 0x93, 0x04, 0x0f, 0x3b, 0x26, 0x85, 0x24, 0x3b, 0x12, 0x00, 0x00, 0x00, 0x74, 0x66, 0x6c, 0x2e, 0x70, 0x73, 0x65, 0x75, 0x64, 0x6f, 0x5f, 0x71, 0x63, 0x6f, 0x6e, 0x73, 0x74, 0x33, 0x00, 0x00, 0x04, 0x00, 0x00, 0x00, 0x40, 0x00, 0x00, 0x00, 0x01, 0x00, 0x00, 0x00, 0x01, 0x00, 0x00, 0x00, 0x20, 0x00, 0x00, 0x00, 0xc2, 0xfb, 0xff, 0xff, 0x00, 0x00, 0x00, 0x01, 0x14, 0x00, 0x00, 0x00, 0x24, 0x03, 0x00, 0x00, 0x05, 0x00, 0x00, 0x00, 0x00, 0x00, 0x00, 0x02, 0x30, 0x03, 0x00, 0x00, 0x3c, 0xfb, 0xff, 0xff, 0x08, 0x00, 0x00, 0x00, 0x08, 0x02, 0x00, 0x00, 0x40, 0x00, 0x00, 0x00, 0x00, 0x00, 0x00, 0x00, 0x00, 0x00, 0x00, 0x00, 0x00, 0x00, 0x00, 0x00, 0x00, 0x00, 0x00, 0x00, 0x00, 0x00, 0x00, 0x00, 0x00, 0x00, 0x00, 0x00, 0x00, 0x00, 0x00, 0x00, 0x00, 0x00, 0x00, 0x00, 0x00, 0x00, 0x00, 0x00, 0x00, 0x00, 0x00, 0x00, 0x00, 0x00, 0x00, 0x00, 0x00, 0x00, 0x00, 0x00, 0x00, 0x00, 0x00, 0x00, 0x00, 0x00, 0x00, 0x00, 0x00, 0x00, 0x00, 0x00, 0x00, 0x00, 0x00, 0x00, 0x00, 0x00, 0x00, 0x00, 0x00, 0x00, 0x00, 0x00, 0x00, 0x00, 0x00, 0x00, 0x00, 0x00, 0x00, 0x00, 0x00, 0x00, 0x00, 0x00, 0x00, 0x00, 0x00, 0x00, 0x00, 0x00, 0x00, 0x00, 0x00, 0x00, 0x00, 0x00, 0x00, 0x00, 0x00, 0x00, 0x00, 0x00, 0x00, 0x00, 0x00, 0x00, 0x00, 0x00, 0x00, 0x00, 0x00, 0x00, 0x00, 0x00, 0x00, 0x00, 0x00, 0x00, 0x00, 0x00, 0x00, 0x00, 0x00, 0x00, 0x00, 0x00, 0x00, 0x00, 0x00, 0x00, 0x00, 0x00, 0x00, 0x00, 0x00, 0x00, 0x00, 0x00, 0x00, 0x00, 0x00, 0x00, 0x00, 0x00, 0x00, 0x00, 0x00, 0x00, 0x00, 0x00, 0x00, 0x00, 0x00, 0x00, 0x00, 0x00, 0x00, 0x00, 0x00, 0x00, 0x00, 0x00, 0x00, 0x00, 0x00, 0x00, 0x00, 0x00, 0x00, 0x00, 0x00, 0x00, 0x00, 0x00, 0x00, 0x00, 0x00, 0x00, 0x00, 0x00, 0x00, 0x00, 0x00, 0x00, 0x00, 0x00, 0x00, 0x00, 0x00, 0x00, 0x00, 0x00, 0x00, 0x00, 0x00, 0x00, 0x00, 0x00, 0x00, 0x00, 0x00, 0x00, 0x00, 0x00, 0x00, 0x00, 0x00, 0x00, 0x00, 0x00, 0x00, 0x00, 0x00, 0x00, 0x00, 0x00, 0x00, 0x00, 0x00, 0x00, 0x00, 0x00, 0x00, 0x00, 0x00, 0x00, 0x00, 0x00, 0x00, 0x00, 0x00, 0x00, 0x00, 0x00, 0x00, 0x00, 0x00, 0x00, 0x00, 0x00, 0x00, 0x00, 0x00, 0x00, 0x00, 0x00, 0x00, 0x00, 0x00, 0x00, 0x00, 0x00, 0x00, 0x00, 0x00, 0x00, 0x00, 0x00, 0x00, 0x00, 0x00, 0x00, 0x00, 0x00, 0x00, 0x00, 0x00, 0x00, 0x00, 0x00, 0x00, 0x00, 0x00, 0x00, 0x00, 0x00, 0x00, 0x00, 0x00, 0x00, 0x00, 0x00, 0x00, 0x00, 0x00, 0x00, 0x00, 0x00, 0x00, 0x00, 0x00, 0x00, 0x00, 0x00, 0x00, 0x00, 0x00, 0x00, 0x00, 0x00, 0x00, 0x00, 0x00, 0x00, 0x00, 0x00, 0x00, 0x00, 0x00, 0x00, 0x00, 0x00, 0x00, 0x00, 0x00, 0x00, 0x00, 0x00, 0x00, 0x00, 0x00, 0x00, 0x00, 0x00, 0x00, 0x00, 0x00, 0x00, 0x00, 0x00, 0x00, 0x00, 0x00, 0x00, 0x00, 0x00, 0x00, 0x00, 0x00, 0x00, 0x00, 0x00, 0x00, 0x00, 0x00, 0x00, 0x00, 0x00, 0x00, 0x00, 0x00, 0x00, 0x00, 0x00, 0x00, 0x00, 0x00, 0x00, 0x00, 0x00, 0x00, 0x00, 0x00, 0x00, 0x00, 0x00, 0x00, 0x00, 0x00, 0x00, 0x00, 0x00, 0x00, 0x00, 0x00, 0x00, 0x00, 0x00, 0x00, 0x00, 0x00, 0x00, 0x00, 0x00, 0x00, 0x00, 0x00, 0x00, 0x00, 0x00, 0x00, 0x00, 0x00, 0x00, 0x00, 0x00, 0x00, 0x00, 0x00, 0x00, 0x00, 0x00, 0x00, 0x00, 0x00, 0x00, 0x00, 0x00, 0x00, 0x00, 0x00, 0x00, 0x00, 0x00, 0x00, 0x00, 0x00, 0x00, 0x00, 0x00, 0x00, 0x00, 0x00, 0x00, 0x00, 0x00, 0x00, 0x00, 0x00, 0x00, 0x00, 0x00, 0x00, 0x00, 0x00, 0x00, 0x00, 0x00, 0x00, 0x00, 0x00, 0x00, 0x00, 0x00, 0x00, 0x00, 0x00, 0x00, 0x00, 0x00, 0x00, 0x00, 0x00, 0x00, 0x00, 0x00, 0x00, 0x00, 0x00, 0x00, 0x00, 0x00, 0x00, 0x00, 0x00, 0x00, 0x00, 0x00, 0x00, 0x00, 0x00, 0x00, 0x00, 0x00, 0x00, 0x00, 0x00, 0x00, 0x00, 0x00, 0x00, 0x00, 0x00, 0x00, 0x00, 0x00, 0x00, 0x00, 0x00, 0x00, 0x00, 0x00, 0x00, 0x00, 0x00, 0x00, 0x00, 0x00, 0x00, 0x00, 0x00, 0x00, 0x00, 0x00, 0x00, 0x00, 0x00, 0x00, 0x00, 0x00, 0x00, 0x00, 0x40, 0x00, 0x00, 0x00, 0x78, 0xd1, 0x07, 0x37, 0xb7, 0xc6, 0x04, 0x37, 0xe5, 0x08, 0xeb, 0x36, 0x00, 0x7e, 0x17, 0x37, 0x7a, 0xe1, 0x0f, 0x37, 0xab, 0x69, 0x11, 0x37, 0xef, 0x55, 0x0b, 0x37, 0xff, 0x22, 0xf9, 0x36, 0xff, 0x31, 0x0e, 0x37, 0xd0, 0x4a, 0x13, 0x37, 0xe0, 0x8d, 0x08, 0x37, 0x66, 0x45, 0x09, 0x37, 0x76, 0xa1, 0x0c, 0x37, 0xf8, 0x15, 0x16, 0x37, 0x27, 0x15, 0x09, 0x37, 0x8b, 0x67, 0xfa, 0x36, 0x51, 0xa2, 0x10, 0x37, 0x74, 0x45, 0x0f, 0x37, 0x46, 0x1d, 0x0f, 0x37, 0xf0, 0x4e, 0x0c, 0x37, 0x47, 0x24, 0x03, 0x37, 0xf2, 0x3e, 0x0c, 0x37, 0x32, 0xa2, 0x09, 0x37, 0xa5, 0xb9, 0x15, 0x37, 0x28, 0x7c, 0xfe, 0x36, 0x7a, 0x9e, 0xff, 0x36, 0x19, 0x7f, 0x0d, 0x37, 0x34, 0x1c, 0x01, 0x37, 0x15, 0x4c, 0x01, 0x37, 0x22, 0xd4, 0x13, 0x37, 0x4d, 0xfd, 0x0a, 0x37, 0x04, 0xbb, 0x14, 0x37, 0x14, 0x46, 0xf0, 0x36, 0x3f, 0x3e, 0x0a, 0x37, 0x62, 0xb8, 0x10, 0x37, 0x77, 0x38, 0x09, 0x37, 0x9d, 0x32, 0x13, 0x37, 0x3c, 0xe7, 0x17, 0x37, 0x8c, 0x90, 0x09, 0x37, 0x58, 0xef, 0x00, 0x37, 0xaa, 0xa4, 0x07, 0x37, 0x20, 0x43, 0x14, 0x37, 0x00, 0x73, 0x0c, 0x37, 0x85, 0xba, 0x05, 0x37, 0xad, 0x9f, 0x0b, 0x37, 0x1c, 0x33, 0x05, 0x37, 0x5c, 0xa8, 0x09, 0x37, 0x0d, 0x28, 0x06, 0x37, 0x1c, 0x6b, 0x17, 0x37, 0x85, 0xf3, 0x11, 0x37, 0x5a, 0x34, 0xfa, 0x36, 0x8d, 0x2f, 0x04, 0x37, 0x49, 0xd5, 0x12, 0x37, 0xe2, 0x0a, 0x10, 0x37, 0xb7, 0xe1, 0x0b, 0x37, 0xb3, 0xca, 0x07, 0x37, 0x63, 0x50, 0xf7, 0x36, 0x1a, 0x31, 0x0d, 0x37, 0x05, 0xc2, 0x05, 0x37, 0xef, 0x7a, 0x02, 0x37, 0x2d, 0x06, 0x08, 0x37, 0xb7, 0x02, 0x07, 0x37, 0xc2, 0x59, 0xf5, 0x36, 0x7e, 0x1e, 0x0d, 0x37, 0x12, 0x00, 0x00, 0x00, 0x74, 0x66, 0x6c, 0x2e, 0x70, 0x73, 0x65, 0x75, 0x64, 0x6f, 0x5f, 0x71, 0x63, 0x6f, 0x6e, 0x73, 0x74, 0x32, 0x00, 0x00, 0x01, 0x00, 0x00, 0x00, 0x40, 0x00, 0x00, 0x00, 0x12, 0xff, 0xff, 0xff, 0x00, 0x00, 0x00, 0x01, 0x14, 0x00, 0x00, 0x00, 0x48, 0x00, 0x00, 0x00, 0x04, 0x00, 0x00, 0x00, 0x00, 0x00, 0x00, 0x09, 0x54, 0x00, 0x00, 0x00, 0x8c, 0xfe, 0xff, 0xff, 0x08, 0x00, 0x00, 0x00, 0x20, 0x00, 0x00, 0x00, 0x03, 0x00, 0x00, 0x00, 0x00, 0x00, 0x00, 0x00, 0x00, 0x00, 0x00, 0x00, 0x00, 0x00, 0x00, 0x00, 0x00, 0x00, 0x00, 0x00, 0x00, 0x00, 0x00, 0x00, 0x00, 0x00, 0x00, 0x00, 0x03, 0x00, 0x00, 0x00, 0x96, 0xca, 0x1d, 0x3b, 0x84, 0x1f, 0x23, 0x3b, 0x7b, 0x0a, 0x27, 0x3b, 0x12, 0x00, 0x00, 0x00, 0x74, 0x66, 0x6c, 0x2e, 0x70, 0x73, 0x65, 0x75, 0x64, 0x6f, 0x5f, 0x71, 0x63, 0x6f, 0x6e, 0x73, 0x74, 0x31, 0x00, 0x00, 0x02, 0x00, 0x00, 0x00, 0x03, 0x00, 0x00, 0x00, 0x40, 0x00, 0x00, 0x00, 0x8a, 0xff, 0xff, 0xff, 0x00, 0x00, 0x00, 0x01, 0x14, 0x00, 0x00, 0x00, 0x48, 0x00, 0x00, 0x00, 0x03, 0x00, 0x00, 0x00, 0x00, 0x00, 0x00, 0x02, 0x54, 0x00, 0x00, 0x00, 0x04, 0xff, 0xff, 0xff, 0x08, 0x00, 0x00, 0x00, 0x20, 0x00, 0x00, 0x00, 0x03, 0x00, 0x00, 0x00, 0x00, 0x00, 0x00, 0x00, 0x00, 0x00, 0x00, 0x00, 0x00, 0x00, 0x00, 0x00, 0x00, 0x00, 0x00, 0x00, 0x00, 0x00, 0x00, 0x00, 0x00, 0x00, 0x00, 0x00, 0x03, 0x00, 0x00, 0x00, 0xa3, 0xec, 0x58, 0x36, 0x14, 0x41, 0x60, 0x36, 0xe9, 0xa3, 0x65, 0x36, 0x11, 0x00, 0x00, 0x00, 0x74, 0x66, 0x6c, 0x2e, 0x70, 0x73, 0x65, 0x75, 0x64, 0x6f, 0x5f, 0x71, 0x63, 0x6f, 0x6e, 0x73, 0x74, 0x00, 0x00, 0x00, 0x01, 0x00, 0x00, 0x00, 0x03, 0x00, 0x00, 0x00, 0x00, 0x00, 0x16, 0x00, 0x1c, 0x00, 0x18, 0x00, 0x17, 0x00, 0x10, 0x00, 0x0c, 0x00, 0x08, 0x00, 0x00, 0x00, 0x00, 0x00, 0x00, 0x00, 0x07, 0x00, 0x16, 0x00, 0x00, 0x00, 0x00, 0x00, 0x00, 0x01, 0x18, 0x00, 0x00, 0x00, 0x18, 0x00, 0x00, 0x00, 0x02, 0x00, 0x00, 0x00, 0x00, 0x00, 0x00, 0x02, 0x20, 0x00, 0x00, 0x00, 0x04, 0x00, 0x04, 0x00, 0x04, 0x00, 0x00, 0x00, 0x0e, 0x00, 0x00, 0x00, 0x61, 0x72, 0x69, 0x74, 0x68, 0x2e, 0x63, 0x6f, 0x6e, 0x73, 0x74, 0x61, 0x6e, 0x74, 0x00, 0x00, 0x01, 0x00, 0x00, 0x00, 0x02, 0x00, 0x00, 0x00, 0x00, 0x00, 0x16, 0x00, 0x20, 0x00, 0x1c, 0x00, 0x1b, 0x00, 0x14, 0x00, 0x10, 0x00, 0x0c, 0x00, 0x00, 0x00, 0x00, 0x00, 0x08, 0x00, 0x07, 0x00, 0x16, 0x00, 0x00, 0x00, 0x00, 0x00, 0x00, 0x01, 0x18, 0x00, 0x00, 0x00, 0x34, 0x00, 0x00, 0x00, 0x50, 0x00, 0x00, 0x00, 0x01, 0x00, 0x00, 0x00, 0x00, 0x00, 0x00, 0x09, 0x68, 0x00, 0x00, 0x00, 0x04, 0x00, 0x00, 0x00, 0xff, 0xff, 0xff, 0xff, 0x40, 0x00, 0x00, 0x00, 0x3f, 0x00, 0x00, 0x00, 0x01, 0x00, 0x00, 0x00, 0x0c, 0x00, 0x0c, 0x00, 0x00, 0x00, 0x00, 0x00, 0x08, 0x00, 0x04, 0x00, 0x0c, 0x00, 0x00, 0x00, 0x08, 0x00, 0x00, 0x00, 0x10, 0x00, 0x00, 0x00, 0x01, 0x00, 0x00, 0x00, 0x7f, 0x00, 0x00, 0x00, 0x00, 0x00, 0x00, 0x00, 0x01, 0x00, 0x00, 0x00, 0xa1, 0xa0, 0xa0, 0x3e, 0x1d, 0x00, 0x00, 0x00, 0x73, 0x65, 0x72, 0x76, 0x69, 0x6e, 0x67, 0x5f, 0x64, 0x65, 0x66, 0x61, 0x75, 0x6c, 0x74, 0x5f, 0x69, 0x6e, 0x70, 0x75, 0x74, 0x5f, 0x6c, 0x61, 0x79, 0x65, 0x72, 0x3a, 0x30, 0x00, 0x00, 0x00, 0x04, 0x00, 0x00, 0x00, 0x01, 0x00, 0x00, 0x00, 0x40, 0x00, 0x00, 0x00, 0x3f, 0x00, 0x00, 0x00, 0x01, 0x00, 0x00, 0x00, 0x06, 0x00, 0x00, 0x00, 0x74, 0x00, 0x00, 0x00, 0x54, 0x00, 0x00, 0x00, 0x40, 0x00, 0x00, 0x00, 0x2c, 0x00, 0x00, 0x00, 0x18, 0x00, 0x00, 0x00, 0x04, 0x00, 0x00, 0x00, 0xb0, 0xff, 0xff, 0xff, 0x19, 0x00, 0x00, 0x00, 0x02, 0x00, 0x00, 0x00, 0x00, 0x00, 0x00, 0x19, 0xc0, 0xff, 0xff, 0xff, 0x09, 0x00, 0x00, 0x00, 0x04, 0x00, 0x00, 0x00, 0x00, 0x00, 0x00, 0x09, 0xd0, 0xff, 0xff, 0xff, 0x28, 0x00, 0x00, 0x00, 0x02, 0x00, 0x00, 0x00, 0x00, 0x00, 0x00, 0x28, 0xe0, 0xff, 0xff, 0xff, 0x04, 0x00, 0x00, 0x00, 0x03, 0x00, 0x00, 0x00, 0x00, 0x00, 0x00, 0x04, 0xf0, 0xff, 0xff, 0xff, 0x11, 0x00, 0x00, 0x00, 0x02, 0x00, 0x00, 0x00, 0x00, 0x00, 0x00, 0x11, 0x0c, 0x00, 0x10, 0x00, 0x0f, 0x00, 0x00, 0x00, 0x08, 0x00, 0x04, 0x00, 0x0c, 0x00, 0x00, 0x00, 0x03, 0x00, 0x00, 0x00, 0x03, 0x00, 0x00, 0x00, 0x00, 0x00, 0x00, 0x03
};

const unsigned int g_model_len = 13400;
